{
  "version": "1.0",
  "truncation": null,
  "padding": null,
  "added_tokens": [
    {
      "id": 0,
      "content": "<|pad|>",
      "single_word": false,
      "lstrip": false,
      "rstrip": false,
      "normalized": false,
      "special": true
    },
    {
      "id": 1,
      "content": "<|unk|>",
      "single_word": false,
      "lstrip": false,
      "rstrip": false,
      "normalized": false,
      "special": true
    },
    {
      "id": 2,
      "content": "<|bos|>",
      "single_word": false,
      "lstrip": false,
      "rstrip": false,
      "normalized": false,
      "special": true
    },
    {
      "id": 3,
      "content": "<|eos|>",
      "single_word": false,
      "lstrip": false,
      "rstrip": false,
      "normalized": false,
      "special": true
    },
    {
      "id": 4,
      "content": "<|output|>",
      "single_word": false,
      "lstrip": false,
      "rstrip": false,
      "normalized": false,
      "special": true
    }
  ],
  "normalizer": null,
  "pre_tokenizer": {
    "type": "ByteLevel",
    "add_prefix_space": false,
    "trim_offsets": true,
    "use_regex": true
  },
  "post_processor": null,
  "decoder": {
    "type": "ByteLevel",
    "add_prefix_space": true,
    "trim_offsets": true,
    "use_regex": true
  },
  "model": {
    "type": "BPE",
    "dropout": null,
    "unk_token": "<|unk|>",
    "continuing_subword_prefix": null,
    "end_of_word_suffix": null,
    "fuse_unk": false,
    "byte_fallback": false,
    "ignore_merges": false,
    "vocab": {
      "<|pad|>": 0,
      "<|unk|>": 1,
      "<|bos|>": 2,
      "<|eos|>": 3,
      "<|output|>": 4,
      "!": 5,
      "\"": 6,
      "#": 7,
      "$": 8,
      "%": 9,
      "&": 10,
      "'": 11,
      "(": 12,
      ")": 13,
      "*": 14,
      "+": 15,
      ",": 16,
      "-": 17,
      ".": 18,
      "/": 19,
      "0": 20,
      "1": 21,
      "2": 22,
      "3": 23,
      "4": 24,
      "5": 25,
      "6": 26,
      "7": 27,
      "8": 28,
      "9": 29,
      ":": 30,
      ";": 31,
      "<": 32,
      "=": 33,
      ">": 34,
      "?": 35,
      "@": 36,
      "A": 37,
      "B": 38,
      "C": 39,
      "D": 40,
      "E": 41,
      "F": 42,
      "G": 43,
      "H": 44,
      "I": 45,
      "J": 46,
      "K": 47,
      "L": 48,
      "M": 49,
      "N": 50,
      "O": 51,
      "P": 52,
      "Q": 53,
      "R": 54,
      "S": 55,
      "T": 56,
      "U": 57,
      "V": 58,
      "W": 59,
      "X": 60,
      "Y": 61,
      "Z": 62,
      "[": 63,
      "\\": 64,
      "]": 65,
      "^": 66,
      "_": 67,
      "`": 68,
      "a": 69,
      "b": 70,
      "c": 71,
      "d": 72,
      "e": 73,
      "f": 74,
      "g": 75,
      "h": 76,
      "i": 77,
      "j": 78,
      "k": 79,
      "l": 80,
      "m": 81,
      "n": 82,
      "o": 83,
      "p": 84,
      "q": 85,
      "r": 86,
      "s": 87,
      "t": 88,
      "u": 89,
      "v": 90,
      "w": 91,
      "x": 92,
      "y": 93,
      "z": 94,
      "{": 95,
      "|": 96,
      "}": 97,
      "~": 98,
      "¦": 99,
      "§": 100,
      "ª": 101,
      "°": 102,
      "³": 103,
      "¸": 104,
      "º": 105,
      "Â": 106,
      "Ã": 107,
      "Ä": 108,
      "Î": 109,
      "Ð": 110,
      "Ø": 111,
      "Û": 112,
      "â": 113,
      "Ā": 114,
      "Ċ": 115,
      "č": 116,
      "Ġ": 117,
      "ġ": 118,
      "Ģ": 119,
      "ĥ": 120,
      "Ĩ": 121,
      "Į": 122,
      "İ": 123,
      "Ĵ": 124,
      "ķ": 125,
      "Ł": 126,
      "ME": 127,
      "ER": 128,
      "ON": 129,
      "SI": 130,
      "ES": 131,
      "TI": 132,
      "ĠI": 133,
      "AME": 134,
      "PR": 135,
      "EX": 136,
      "PRES": 137,
      "SION": 138,
      "EXPRES": 139,
      "EXPRESSION": 140,
      "DE": 141,
      "NAME": 142,
      "FI": 143,
      "FIER": 144,
      "NTI": 145,
      "ĠIDE": 146,
      "ĠIDENTI": 147,
      "FIERNAME": 148,
      "ĠIDENTIFIERNAME": 149,
      "on": 150,
      "AR": 151,
      "OC": 152,
      "AL": 153,
      "ti": 154,
      "er": 155,
      "LE": 156,
      "TER": 157,
      "re": 158,
      "TION": 159,
      "SEXPRESSION": 160,
      "in": 161,
      "ATION": 162,
      "PLE": 163,
      "ĠSI": 164,
      "MPLE": 165,
      "ĠSIMPLE": 166,
      "AC": 167,
      "CES": 168,
      "ACCES": 169,
      "ACCESSEXPRESSION": 170,
      "LOC": 171,
      "MB": 172,
      "MEMB": 173,
      "MEMBER": 174,
      "tion": 175,
      "ĠSIMPLEMEMBER": 176,
      "ĠSIMPLEMEMBERACCESSEXPRESSION": 177,
      "ar": 178,
      "CL": 179,
      "en": 180,
      "AT": 181,
      "ĠP": 182,
      "ATIONEXPRESSION": 183,
      "AMETER": 184,
      "ARAMETER": 185,
      "ĠIN": 186,
      "ĠPARAMETER": 187,
      "Ġt": 188,
      "ĠLOC": 189,
      "ĠLOCAL": 190,
      "NT": 191,
      "am": 192,
      "ST": 193,
      "VOC": 194,
      "ĠINVOC": 195,
      "ĠINVOCATIONEXPRESSION": 196,
      "Ġ1": 197,
      "at": 198,
      "MENT": 199,
      "al": 200,
      "an": 201,
      "ty": 202,
      "ou": 203,
      "TY": 204,
      "le": 205,
      "he": 206,
      "ATE": 207,
      "Ġs": 208,
      "or": 209,
      "ation": 210,
      "pe": 211,
      "ame": 212,
      "DECL": 213,
      "DECLAR": 214,
      "ATEMENT": 215,
      "ro": 216,
      "STATEMENT": 217,
      "ing": 218,
      "ĠC": 219,
      "TYP": 220,
      "Ġc": 221,
      "ĠE": 222,
      "TYPE": 223,
      "ce": 224,
      "ype": 225,
      "ĠNAME": 226,
      "res": 227,
      "ĠT": 228,
      "ed": 229,
      "ALEXPRESSION": 230,
      "et": 231,
      "AB": 232,
      "DTYPE": 233,
      "pu": 234,
      "ĠNAMEDTYPE": 235,
      "SE": 236,
      "per": 237,
      "ABLE": 238,
      "as": 239,
      "si": 240,
      "ĠN": 241,
      "ITER": 242,
      "ITERALEXPRESSION": 243,
      "ĠV": 244,
      "tr": 245,
      "Type": 246,
      "il": 247,
      "ĠB": 248,
      "ic": 249,
      "de": 250,
      "ct": 251,
      "Ġv": 252,
      "DECLARATION": 253,
      "Ġin": 254,
      "Ġthe": 255,
      "ARI": 256,
      "ARIABLE": 257,
      "ĠVARIABLE": 258,
      "ig": 259,
      "LOCK": 260,
      "ĠBLOCK": 261,
      "sion": 262,
      "AU": 263,
      "tity": 264,
      "ĠA": 265,
      "CLAU": 266,
      "CLAUSE": 267,
      "RE": 268,
      "is": 269,
      "der": 270,
      "Ex": 271,
      "es": 272,
      "QU": 273,
      "no": 274,
      "pres": 275,
      "QUAL": 276,
      "roper": 277,
      "um": 278,
      "par": 279,
      "ent": 280,
      "pression": 281,
      "LITERALEXPRESSION": 282,
      "it": 283,
      "alu": 284,
      "out": 285,
      "Ġ2": 286,
      "Ġb": 287,
      "ul": 288,
      "RI": 289,
      "ate": 290,
      "ol": 291,
      "roperty": 292,
      "lic": 293,
      "ur": 294,
      "om": 295,
      "ĠNU": 296,
      "pp": 297,
      "ĠS": 298,
      "Con": 299,
      "ĠEQUAL": 300,
      "Ġan": 301,
      "uil": 302,
      "ex": 303,
      "ter": 304,
      "ore": 305,
      "Expression": 306,
      "ab": 307,
      "put": 308,
      "ntity": 309,
      "Ġ0": 310,
      "uilder": 311,
      "alue": 312,
      "OR": 313,
      "Ġw": 314,
      "ĠF": 315,
      "Ġto": 316,
      "output": 317,
      "NG": 318,
      "<|": 319,
      "|>": 320,
      "UE": 321,
      "ction": 322,
      "EL": 323,
      "Ġo": 324,
      "able": 325,
      "param": 326,
      "tring": 327,
      "Ġth": 328,
      "TH": 329,
      "ĠL": 330,
      "Ġvar": 331,
      "TERN": 332,
      "ATTERN": 333,
      "Ġre": 334,
      "ati": 335,
      "blic": 336,
      "public": 337,
      "Ġa": 338,
      "In": 339,
      "ELD": 340,
      "OD": 341,
      "our": 342,
      "Name": 343,
      "PATTERN": 344,
      "Ġn": 345,
      "FIELD": 346,
      "Re": 347,
      "ĠME": 348,
      "THOD": 349,
      "ĠMETHOD": 350,
      "ATOR": 351,
      "DECLARATOR": 352,
      "ĠVARIABLEDECLARATOR": 353,
      "ĠVARIABLEDECLARATION": 354,
      "LL": 355,
      "Ġm": 356,
      "ey": 357,
      "Ġf": 358,
      "SV": 359,
      "ALUE": 360,
      "ĠEQUALSV": 361,
      "ALUECLAUSE": 362,
      "ĠEQUALSVALUECLAUSE": 363,
      "ĠIF": 364,
      "not": 365,
      "ĠIFSTATEMENT": 366,
      "ĠLOCALDECLARATION": 367,
      "ĠLOCALDECLARATIONSTATEMENT": 368,
      "ase": 369,
      "Builder": 370,
      "ode": 371,
      "ly": 372,
      "var": 373,
      "ult": 374,
      "ĠThe": 375,
      "TC": 376,
      "Get": 377,
      "Ġd": 378,
      "ĠRE": 379,
      "ect": 380,
      "UR": 381,
      "Ġu": 382,
      "Ġthat": 383,
      "OL": 384,
      "STRI": 385,
      "STRING": 386,
      "ext": 387,
      "se": 388,
      "ĠPR": 389,
      "fig": 390,
      "OP": 391,
      "Ġst": 392,
      "ĠPROP": 393,
      "ĠPROPER": 394,
      "ĠO": 395,
      "omp": 396,
      "ĠNULL": 397,
      "MENTEXPRESSION": 398,
      "RO": 399,
      "ROW": 400,
      "Ġbe": 401,
      "TUR": 402,
      "TURN": 403,
      "TURNSTATEMENT": 404,
      "IC": 405,
      "AS": 406,
      "ri": 407,
      "ĠFIELD": 408,
      "ĠRETURNSTATEMENT": 409,
      "ith": 410,
      "and": 411,
      "ource": 412,
      "ĠAR": 413,
      "qu": 414,
      "property": 415,
      "ver": 416,
      "ĠPROPERTY": 417,
      "GN": 418,
      "SIGN": 419,
      "ption": 420,
      "ĠD": 421,
      "ASSIGN": 422,
      "ASSIGNMENTEXPRESSION": 423,
      "bj": 424,
      "ata": 425,
      ":_": 426,
      "Entity": 427,
      "st": 428,
      "Key": 429,
      "ROWEXPRESSION": 430,
      "ure": 431,
      "GIC": 432,
      "OGIC": 433,
      "ĠLOGIC": 434,
      "ĠLOGICAL": 435,
      "bject": 436,
      "end": 437,
      "ad": 438,
      "ĠCON": 439,
      "ĠSIMPLEASSIGNMENTEXPRESSION": 440,
      "ĠNULLLITERALEXPRESSION": 441,
      "me": 442,
      "Property": 443,
      "ĠGet": 444,
      "wor": 445,
      "notation": 446,
      "MERI": 447,
      "CLITERALEXPRESSION": 448,
      "ĠNUMERI": 449,
      "ĠNUMERICLITERALEXPRESSION": 450,
      "ĠARROWEXPRESSION": 451,
      "ĠARROWEXPRESSIONCLAUSE": 452,
      "ument": 453,
      "ĠEntity": 454,
      "Ġwith": 455,
      "Value": 456,
      "ag": 457,
      "ber": 458,
      "rame": 459,
      "work": 460,
      "ramework": 461,
      "Ġand": 462,
      "ns": 463,
      "gument": 464,
      "OT": 465,
      "av": 466,
      "EC": 467,
      "Ġ3": 468,
      "En": 469,
      "Ma": 470,
      "nt": 471,
      "Ġsu": 472,
      "uration": 473,
      "entity": 474,
      "ew": 475,
      "AN": 476,
      "ang": 477,
      "lation": 478,
      "ay": 479,
      "un": 480,
      "BJ": 481,
      "BJEC": 482,
      "od": 483,
      "figuration": 484,
      "ql": 485,
      "Ġis": 486,
      "if": 487,
      "STRINGLITERALEXPRESSION": 488,
      "Ġ$": 489,
      "ameter": 490,
      "ĠSTRINGLITERALEXPRESSION": 491,
      "Ġcon": 492,
      "Met": 493,
      "REATIONEXPRESSION": 494,
      "Source": 495,
      "ĠCore": 496,
      "ng": 497,
      "lease": 498,
      "vi": 499,
      "PI": 500,
      "ĠAPI": 501,
      "dd": 502,
      "ĠFramework": 503,
      "Ġrelease": 504,
      "em": 505,
      "TCREATIONEXPRESSION": 506,
      "BJECTCREATIONEXPRESSION": 507,
      "ven": 508,
      "Ġof": 509,
      "id": 510,
      "ery": 511,
      "An": 512,
      "DI": 513,
      "Ġor": 514,
      "De": 515,
      "Col": 516,
      "mo": 517,
      "ĠINTER": 518,
      "POL": 519,
      "ĠINTERPOL": 520,
      "ir": 521,
      "ĠOBJECTCREATIONEXPRESSION": 522,
      "avig": 523,
      "avigation": 524,
      "ck": 525,
      "dex": 526,
      "atic": 527,
      "To": 528,
      "text": 529,
      "Ġstring": 530,
      "ld": 531,
      "Annotation": 532,
      "urns": 533,
      "Ġcan": 534,
      "ĠEQUALSEXPRESSION": 535,
      "ener": 536,
      "ip": 537,
      "result": 538,
      "Ġk": 539,
      "hang": 540,
      "Th": 541,
      "ts": 542,
      "pd": 543,
      "DEXPRESSION": 544,
      "ull": 545,
      "ool": 546,
      "th": 547,
      "Par": 548,
      "mov": 549,
      "Ġstatic": 550,
      "con": 551,
      "ment": 552,
      "ces": 553,
      "hod": 554,
      "EntityType": 555,
      "Ġproperty": 556,
      "vention": 557,
      "LEMENT": 558,
      "uct": 559,
      "tern": 560,
      "pping": 561,
      "figurationSource": 562,
      "peration": 563,
      "ret": 564,
      "ain": 565,
      "WI": 566,
      "Ġname": 567,
      "Qu": 568,
      "truct": 569,
      "Ġwh": 570,
      "St": 571,
      "Ġas": 572,
      "Inf": 573,
      "ĠNOT": 574,
      "umn": 575,
      "ĠCon": 576,
      "ternal": 577,
      "omple": 578,
      "ception": 579,
      "ire": 580,
      "argument": 581,
      "ppend": 582,
      "DITION": 583,
      "ĠCONDITION": 584,
      "returns": 585,
      "Gener": 586,
      "ary": 587,
      "TCH": 588,
      "WITCH": 589,
      "ut": 590,
      "ity": 591,
      "ds": 592,
      "ual": 593,
      "Info": 594,
      "odel": 595,
      "Ġnew": 596,
      "ures": 597,
      "Mapping": 598,
      "omm": 599,
      "Ġon": 600,
      "ĠCA": 601,
      "Ġsame": 602,
      "Ġvalue": 603,
      "Pro": 604,
      "ĠAppend": 605,
      "Ġbool": 606,
      "Ġuse": 607,
      "omplex": 608,
      "ould": 609,
      "Query": 610,
      "ele": 611,
      "Res": 612,
      "hanged": 613,
      "Ġso": 614,
      "ot": 615,
      "lection": 616,
      "string": 617,
      "Data": 618,
      "rom": 619,
      "hould": 620,
      "Ġp": 621,
      "Ġresult": 622,
      "ĠSU": 623,
      "ĠIs": 624,
      "tual": 625,
      "ating": 626,
      "irtual": 627,
      "cl": 628,
      "ist": 629,
      "ommand": 630,
      "NGEXPRESSION": 631,
      "Ġit": 632,
      "Ġvirtual": 633,
      "ection": 634,
      "ĠIn": 635,
      "ator": 636,
      "Ġnot": 637,
      "String": 638,
      "ch": 639,
      "Ġfor": 640,
      "EQUAL": 641,
      "au": 642,
      "ANDEXPRESSION": 643,
      "all": 644,
      "Ġwhen": 645,
      "ĠNOTEQUAL": 646,
      "ĠNOTEQUALSEXPRESSION": 647,
      "Convention": 648,
      "ind": 649,
      "stan": 650,
      "DSTRING": 651,
      "ATEDSTRING": 652,
      "ĠINTERPOLATEDSTRING": 653,
      "Ġno": 654,
      "ĠLOGICALANDEXPRESSION": 655,
      "Null": 656,
      "umber": 657,
      "ĠAdd": 658,
      "ctor": 659,
      "ount": 660,
      "Exception": 661,
      "Ġtype": 662,
      "og": 663,
      "ĠELEMENT": 664,
      "moved": 665,
      "ility": 666,
      "try": 667,
      "ĠELEMENTACCESSEXPRESSION": 668,
      "ppor": 669,
      "On": 670,
      "Context": 671,
      "STEXPRESSION": 672,
      "ĠCASTEXPRESSION": 673,
      "ign": 674,
      "ĠY": 675,
      "ail": 676,
      "oreign": 677,
      "COL": 678,
      "Ġcomp": 679,
      "COLON": 680,
      "Ġupd": 681,
      "ĠTH": 682,
      "Ġapp": 683,
      "Ġinf": 684,
      "ĠM": 685,
      "atib": 686,
      "Ġcode": 687,
      "ĠNAMECOLON": 688,
      "Ġshould": 689,
      "Ġ4": 690,
      "Has": 691,
      "lication": 692,
      "ties": 693,
      "entityType": 694,
      "ptions": 695,
      "cess": 696,
      "Ġex": 697,
      "Ġy": 698,
      "Ġany": 699,
      "heck": 700,
      "Ġcau": 701,
      "irect": 702,
      "now": 703,
      "tructure": 704,
      "irectly": 705,
      "oreignKey": 706,
      "ma": 707,
      "ĠIt": 708,
      "Ġmay": 709,
      "Ġremoved": 710,
      "Ġchanged": 711,
      "ans": 712,
      "ras": 713,
      "Ġdo": 714,
      "rastructure": 715,
      "andar": 716,
      "Ġwithout": 717,
      "Ġonly": 718,
      "pri": 719,
      "ĠTYPE": 720,
      "Ġinternal": 721,
      "atibility": 722,
      "ervi": 723,
      "Ġext": 724,
      "parameter": 725,
      "Ġsuppor": 726,
      "Ġfail": 727,
      "Ġdirectly": 728,
      "Method": 729,
      "Ġapplication": 730,
      "Ġstandar": 731,
      "ĠIS": 732,
      "Ġfailures": 733,
      "Ġcompatibility": 734,
      "ĠYou": 735,
      "This": 736,
      "Ġknow": 737,
      "Ġpublic": 738,
      "adata": 739,
      "Ġupdating": 740,
      "Ġsupports": 741,
      "Ġnoti": 742,
      "Ġyour": 743,
      "Ġinfrastructure": 744,
      "ĠAPIs": 745,
      "reme": 746,
      "Ġsubject": 747,
      "Ġcaution": 748,
      "Ġdoing": 749,
      "Ġextreme": 750,
      "Ġstandards": 751,
      "Ġknowing": 752,
      "Ġnotice": 753,
      "ANT": 754,
      "ĠCONST": 755,
      "ANTPATTERN": 756,
      "ĠCONSTANTPATTERN": 757,
      "che": 758,
      "FIELDS": 759,
      "NU": 760,
      "rin": 761,
      "roperties": 762,
      "umer": 763,
      "fa": 764,
      "As": 765,
      "Metadata": 766,
      "vate": 767,
      "Index": 768,
      "private": 769,
      "inal": 770,
      "sh": 771,
      "ĠSWITCH": 772,
      "NI": 773,
      "Navigation": 774,
      "qual": 775,
      "Ar": 776,
      "Tr": 777,
      "Id": 778,
      "Sql": 779,
      "Or": 780,
      "iz": 781,
      "rent": 782,
      "ĠCONDITIONALEXPRESSION": 783,
      "ĠEx": 784,
      "Collection": 785,
      "pend": 786,
      "ken": 787,
      "ember": 788,
      "verri": 789,
      "PATTERNEXPRESSION": 790,
      "ĠISPATTERNEXPRESSION": 791,
      "Ġg": 792,
      "Parameter": 793,
      "lational": 794,
      "Read": 795,
      "verride": 796,
      "type": 797,
      "AEXPRESSION": 798,
      "AMB": 799,
      "DAEXPRESSION": 800,
      "LAMB": 801,
      "LAMBDAEXPRESSION": 802,
      "fault": 803,
      "ConfigurationSource": 804,
      "li": 805,
      "sit": 806,
      "Only": 807,
      "ĠDe": 808,
      "ĠTR": 809,
      "pro": 810,
      "unction": 811,
      "arg": 812,
      "Ġint": 813,
      "age": 814,
      "FEXPRESSION": 815,
      "ition": 816,
      "Operation": 817,
      "Token": 818,
      "Set": 819,
      "ence": 820,
      "ess": 821,
      "NOT": 822,
      "NOTEXPRESSION": 823,
      "OFEXPRESSION": 824,
      "ĠTYPEOFEXPRESSION": 825,
      "reate": 826,
      "ĠLOGICALNOTEXPRESSION": 827,
      "fer": 828,
      "oid": 829,
      "Ġvoid": 830,
      "CTION": 831,
      "ĠU": 832,
      "Enumer": 833,
      "urrent": 834,
      "mp": 835,
      "alues": 836,
      "tic": 837,
      "ap": 838,
      "ervice": 839,
      "red": 840,
      "ifi": 841,
      "nc": 842,
      "NULL": 843,
      "PPRES": 844,
      "SNULL": 845,
      "WAR": 846,
      "ABLEWAR": 847,
      "ĠSUPPRES": 848,
      "NINGEXPRESSION": 849,
      "SNULLABLEWAR": 850,
      "ĠSUPPRESSNULLABLEWAR": 851,
      "ĠSUPPRESSNULLABLEWARNINGEXPRESSION": 852,
      "UELITERALEXPRESSION": 853,
      "ĠTRUELITERALEXPRESSION": 854,
      "00": 855,
      "Fa": 856,
      "ated": 857,
      "Ġ.": 858,
      "olumn": 859,
      "paramName": 860,
      "ĠHas": 861,
      "Ġe": 862,
      "EXT": 863,
      "TEXT": 864,
      "ĠINTERPOLATEDSTRINGTEXT": 865,
      "ctory": 866,
      "ine": 867,
      "ting": 868,
      "ALSE": 869,
      "ĠFALSE": 870,
      "ĠFALSELITERALEXPRESSION": 871,
      "fi": 872,
      "ger": 873,
      "figure": 874,
      "isit": 875,
      "ĠName": 876,
      "ified": 877,
      "ĠSIMPLELAMBDAEXPRESSION": 878,
      "cip": 879,
      "rincip": 880,
      "rincipal": 881,
      "Base": 882,
      "ies": 883,
      "Column": 884,
      "Ġbuilder": 885,
      "ther": 886,
      "List": 887,
      "ve": 888,
      "Ġoverride": 889,
      "row": 890,
      "ReadOnly": 891,
      "value": 892,
      "Ġif": 893,
      "ORE": 894,
      "pl": 895,
      "Ġkey": 896,
      "iction": 897,
      "ictionary": 898,
      "son": 899,
      "Check": 900,
      "Ġde": 901,
      "Result": 902,
      "fin": 903,
      "Ġobject": 904,
      "eng": 905,
      "ompar": 906,
      "ength": 907,
      "sed": 908,
      "pec": 909,
      "ow": 910,
      "alid": 911,
      "ĠRe": 912,
      "vent": 913,
      "Core": 914,
      "OREXPRESSION": 915,
      "Ġl": 916,
      "int": 917,
      "REA": 918,
      "tain": 919,
      "ĠLOGICALOREXPRESSION": 920,
      "sql": 921,
      "of": 922,
      "stance": 923,
      "Ġentity": 924,
      "IT": 925,
      "ĠType": 926,
      "rim": 927,
      "Ġargument": 928,
      "query": 929,
      "ĠTo": 930,
      "ĠTr": 931,
      "ync": 932,
      "cel": 933,
      "Names": 934,
      "ĠINTERPOLATION": 935,
      "ime": 936,
      "IN": 937,
      "Entry": 938,
      "Depend": 939,
      "Factory": 940,
      "arget": 941,
      "Object": 942,
      "ner": 943,
      "enti": 944,
      "cellation": 945,
      "jection": 946,
      "iag": 947,
      "nection": 948,
      "nos": 949,
      "iagnos": 950,
      "orm": 951,
      "iagnostic": 952,
      "builder": 953,
      "ANEXPRESSION": 954,
      "Options": 955,
      "Ġspec": 956,
      "ĠValue": 957,
      "State": 958,
      "Enumerable": 959,
      "ship": 960,
      "ader": 961,
      "()": 962,
      "ĠW": 963,
      "name": 964,
      "ted": 965,
      "ccess": 966,
      "cellationToken": 967,
      "Member": 968,
      "Table": 969,
      "Argument": 970,
      "Ġspecified": 971,
      "ert": 972,
      "chema": 973,
      "ĠG": 974,
      "ABLETYPE": 975,
      "ĠNULLABLETYPE": 976,
      "ethod": 977,
      "ected": 978,
      "Add": 979,
      "finition": 980,
      "Ġbeing": 981,
      "essage": 982,
      "vider": 983,
      "omparer": 984,
      "action": 985,
      "Of": 986,
      "atch": 987,
      "Ġparameter": 988,
      "Time": 989,
      "Properties": 990,
      "Ġma": 991,
      "Log": 992,
      "Ġ5": 993,
      "time": 994,
      "ĠSWITCHEXPRESSION": 995,
      "Param": 996,
      "ForeignKey": 997,
      "clar": 998,
      "Command": 999,
      "DataAnnotation": 1000,
      "Un": 1001,
      "Ġfrom": 1002,
      "Relational": 1003,
      "ĠSUB": 1004,
      "Model": 1005,
      "ped": 1006,
      "unc": 1007,
      "ansaction": 1008,
      "ec": 1009,
      "ĠDECLARATION": 1010,
      "ĠDECLARATIONPATTERN": 1011,
      "ĠFind": 1012,
      "Store": 1013,
      "Ġnumber": 1014,
      "ĠAD": 1015,
      "pdate": 1016,
      "BIN": 1017,
      "ALACCESSEXPRESSION": 1018,
      "DINGEXPRESSION": 1019,
      "ĠCONDITIONALACCESSEXPRESSION": 1020,
      "BINDINGEXPRESSION": 1021,
      "atab": 1022,
      "ĠCount": 1023,
      "RA": 1024,
      "ĠMEMBER": 1025,
      "ĠMEMBERBINDINGEXPRESSION": 1026,
      "Code": 1027,
      "ha": 1028,
      "aliz": 1029,
      "ACH": 1030,
      "ĠFORE": 1031,
      "ĠFOREACH": 1032,
      "Async": 1033,
      "atabase": 1034,
      "ĠTParam": 1035,
      "claring": 1036,
      "Map": 1037,
      "Fi": 1038,
      "omplexProperty": 1039,
      "ISEXPRESSION": 1040,
      "ĠTHISEXPRESSION": 1041,
      "IConvention": 1042,
      "Call": 1043,
      "stant": 1044,
      "lement": 1045,
      "TypeMapping": 1046,
      "pon": 1047,
      "ĠIf": 1048,
      "ĠDECLAR": 1049,
      "ĠDECLARATIONEXPRESSION": 1050,
      "ĠparamName": 1051,
      "ates": 1052,
      "RAY": 1053,
      "Cl": 1054,
      "iagnostics": 1055,
      "valid": 1056,
      "dinal": 1057,
      "ray": 1058,
      "Json": 1059,
      "ĠAn": 1060,
      "ĠFOREACHSTATEMENT": 1061,
      "ĠExpression": 1062,
      "ĠARRAY": 1063,
      "eri": 1064,
      "ĠSt": 1065,
      "Ġthis": 1066,
      "ask": 1067,
      "lationship": 1068,
      "navigation": 1069,
      "ite": 1070,
      "fier": 1071,
      "ABEL": 1072,
      "move": 1073,
      "ARM": 1074,
      "ĠSWITCHEXPRESSIONARM": 1075,
      "new": 1076,
      "LABEL": 1077,
      "WITCHLABEL": 1078,
      "ĠNot": 1079,
      "ute": 1080,
      "entifier": 1081,
      ">:": 1082,
      "ced": 1083,
      "Is": 1084,
      "LSE": 1085,
      "ĠELSE": 1086,
      "ĠELSECLAUSE": 1087,
      "iginal": 1088,
      "ĠINTERPOLATEDSTRINGEXPRESSION": 1089,
      "Line": 1090,
      "Ġconfigure": 1091,
      "ĠADDEXPRESSION": 1092,
      "ned": 1093,
      "Db": 1094,
      "key": 1095,
      "po": 1096,
      "Dis": 1097,
      "Conver": 1098,
      "enc": 1099,
      "elect": 1100,
      "Count": 1101,
      "ange": 1102,
      "Ġinstance": 1103,
      "entry": 1104,
      "bu": 1105,
      "table": 1106,
      "Throw": 1107,
      "eld": 1108,
      "ventData": 1109,
      "tected": 1110,
      "ĠCreate": 1111,
      "protected": 1112,
      "ack": 1113,
      "rType": 1114,
      "sing": 1115,
      "index": 1116,
      "element": 1117,
      "Default": 1118,
      "te": 1119,
      "Ġch": 1120,
      "ESST": 1121,
      "ĠLESST": 1122,
      "ĠLESSTH": 1123,
      "Access": 1124,
      "TERTH": 1125,
      "REATERTH": 1126,
      "ĠGREATERTH": 1127,
      "lo": 1128,
      "str": 1129,
      "ĠCO": 1130,
      "ponse": 1131,
      "ĠInvalid": 1132,
      "Ġannotation": 1133,
      "ĠTry": 1134,
      "Ġconfiguration": 1135,
      "quals": 1136,
      "ĠDI": 1137,
      "erver": 1138,
      "CE": 1139,
      "ESCE": 1140,
      "ALESCE": 1141,
      "ĠCOALESCE": 1142,
      "ĠDeclaring": 1143,
      "nd": 1144,
      "ong": 1145,
      "Generic": 1146,
      "ĠSql": 1147,
      "omplexType": 1148,
      "cedure": 1149,
      "source": 1150,
      "Ġmax": 1151,
      "Ret": 1152,
      "iven": 1153,
      "pa": 1154,
      "ollection": 1155,
      "Out": 1156,
      "Function": 1157,
      "Ġexpression": 1158,
      "ĠSet": 1159,
      "Ġgiven": 1160,
      "Ġmodel": 1161,
      "OperationException": 1162,
      "igr": 1163,
      "ĠInvalidOperationException": 1164,
      "Comparer": 1165,
      "ELEMENT": 1166,
      "ĠDis": 1167,
      "Ġcall": 1168,
      "ROWSTATEMENT": 1169,
      "ĠTHROWSTATEMENT": 1170,
      "ancellationToken": 1171,
      "ĠSUBPATTERN": 1172,
      ">>": 1173,
      "Nullable": 1174,
      "With": 1175,
      "quence": 1176,
      "iti": 1177,
      "ference": 1178,
      "current": 1179,
      "kip": 1180,
      "Ġthan": 1181,
      "method": 1182,
      "play": 1183,
      "ache": 1184,
      "Ġtr": 1185,
      "abled": 1186,
      "Strings": 1187,
      "oin": 1188,
      "min": 1189,
      "untime": 1190,
      "Visit": 1191,
      "Service": 1192,
      "ension": 1193,
      "Ġoperation": 1194,
      "Values": 1195,
      "foreignKey": 1196,
      "playName": 1197,
      "ill": 1198,
      "[]": 1199,
      "from": 1200,
      "ateg": 1201,
      "Ġh": 1202,
      "expression": 1203,
      "command": 1204,
      "igration": 1205,
      "ple": 1206,
      "AnnotationNames": 1207,
      "ound": 1208,
      "VE": 1209,
      "mpty": 1210,
      "ĠIEnumerable": 1211,
      "iter": 1212,
      "Ġnameof": 1213,
      "est": 1214,
      "Range": 1215,
      "Reader": 1216,
      "Ġpro": 1217,
      "LECTION": 1218,
      "ĠCOL": 1219,
      "ĠCOLLECTION": 1220,
      "ansl": 1221,
      "number": 1222,
      "tries": 1223,
      "SECTION": 1224,
      "ĠSWITCHSECTION": 1225,
      "Enabled": 1226,
      "im": 1227,
      "Provider": 1228,
      "dPro": 1229,
      "Dependent": 1230,
      "ĠLESSTHANEXPRESSION": 1231,
      "SIVE": 1232,
      "equence": 1233,
      "ath": 1234,
      "Framework": 1235,
      "ategy": 1236,
      "CUR": 1237,
      "ĠRECUR": 1238,
      "SIVEPATTERN": 1239,
      "ĠRECURSIVEPATTERN": 1240,
      ">?": 1241,
      "ĠIReadOnly": 1242,
      "Ġused": 1243,
      "amb": 1244,
      "Ġtable": 1245,
      "ĠentityType": 1246,
      "ros": 1247,
      "tains": 1248,
      "dProcedure": 1249,
      "ĠProperty": 1250,
      "led": 1251,
      "ulti": 1252,
      "strain": 1253,
      "old": 1254,
      "oreObject": 1255,
      "Sha": 1256,
      "ke": 1257,
      "art": 1258,
      "da": 1259,
      "IReadOnly": 1260,
      "igh": 1261,
      "ĠMetadata": 1262,
      "Ġindex": 1263,
      "He": 1264,
      "clu": 1265,
      "From": 1266,
      "EntityFramework": 1267,
      "mem": 1268,
      "Generate": 1269,
      "ambda": 1270,
      "mb": 1271,
      "TYPATTERN": 1272,
      "ĠPROPERTYPATTERN": 1273,
      "ĠPROPERTYPATTERNCLAUSE": 1274,
      "ĠCOLLECTIONEXPRESSION": 1275,
      "ror": 1276,
      "trategy": 1277,
      "Config": 1278,
      "Action": 1279,
      "hether": 1280,
      "configurationSource": 1281,
      "ĠAppendLine": 1282,
      "operation": 1283,
      "ĠEXPRESSION": 1284,
      "Ġmin": 1285,
      "Ġ_": 1286,
      "kipNavigation": 1287,
      "ĠAr": 1288,
      "Dictionary": 1289,
      "Ch": 1290,
      "bug": 1291,
      "HE": 1292,
      "iable": 1293,
      "Identifier": 1294,
      "TE": 1295,
      "ĠIConvention": 1296,
      "CRE": 1297,
      "ural": 1298,
      "column": 1299,
      "Ġcheck": 1300,
      "ĠLength": 1301,
      "CREMENTEXPRESSION": 1302,
      "oc": 1303,
      "Create": 1304,
      "Ġcalls": 1305,
      "SC": 1306,
      "Ġwhether": 1307,
      "model": 1308,
      "elector": 1309,
      "tent": 1310,
      "ort": 1311,
      "ARD": 1312,
      "ĠDISC": 1313,
      "ĠDISCARD": 1314,
      "member": 1315,
      "target": 1316,
      "Ġdatabase": 1317,
      "Projection": 1318,
      "Server": 1319,
      "Ġ6": 1320,
      "uild": 1321,
      "ĠList": 1322,
      "Queryable": 1323,
      "sqlExpression": 1324,
      "Configures": 1325,
      "Requ": 1326,
      "ained": 1327,
      "ĠArgument": 1328,
      "ved": 1329,
      "ory": 1330,
      "Array": 1331,
      "TKey": 1332,
      "Constant": 1333,
      "OfRange": 1334,
      "wned": 1335,
      "sig": 1336,
      "Ro": 1337,
      "inding": 1338,
      "Dependenc": 1339,
      "Ġnavigation": 1340,
      "QueryExpression": 1341,
      "pt": 1342,
      "ater": 1343,
      "OutOfRange": 1344,
      "Sy": 1345,
      "pan": 1346,
      "ĠVisit": 1347,
      "ĠCOALESCEEXPRESSION": 1348,
      "ĠEXPRESSIONELEMENT": 1349,
      "reater": 1350,
      "Man": 1351,
      "Ġi": 1352,
      "Generator": 1353,
      "Empty": 1354,
      "Ġquery": 1355,
      "Comp": 1356,
      "ASE": 1357,
      "ĠBASE": 1358,
      "ĠBASEEXPRESSION": 1359,
      "Ġelement": 1360,
      "ĠPro": 1361,
      "Ġcolumn": 1362,
      "Su": 1363,
      "tructural": 1364,
      "op": 1365,
      "irst": 1366,
      "ultiple": 1367,
      "Ġchained": 1368,
      "Ġequal": 1369,
      "By": 1370,
      "plic": 1371,
      "icros": 1372,
      "oft": 1373,
      "icrosoft": 1374,
      "Types": 1375,
      "inator": 1376,
      "emp": 1377,
      "ĠGREATERTHANEXPRESSION": 1378,
      "ĠIM": 1379,
      "Field": 1380,
      "Length": 1381,
      "Update": 1382,
      "EntityFrameworkCore": 1383,
      "Ġwill": 1384,
      "ĠOr": 1385,
      "MethodInfo": 1386,
      "ft": 1387,
      "Ġadd": 1388,
      "PL": 1389,
      "Be": 1390,
      "Principal": 1391,
      "Selector": 1392,
      "ertex": 1393,
      "aryExpression": 1394,
      "context": 1395,
      "annotation": 1396,
      "Transaction": 1397,
      "max": 1398,
      "sign": 1399,
      "ĠMicrosoft": 1400,
      "urn": 1401,
      "lient": 1402,
      "Strategy": 1403,
      "StoredProcedure": 1404,
      "ĠfromDataAnnotation": 1405,
      "ĠNOTPATTERN": 1406,
      "tension": 1407,
      "rou": 1408,
      "straint": 1409,
      "Vertex": 1410,
      "set": 1411,
      "ariable": 1412,
      "entries": 1413,
      "ight": 1414,
      "ĠSelect": 1415,
      "Runtime": 1416,
      "ecute": 1417,
      "ogger": 1418,
      "valu": 1419,
      "ĠPO": 1420,
      "EST": 1421,
      "Ġmultiple": 1422,
      "ESTATEMENT": 1423,
      "Response": 1424,
      "options": 1425,
      "Dependencies": 1426,
      "sert": 1427,
      "OutOfRangeException": 1428,
      "definition": 1429,
      "Reference": 1430,
      "KSTATEMENT": 1431,
      "Ġvalues": 1432,
      "les": 1433,
      "ervices": 1434,
      "ize": 1435,
      "Message": 1436,
      "ĠTHROWEXPRESSION": 1437,
      "Throws": 1438,
      "umns": 1439,
      "ĠDictionary": 1440,
      "ĠMa": 1441,
      "Ġcontext": 1442,
      "SWITCHLABEL": 1443,
      "Ġrepres": 1444,
      "dic": 1445,
      "Extension": 1446,
      "Variable": 1447,
      "Ġoriginal": 1448,
      "cal": 1449,
      "sqlExpressionFactory": 1450,
      "ac": 1451,
      "Element": 1452,
      "ared": 1453,
      "verse": 1454,
      "ĠEquals": 1455,
      "REAKSTATEMENT": 1456,
      "crim": 1457,
      "ffer": 1458,
      "Det": 1459,
      "fromDataAnnotation": 1460,
      "ĠTh": 1461,
      "QL": 1462,
      "ĠDisplayName": 1463,
      "criminator": 1464,
      "Ġconfigured": 1465,
      "Ġcurrent": 1466,
      "vert": 1467,
      "inner": 1468,
      "ĠARRAYTYPE": 1469,
      "co": 1470,
      "erializ": 1471,
      "tri": 1472,
      "Ġcommand": 1473,
      "ired": 1474,
      "Ġchecked": 1475,
      "ust": 1476,
      "object": 1477,
      "ĠDeclaringType": 1478,
      "Returns": 1479,
      "ĠBREAKSTATEMENT": 1480,
      "ĠTValue": 1481,
      "ĠSQL": 1482,
      "ĠFunc": 1483,
      "Date": 1484,
      "ĠPar": 1485,
      "UPLE": 1486,
      "ĠTUPLE": 1487,
      "Ġfunction": 1488,
      "ormat": 1489,
      "parameters": 1490,
      "Ġset": 1491,
      "ĠRemove": 1492,
      "Ġsource": 1493,
      "igger": 1494,
      "ast": 1495,
      "ager": 1496,
      "iqu": 1497,
      "ĠTryGet": 1498,
      "hCode": 1499,
      "End": 1500,
      "ous": 1501,
      "ender": 1502,
      "Ġby": 1503,
      "cted": 1504,
      "PARAMETER": 1505,
      "ĠTYPEPARAMETER": 1506,
      "ific": 1507,
      "diagnostics": 1508,
      "isting": 1509,
      "STI": 1510,
      "STIN": 1511,
      "Binding": 1512,
      "ĠPOSTIN": 1513,
      "ĠPOSTINCREMENTEXPRESSION": 1514,
      "ave": 1515,
      "ĠConfigurationSource": 1516,
      "Ġall": 1517,
      "json": 1518,
      "Prin": 1519,
      "hange": 1520,
      "Connection": 1521,
      "Generation": 1522,
      "Client": 1523,
      "ĠDb": 1524,
      "Ġr": 1525,
      "principal": 1526,
      "ExpressionType": 1527,
      "trib": 1528,
      "ach": 1529,
      "Path": 1530,
      "ingle": 1531,
      "Changed": 1532,
      "ĠCl": 1533,
      "pre": 1534,
      "utable": 1535,
      "ED": 1536,
      "ĠToString": 1537,
      "Root": 1538,
      "Join": 1539,
      "0000": 1540,
      "wr": 1541,
      "Ġdefault": 1542,
      "Internal": 1543,
      "ARG": 1544,
      "ICIT": 1545,
      "ĠIMPL": 1546,
      "ĠIMPLICIT": 1547,
      "Equal": 1548,
      "UMENT": 1549,
      "ORSTATEMENT": 1550,
      "ĠFORSTATEMENT": 1551,
      "ARGUMENT": 1552,
      "rag": 1553,
      "ragment": 1554,
      "ble": 1555,
      "pected": 1556,
      "CoreStrings": 1557,
      "EventData": 1558,
      "ĠGenerate": 1559,
      "CallExpression": 1560,
      "clared": 1561,
      "one": 1562,
      "Ġusing": 1563,
      "ENT": 1564,
      "ZED": 1565,
      "SIZED": 1566,
      "ARENT": 1567,
      "ĠPARENT": 1568,
      "HESIZED": 1569,
      "ĠPARENTHESIZED": 1570,
      "ĠConfigure": 1571,
      "su": 1572,
      "cept": 1573,
      "ich": 1574,
      "QUALEXPRESSION": 1575,
      "ANORE": 1576,
      "pace": 1577,
      "ANOREQUALEXPRESSION": 1578,
      "ĠcancellationToken": 1579,
      "dent": 1580,
      "Ġret": 1581,
      "At": 1582,
      "tructuralType": 1583,
      "etr": 1584,
      "Ġstore": 1585,
      "ĠEntityType": 1586,
      "ĠUn": 1587,
      "os": 1588,
      "Ġother": 1589,
      "Cre": 1590,
      "Lo": 1591,
      "ĠCASE": 1592,
      "PATTERNSWITCHLABEL": 1593,
      "less": 1594,
      "ĠCASEPATTERNSWITCHLABEL": 1595,
      "andid": 1596,
      "ĠData": 1597,
      "pendent": 1598,
      "ArgumentOutOfRangeException": 1599,
      "ESWITCHLABEL": 1600,
      "ĠCAS": 1601,
      "ĠCASESWITCHLABEL": 1602,
      "cancellationToken": 1603,
      "icate": 1604,
      "Logger": 1605,
      "Definition": 1606,
      "Annotations": 1607,
      "aryKey": 1608,
      "SkipNavigation": 1609,
      "projection": 1610,
      "Ġwas": 1611,
      "Ġdata": 1612,
      "plicit": 1613,
      "ALI": 1614,
      "Ġschema": 1615,
      "KeyValue": 1616,
      "redicate": 1617,
      "ulture": 1618,
      "ĠNumber": 1619,
      "acking": 1620,
      "TEntity": 1621,
      "Ġgreater": 1622,
      "Printer": 1623,
      "Content": 1624,
      "Not": 1625,
      "ouble": 1626,
      "Cache": 1627,
      "ise": 1628,
      "Ġwhich": 1629,
      "roup": 1630,
      "iled": 1631,
      "ClrType": 1632,
      "MIT": 1633,
      "hav": 1634,
      "ord": 1635,
      "ĠCH": 1636,
      "DTYPEARGUMENT": 1637,
      "ĠOMIT": 1638,
      "mple": 1639,
      "TEDTYPEARGUMENT": 1640,
      "ĠOMITTEDTYPEARGUMENT": 1641,
      "EntityTypeBuilder": 1642,
      "Le": 1643,
      "Bu": 1644,
      "ior": 1645,
      "Remove": 1646,
      "gate": 1647,
      "ZER": 1648,
      "TIALI": 1649,
      "ARAC": 1650,
      "TERLITERALEXPRESSION": 1651,
      "NITIALI": 1652,
      "Shaper": 1653,
      "ĠCHARAC": 1654,
      "ZEREXPRESSION": 1655,
      "NITIALIZEREXPRESSION": 1656,
      "ĠCHARACTERLITERALEXPRESSION": 1657,
      "havior": 1658,
      "ĠConvention": 1659,
      "SqlServer": 1660,
      "uildAction": 1661,
      "Parameters": 1662,
      "Enumerator": 1663,
      "ComplexProperty": 1664,
      "OBJECTCREATIONEXPRESSION": 1665,
      "Ġmethod": 1666,
      "Span": 1667,
      "Ġmember": 1668,
      "Prim": 1669,
      "Manager": 1670,
      "ĠParameter": 1671,
      "Ġmap": 1672,
      "ĠUpdate": 1673,
      "Find": 1674,
      "Constraint": 1675,
      "sele": 1676,
      "itional": 1677,
      "Wr": 1678,
      "PropertyBuilder": 1679,
      "eed": 1680,
      "Than": 1681,
      "fix": 1682,
      "Ġoptions": 1683,
      "Arguments": 1684,
      "null": 1685,
      "Transl": 1686,
      "Op": 1687,
      "rror": 1688,
      "cri": 1689,
      "iteral": 1690,
      "mos": 1691,
      "itializ": 1692,
      "ca": 1693,
      "ue": 1694,
      "ĠTable": 1695,
      "ser": 1696,
      "ĠDate": 1697,
      "Func": 1698,
      "ationContext": 1699,
      "tt": 1700,
      "Ġservice": 1701,
      "Ġgener": 1702,
      "ĠNotNull": 1703,
      "ĠClrType": 1704,
      "clude": 1705,
      "Schema": 1706,
      "stem": 1707,
      "anSet": 1708,
      "left": 1709,
      "wner": 1710,
      "ification": 1711,
      "ĠIMPLICITOBJECTCREATIONEXPRESSION": 1712,
      "cond": 1713,
      "Resource": 1714,
      "Process": 1715,
      "Text": 1716,
      "SqlExpression": 1717,
      "Ġexpected": 1718,
      "CollectionBuilder": 1719,
      "FAU": 1720,
      "LT": 1721,
      "DEFAU": 1722,
      "read": 1723,
      "connection": 1724,
      "DEFAULT": 1725,
      "SP": 1726,
      "Relationship": 1727,
      "odification": 1728,
      "TProperty": 1729,
      "tercept": 1730,
      "terceptor": 1731,
      "ff": 1732,
      "ĠExplicit": 1733,
      "rec": 1734,
      "point": 1735,
      "Ġmessage": 1736,
      "ĠDEFAULT": 1737,
      "ique": 1738,
      "nap": 1739,
      "Ġtarget": 1740,
      "App": 1741,
      "to": 1742,
      "ĠEn": 1743,
      "Ġ7": 1744,
      "ere": 1745,
      "arguments": 1746,
      "DbContext": 1747,
      "Ġproperties": 1748,
      "ermin": 1749,
      "ĠLog": 1750,
      "Ġun": 1751,
      "struct": 1752,
      "ution": 1753,
      "Ġless": 1754,
      "ĠIReadOnlyList": 1755,
      "empor": 1756,
      "Visitor": 1757,
      "StringBuilder": 1758,
      "Identity": 1759,
      "andidate": 1760,
      "Mode": 1761,
      "Assign": 1762,
      "Declared": 1763,
      "Ġcollection": 1764,
      "complexProperty": 1765,
      "Node": 1766,
      "ĠModel": 1767,
      "ded": 1768,
      "cre": 1769,
      "Ġrepresent": 1770,
      "Hel": 1771,
      "ĠContains": 1772,
      "Converter": 1773,
      "ĠDeclaringEntityType": 1774,
      "TVertex": 1775,
      "lias": 1776,
      "Ġrelationship": 1777,
      "Ordinal": 1778,
      "count": 1779,
      "Required": 1780,
      "ĠDebug": 1781,
      "Behavior": 1782,
      "lock": 1783,
      "ormation": 1784,
      "ilter": 1785,
      "ĠProperties": 1786,
      "el": 1787,
      "Ġconnection": 1788,
      "Migration": 1789,
      "emory": 1790,
      "Sequence": 1791,
      "erived": 1792,
      "ĠCommand": 1793,
      "ĠConvert": 1794,
      "ĠKey": 1795,
      "Configuration": 1796,
      "Row": 1797,
      "Helper": 1798,
      "ĠCancellationToken": 1799,
      "osmos": 1800,
      "ĠExecute": 1801,
      "Ġ(": 1802,
      "AIT": 1803,
      "WAIT": 1804,
      "other": 1805,
      "ĠAWAIT": 1806,
      "ĠMake": 1807,
      "ttp": 1808,
      "ĠAWAITEXPRESSION": 1809,
      "ace": 1810,
      "ĠPrincipal": 1811,
      "RelationalAnnotationNames": 1812,
      "Task": 1813,
      "UL": 1814,
      "storeObject": 1815,
      "ĠTask": 1816,
      "dering": 1817,
      "dered": 1818,
      "Assert": 1819,
      "Convert": 1820,
      "ĠSqlExpression": 1821,
      "response": 1822,
      "metr": 1823,
      "aterializ": 1824,
      "Ġindic": 1825,
      "structor": 1826,
      "ĠTryGetValue": 1827,
      "ĠOR": 1828,
      "TR": 1829,
      "tribute": 1830,
      "fset": 1831,
      "iew": 1832,
      "mplement": 1833,
      "Owner": 1834,
      "Equals": 1835,
      "array": 1836,
      "pedQueryExpression": 1837,
      "Compil": 1838,
      "YM": 1839,
      "entityTypeBuilder": 1840,
      "itive": 1841,
      "Ġhas": 1842,
      "Derived": 1843,
      "methodCallExpression": 1844,
      "tes": 1845,
      "relational": 1846,
      "main": 1847,
      "ĠOn": 1848,
      "perand": 1849,
      "crement": 1850,
      "Bin": 1851,
      "bool": 1852,
      "hanges": 1853,
      "napsh": 1854,
      "ĠAs": 1855,
      "Error": 1856,
      "tainer": 1857,
      "Buffer": 1858,
      "collection": 1859,
      "Ġlong": 1860,
      "Sh": 1861,
      "has": 1862,
      "ĠGetField": 1863,
      "Ġconver": 1864,
      "select": 1865,
      "Generated": 1866,
      "ElementType": 1867,
      "NavigationBuilder": 1868,
      "napshot": 1869,
      "verrides": 1870,
      "ACT": 1871,
      "ĠComp": 1872,
      "quest": 1873,
      "ĠSUBTR": 1874,
      "Ġadded": 1875,
      "ĠSUBTRACT": 1876,
      "gno": 1877,
      "state": 1878,
      "wise": 1879,
      "lete": 1880,
      "ĠMethodInfo": 1881,
      "arch": 1882,
      "Ġindicating": 1883,
      "ll": 1884,
      "line": 1885,
      "Ġcomplex": 1886,
      "EntityState": 1887,
      "MemberInfo": 1888,
      "gener": 1889,
      "Debug": 1890,
      "?:": 1891,
      "logger": 1892,
      "Ġmust": 1893,
      "ost": 1894,
      "ists": 1895,
      "emporal": 1896,
      "Alias": 1897,
      "Evalu": 1898,
      "New": 1899,
      "ĠColumn": 1900,
      "ild": 1901,
      "Columns": 1902,
      "enumer": 1903,
      "item": 1904,
      "ĠDebugAssert": 1905,
      "Fragment": 1906,
      "Size": 1907,
      "ax": 1908,
      "GenericType": 1909,
      "ĠGetFieldValue": 1910,
      "ĠPARENTHESIZEDLAMBDAEXPRESSION": 1911,
      "Creates": 1912,
      "error": 1913,
      "Fl": 1914,
      "join": 1915,
      "outer": 1916,
      "ĠTUPLEEXPRESSION": 1917,
      "service": 1918,
      "us": 1919,
      "HashCode": 1920,
      "TINU": 1921,
      "ĠCONTINU": 1922,
      "Collections": 1923,
      "ĠCONTINUESTATEMENT": 1924,
      "ĠH": 1925,
      "ĠconfigurationSource": 1926,
      "Mappings": 1927,
      "OrDefault": 1928,
      "vel": 1929,
      "ĠSh": 1930,
      "ntax": 1931,
      "expressionPrinter": 1932,
      "IEnumerable": 1933,
      "ĠInternal": 1934,
      "ĠRelational": 1935,
      "form": 1936,
      "ecution": 1937,
      "ision": 1938,
      "vo": 1939,
      "IFIER": 1940,
      "ĠR": 1941,
      "ECIFIER": 1942,
      "SPECIFIER": 1943,
      "KSPECIFIER": 1944,
      "RAN": 1945,
      "tim": 1946,
      "ĠARRAYRAN": 1947,
      "ĠARRAYRANKSPECIFIER": 1948,
      "wa": 1949,
      "yc": 1950,
      "ĠConstant": 1951,
      "Ġmapped": 1952,
      "annotations": 1953,
      "ExpressionVisitor": 1954,
      "nullable": 1955,
      "propertyName": 1956,
      "ĠSUBTRACTEXPRESSION": 1957,
      "dependent": 1958,
      "Number": 1959,
      "ĠORPATTERN": 1960,
      "act": 1961,
      "ĠGREATERTHANOREQUALEXPRESSION": 1962,
      "ĠSy": 1963,
      "Mutable": 1964,
      "cessor": 1965,
      "Ġotherwise": 1966,
      "ached": 1967,
      "Tracking": 1968,
      "Discriminator": 1969,
      "cope": 1970,
      "Lambda": 1971,
      "TContext": 1972,
      "stringBuilder": 1973,
      "Awa": 1974,
      "TypeBase": 1975,
      "bquery": 1976,
      "Ġal": 1977,
      "ison": 1978,
      "omparison": 1979,
      "Accessor": 1980,
      "For": 1981,
      "ding": 1982,
      "Select": 1983,
      "properties": 1984,
      "place": 1985,
      "Complex": 1986,
      "tem": 1987,
      "EntityEntry": 1988,
      "Ġparam": 1989,
      "Methods": 1990,
      "ĠDataAnnotation": 1991,
      "Resources": 1992,
      "Await": 1993,
      "Pa": 1994,
      "Chat": 1995,
      "Ġ10": 1996,
      "typeMapping": 1997,
      "Ġ8": 1998,
      "parts": 1999,
      "ĠDefault": 2000,
      "Ġtask": 2001,
      "ĠArguments": 2002,
      "If": 2003,
      "ĠAction": 2004,
      "existing": 2005,
      "apac": 2006,
      "apacity": 2007,
      "ĠBuilder": 2008,
      "ĠGetType": 2009,
      "tive": 2010,
      "ized": 2011,
      "Open": 2012,
      "ĠConfigureAwait": 2013,
      "map": 2014,
      "Igno": 2015,
      "Ġsequence": 2016,
      "ile": 2017,
      "ram": 2018,
      "ron": 2019,
      "Max": 2020,
      "Gets": 2021,
      "ĠFirst": 2022,
      "ToPrincipal": 2023,
      "code": 2024,
      "conver": 2025,
      "ĠToList": 2026,
      "Unit": 2027,
      "ĠIfNull": 2028,
      "PrimaryKey": 2029,
      "Memory": 2030,
      "ause": 2031,
      "Ġdiagnostics": 2032,
      "pported": 2033,
      "ĠProcess": 2034,
      "ĠComplexType": 2035,
      "anslation": 2036,
      "LESTATEMENT": 2037,
      "ĠCh": 2038,
      "Ġdouble": 2039,
      "mbol": 2040,
      "dg": 2041,
      "ĠLiteral": 2042,
      "lied": 2043,
      "Se": 2044,
      "Valid": 2045,
      "And": 2046,
      "ĠShort": 2047,
      "ĠpropertyName": 2048,
      "DisplayName": 2049,
      "wrap": 2050,
      "itiveCollectionBuilder": 2051,
      "ĠSha": 2052,
      "decessor": 2053,
      "Inter": 2054,
      "values": 2055,
      "ages": 2056,
      "Syntax": 2057,
      "Diagnostics": 2058,
      "calar": 2059,
      "IProperty": 2060,
      "StoreObject": 2061,
      "Ġper": 2062,
      "Ġallow": 2063,
      "lated": 2064,
      "Ġentry": 2065,
      "ĠUse": 2066,
      "Ver": 2067,
      "are": 2068,
      "ĠentityTypeBuilder": 2069,
      "deredDictionary": 2070,
      "Option": 2071,
      "ags": 2072,
      "ĠMember": 2073,
      "Ġexception": 2074,
      "Try": 2075,
      "SourceEnabled": 2076,
      "ĠWith": 2077,
      "ĠWh": 2078,
      "ĠOrdinal": 2079,
      "ning": 2080,
      "Ġmapping": 2081,
      "taining": 2082,
      "AccessMode": 2083,
      "Modification": 2084,
      "ulong": 2085,
      "olumns": 2086,
      "Non": 2087,
      "Ġnull": 2088,
      "Item": 2089,
      "ĠMethod": 2090,
      "Ġse": 2091,
      "BJECTI": 2092,
      "ĠThis": 2093,
      "Ġtransaction": 2094,
      "up": 2095,
      "relationship": 2096,
      "des": 2097,
      "default": 2098,
      "ĠOBJECTI": 2099,
      "ĠOBJECTINITIALIZEREXPRESSION": 2100,
      "Ġ100": 2101,
      "deri": 2102,
      "Return": 2103,
      "CompilationContext": 2104,
      "ComplexType": 2105,
      "DateTime": 2106,
      "Pre": 2107,
      "iagnosticSourceEnabled": 2108,
      "LogEnabled": 2109,
      "mpleLogEnabled": 2110,
      "rite": 2111,
      "ValueComparer": 2112,
      "Offset": 2113,
      "dis": 2114,
      "Supported": 2115,
      "ses": 2116,
      "arning": 2117,
      "ĠAny": 2118,
      "patch": 2119,
      "ody": 2120,
      "Ġparameters": 2121,
      "sha": 2122,
      "right": 2123,
      "ĠĠ": 2124,
      "Ġannotations": 2125,
      "Level": 2126,
      "ycle": 2127,
      "FU": 2128,
      "NCTION": 2129,
      "ĠLOCALFU": 2130,
      "ĠFunction": 2131,
      "NCTIONSTATEMENT": 2132,
      "ĠLOCALFUNCTIONSTATEMENT": 2133,
      "ToDependent": 2134,
      "root": 2135,
      "Owned": 2136,
      "ĠSystem": 2137,
      "semb": 2138,
      "ĠThrow": 2139,
      "Changes": 2140,
      "Ġinner": 2141,
      "essages": 2142,
      "identifier": 2143,
      "ĠDEFAULTLITERALEXPRESSION": 2144,
      "ĠbuildAction": 2145,
      "ĠCOALESCEASSIGNMENTEXPRESSION": 2146,
      "PropertyInfo": 2147,
      "sembly": 2148,
      "ĠeventData": 2149,
      "Ġinput": 2150,
      "Ġrepresents": 2151,
      "Ġsql": 2152,
      "alth": 2153,
      "convention": 2154,
      "ShaperExpression": 2155,
      "IMutable": 2156,
      "Initializ": 2157,
      "Ġlogger": 2158,
      "OptionsBuilder": 2159,
      "Format": 2160,
      "Ġcl": 2161,
      "Gender": 2162,
      "Wh": 2163,
      "derived": 2164,
      "Des": 2165,
      "PropertyName": 2166,
      "nsure": 2167,
      "ĠNotEmpty": 2168,
      "ConstantExpression": 2169,
      "mplementation": 2170,
      "No": 2171,
      "Ġcontains": 2172,
      "tin": 2173,
      "ĠIsNullable": 2174,
      "DefaultValue": 2175,
      "predecessor": 2176,
      "Unique": 2177,
      "propertyInfo": 2178,
      "Comparison": 2179,
      "ĠWrite": 2180,
      "recision": 2181,
      "ability": 2182,
      "Writer": 2183,
      "diagnosticSourceEnabled": 2184,
      "message": 2185,
      "simpleLogEnabled": 2186,
      "ForeignKeys": 2187,
      "HEN": 2188,
      "schema": 2189,
      "Ġuint": 2190,
      "propertyBuilder": 2191,
      "ĠWHEN": 2192,
      "GenericMethod": 2193,
      "ĠWHENCLAUSE": 2194,
      "IELD": 2195,
      "ĠYIELD": 2196,
      "tition": 2197,
      "input": 2198,
      "DebugString": 2199,
      "obj": 2200,
      "aseType": 2201,
      "cale": 2202,
      "af": 2203,
      "Ġdefinition": 2204,
      "Culture": 2205,
      "function": 2206,
      "lear": 2207,
      "atical": 2208,
      "memberInfo": 2209,
      "DiagnosticsLogger": 2210,
      "start": 2211,
      "Ġdate": 2212,
      "odified": 2213,
      "generic": 2214,
      "Predicate": 2215,
      "Request": 2216,
      "atable": 2217,
      "Sets": 2218,
      "Hand": 2219,
      "DbFunction": 2220,
      "Ġstored": 2221,
      "ĠJson": 2222,
      "cket": 2223,
      "ĠTypeMapping": 2224,
      "ĠChat": 2225,
      "Current": 2226,
      "Pair": 2227,
      "Database": 2228,
      "Target": 2229,
      "cur": 2230,
      "long": 2231,
      "ĠUN": 2232,
      "mainBuilder": 2233,
      "10": 2234,
      "ĠSchema": 2235,
      "Builders": 2236,
      "Materializ": 2237,
      "INU": 2238,
      "Save": 2239,
      "ARYM": 2240,
      "ĠCanSet": 2241,
      "ĠUNARYM": 2242,
      "INUSEXPRESSION": 2243,
      "ĠUNARYMINUSEXPRESSION": 2244,
      "Ġowned": 2245,
      "ĠLambda": 2246,
      "ODUL": 2247,
      "ĠMODUL": 2248,
      "dicates": 2249,
      "ĠMODULO": 2250,
      "IDE": 2251,
      "VIDE": 2252,
      "instance": 2253,
      "Ġasync": 2254,
      "ĠDIVIDE": 2255,
      "Hi": 2256,
      "watch": 2257,
      "complexType": 2258,
      "ren": 2259,
      "Ac": 2260,
      "CH": 2261,
      "Conventions": 2262,
      "Ownership": 2263,
      "ĠIsNull": 2264,
      "ĠHasValue": 2265,
      "Extensions": 2266,
      "selectExpression": 2267,
      "Case": 2268,
      "ĠGetHashCode": 2269,
      "ColumnName": 2270,
      "Symbol": 2271,
      "dictionary": 2272,
      "ĠDateTime": 2273,
      "matical": 2274,
      "ream": 2275,
      "ATCH": 2276,
      "ance": 2277,
      "ĠCATCH": 2278,
      "rammatical": 2279,
      "ĠDIVIDEEXPRESSION": 2280,
      "File": 2281,
      "Ġold": 2282,
      "Ġstart": 2283,
      "reaterThan": 2284,
      "ordinal": 2285,
      "store": 2286,
      "Snapshot": 2287,
      "icode": 2288,
      "ĠpropertyBuilder": 2289,
      "SqlServerAnnotationNames": 2290,
      "Ġbound": 2291,
      "ĠSingle": 2292,
      "Attribute": 2293,
      "Expressions": 2294,
      "ocument": 2295,
      "Many": 2296,
      "TValue": 2297,
      "ords": 2298,
      "utes": 2299,
      "Ġprincipal": 2300,
      "Navigations": 2301,
      "BaseType": 2302,
      "Group": 2303,
      "ĠIndicates": 2304,
      "Ġ9": 2305,
      "load": 2306,
      "ĠDISCARDPATTERN": 2307,
      "HI": 2308,
      "cul": 2309,
      "ked": 2310,
      "istic": 2311,
      "Part": 2312,
      "QueryContext": 2313,
      "Load": 2314,
      "TSource": 2315,
      "enting": 2316,
      "Ġfound": 2317,
      "opwatch": 2318,
      "gre": 2319,
      "IReadOnlyList": 2320,
      "ero": 2321,
      "Determin": 2322,
      "internal": 2323,
      "interceptor": 2324,
      "Ġare": 2325,
      "ĠDbContext": 2326,
      "ĠStore": 2327,
      "ĠComplexProperty": 2328,
      "Ġdis": 2329,
      "visit": 2330,
      "Ġprovider": 2331,
      "original": 2332,
      "ending": 2333,
      "Resol": 2334,
      "Ġdele": 2335,
      "RETURNSTATEMENT": 2336,
      "Assignable": 2337,
      "ĠWhere": 2338,
      "ĠYIELDRETURNSTATEMENT": 2339,
      "Clause": 2340,
      "AI": 2341,
      "cat": 2342,
      "Ġinformation": 2343,
      "Fix": 2344,
      "DerivedTypes": 2345,
      "ĠTime": 2346,
      "ĠStoreObject": 2347,
      "KeyValuePair": 2348,
      "inverse": 2349,
      "Ġthen": 2350,
      "mapped": 2351,
      "first": 2352,
      "ĠIsAssignable": 2353,
      "Ġrepresenting": 2354,
      "gregate": 2355,
      "Http": 2356,
      "erarch": 2357,
      "lying": 2358,
      "ildren": 2359,
      "Ġreturns": 2360,
      "Ġprim": 2361,
      "plit": 2362,
      "cade": 2363,
      "Batch": 2364,
      "Ġaction": 2365,
      "Conversion": 2366,
      "enumerator": 2367,
      "Single": 2368,
      "Ġat": 2369,
      "ĠstoreObject": 2370,
      "ĠState": 2371,
      "Ġexists": 2372,
      "Cosmos": 2373,
      "Ġpar": 2374,
      "by": 2375,
      "ĠUnwrap": 2376,
      "ĠShortDisplayName": 2377,
      "Po": 2378,
      "ging": 2379,
      "ree": 2380,
      "istory": 2381,
      "Warning": 2382,
      "renc": 2383,
      "QueryCompilationContext": 2384,
      "ĠSWITCHSTATEMENT": 2385,
      "rency": 2386,
      "ton": 2387,
      "Delete": 2388,
      "ffected": 2389,
      "derlying": 2390,
      "ĠFrom": 2391,
      "version": 2392,
      "ĠIsAssignableFrom": 2393,
      "services": 2394,
      "ector": 2395,
      "Ġoperations": 2396,
      "ĠMigration": 2397,
      "ventDefinition": 2398,
      "Ġcre": 2399,
      "etached": 2400,
      "omput": 2401,
      "vity": 2402,
      "ĠShould": 2403,
      "mapping": 2404,
      "arge": 2405,
      "essThan": 2406,
      "perator": 2407,
      "Ġtypes": 2408,
      "Operations": 2409,
      "BinaryExpression": 2410,
      "por": 2411,
      "ĠString": 2412,
      "Trigger": 2413,
      "ĠClear": 2414,
      "afe": 2415,
      "uplic": 2416,
      "tivity": 2417,
      "Constructor": 2418,
      "ĠOwned": 2419,
      "iff": 2420,
      "Shar": 2421,
      "elemetr": 2422,
      "imum": 2423,
      "GenerationStrategy": 2424,
      "Ġperform": 2425,
      "elemetry": 2426,
      "Endpoint": 2427,
      "ĠIsNullOr": 2428,
      "ĠWHI": 2429,
      "erarchy": 2430,
      "uplicate": 2431,
      "ĠWHILESTATEMENT": 2432,
      "eue": 2433,
      "lim": 2434,
      "Ġrange": 2435,
      "candidate": 2436,
      "conds": 2437,
      "currency": 2438,
      "Lif": 2439,
      "TResult": 2440,
      "should": 2441,
      "Ġitem": 2442,
      "ĠIndex": 2443,
      "Filter": 2444,
      "ers": 2445,
      "Adds": 2446,
      "Header": 2447,
      "ote": 2448,
      "OrEqual": 2449,
      "ready": 2450,
      "rammaticalGender": 2451,
      "Change": 2452,
      "Ġerror": 2453,
      "ĠComplex": 2454,
      "TypeName": 2455,
      "Nullability": 2456,
      "ear": 2457,
      "alse": 2458,
      "ass": 2459,
      "ĠMax": 2460,
      "Ġ,": 2461,
      "Namespace": 2462,
      "ens": 2463,
      "ĠTryAdd": 2464,
      "Ġprovi": 2465,
      "voked": 2466,
      "?>": 2467,
      "ensi": 2468,
      "ĠServer": 2469,
      "ĠIsIn": 2470,
      "Output": 2471,
      "StringComparison": 2472,
      "cription": 2473,
      "IEntityType": 2474,
      "Ġstate": 2475,
      "ĠGetConfigurationSource": 2476,
      "11": 2477,
      "CREATIONEXPRESSION": 2478,
      "ant": 2479,
      "porter": 2480,
      "buildAction": 2481,
      "Ġend": 2482,
      "ield": 2483,
      "ppres": 2484,
      "ĠGetValue": 2485,
      "anslate": 2486,
      "fore": 2487,
      "ggregate": 2488,
      "Ġvisit": 2489,
      "Ġexisting": 2490,
      "GreaterThan": 2491,
      "ALPATTERN": 2492,
      "Start": 2493,
      "UnaryExpression": 2494,
      "Sharp": 2495,
      "ĠNavigation": 2496,
      "ccessor": 2497,
      "Shared": 2498,
      "RelationalStrings": 2499,
      "Edg": 2500,
      "Sqlite": 2501,
      "ĠTransaction": 2502,
      "Char": 2503,
      "pag": 2504,
      "ĠForeignKey": 2505,
      "ays": 2506,
      "ocation": 2507,
      "Block": 2508,
      "bin": 2509,
      "skipNavigation": 2510,
      "NullException": 2511,
      "ĠTranslate": 2512,
      "QueryableMethods": 2513,
      "eventData": 2514,
      "omment": 2515,
      "StructuralType": 2516,
      "Ġrow": 2517,
      "ForeignKeyBuilder": 2518,
      "DependentEntity": 2519,
      "All": 2520,
      "CanSet": 2521,
      "args": 2522,
      "gh": 2523,
      "Ġtarge": 2524,
      "Ġtargeting": 2525,
      "comp": 2526,
      "orderedDictionary": 2527,
      "ĠGetDeclared": 2528,
      "ove": 2529,
      "Ġservices": 2530,
      "Ġrelational": 2531,
      "Original": 2532,
      "Ġreturn": 2533,
      "ĠISEXPRESSION": 2534,
      "Removed": 2535,
      "omplete": 2536,
      "GenerationHelper": 2537,
      "und": 2538,
      "ĠIndent": 2539,
      "CodeGenerator": 2540,
      "Ġalready": 2541,
      "yn": 2542,
      "ayload": 2543,
      "View": 2544,
      "ParameterExpression": 2545,
      ").": 2546,
      "Reset": 2547,
      "Mapped": 2548,
      "fter": 2549,
      "hSet": 2550,
      "ĠQu": 2551,
      "Ġulong": 2552,
      "DataReader": 2553,
      "Ġtrigger": 2554,
      "ĠOverrides": 2555,
      "ĠLESSTHANOREQUALEXPRESSION": 2556,
      "ĠParameters": 2557,
      "timized": 2558,
      "Ġdelegate": 2559,
      "comparer": 2560,
      "db": 2561,
      "second": 2562,
      "ric": 2563,
      "DESIGN": 2564,
      "ĠApp": 2565,
      "Metric": 2566,
      "anslated": 2567,
      "modelBuilder": 2568,
      "DESIGNATION": 2569,
      "YSTATEMENT": 2570,
      "az": 2571,
      "ĠAN": 2572,
      "ĠDele": 2573,
      "ĠTRYSTATEMENT": 2574,
      "ensitive": 2575,
      "Ġcomparer": 2576,
      "node": 2577,
      "Health": 2578,
      "Affected": 2579,
      "ested": 2580,
      "ĠContext": 2581,
      "ient": 2582,
      "Exec": 2583,
      "Ġobj": 2584,
      "Added": 2585,
      "Without": 2586,
      "ustom": 2587,
      "ĠConnection": 2588,
      "CodeFragment": 2589,
      "paces": 2590,
      "uid": 2591,
      "ĠId": 2592,
      "Version": 2593,
      "imple": 2594,
      "Ġ10000": 2595,
      "ĠCurrent": 2596,
      "ĠforeignKey": 2597,
      "ĠPrincipalEntityType": 2598,
      "Ignored": 2599,
      "DASSIGNMENTEXPRESSION": 2600,
      "match": 2601,
      "SelectExpression": 2602,
      "runtime": 2603,
      "ĠNew": 2604,
      "Ġoption": 2605,
      "quired": 2606,
      "dition": 2607,
      "ical": 2608,
      "Ġforeign": 2609,
      "Tool": 2610,
      ">,": 2611,
      "Ġchange": 2612,
      "ĠEnsure": 2613,
      "Ġinvoked": 2614,
      "owned": 2615,
      "converter": 2616,
      "VARIABLE": 2617,
      "Translate": 2618,
      "sition": 2619,
      "ceptionResult": 2620,
      "field": 2621,
      "rough": 2622,
      "Hierarchy": 2623,
      "limit": 2624,
      "ints": 2625,
      "rop": 2626,
      "Inverse": 2627,
      "data": 2628,
      "Ġres": 2629,
      "indent": 2630,
      "parameterName": 2631,
      "provider": 2632,
      "Scalar": 2633,
      "parator": 2634,
      "pansion": 2635,
      "Ġallowed": 2636,
      "LessThan": 2637,
      "Telemetry": 2638,
      "ferenc": 2639,
      "ferencing": 2640,
      "Next": 2641,
      "gender": 2642,
      "ĠASEXPRESSION": 2643,
      "ServiceProvider": 2644,
      "ject": 2645,
      "NullableType": 2646,
      "ĠEntityTypeBuilder": 2647,
      "base": 2648,
      "its": 2649,
      "ĠConcat": 2650,
      "ĠADDASSIGNMENTEXPRESSION": 2651,
      "mage": 2652,
      "ĠARRAYCREATIONEXPRESSION": 2653,
      "ReaderWriter": 2654,
      "patcher": 2655,
      "nel": 2656,
      "Init": 2657,
      "ased": 2658,
      "Include": 2659,
      "char": 2660,
      "entinel": 2661,
      "word": 2662,
      "One": 2663,
      "Counts": 2664,
      "buffer": 2665,
      "RuntimeAnnotation": 2666,
      "tices": 2667,
      "Ġass": 2668,
      "chron": 2669,
      "pose": 2670,
      "oci": 2671,
      "Singleton": 2672,
      "ynchron": 2673,
      "ynchronous": 2674,
      "Use": 2675,
      "gis": 2676,
      "Ġapplied": 2677,
      "CommandBuilder": 2678,
      "ĠProjection": 2679,
      "SupportedException": 2680,
      "omputed": 2681,
      "Dire": 2682,
      "we": 2683,
      "ĠBaseType": 2684,
      "Entries": 2685,
      "atible": 2686,
      "ĠFirstOrDefault": 2687,
      "migration": 2688,
      "Ġindent": 2689,
      "ĠTUPLEELEMENT": 2690,
      "vocation": 2691,
      "ĠGetMember": 2692,
      "prim": 2693,
      "Ġeach": 2694,
      "Migrations": 2695,
      "metric": 2696,
      "derings": 2697,
      "azy": 2698,
      "sAffected": 2699,
      "ĠCall": 2700,
      "ĠFormat": 2701,
      "ĠObject": 2702,
      "12": 2703,
      "ĠNotSupportedException": 2704,
      "parent": 2705,
      "ĠPARENTHESIZEDVARIABLE": 2706,
      "ĠLambdaExpression": 2707,
      "ĠPARENTHESIZEDVARIABLEDESIGNATION": 2708,
      "IReadOnlyProperty": 2709,
      "ĠMODULOEXPRESSION": 2710,
      "'s": 2711,
      "ingExpressionVisitor": 2712,
      "ĠTResult": 2713,
      "CoreAnnotationNames": 2714,
      "pol": 2715,
      "pi": 2716,
      "uman": 2717,
      "IConventionEntityTypeBuilder": 2718,
      "shaper": 2719,
      "Ġidentifier": 2720,
      "umul": 2721,
      "ĠStringBuilder": 2722,
      "Ġassoci": 2723,
      "Append": 2724,
      "Ġtime": 2725,
      "Kind": 2726,
      "ks": 2727,
      "uent": 2728,
      "ĠService": 2729,
      "Indexes": 2730,
      "IConventionEntityType": 2731,
      "ProjectionExpression": 2732,
      "INITIALIZEREXPRESSION": 2733,
      "LATION": 2734,
      "aw": 2735,
      "Ġcal": 2736,
      "ĠEmpty": 2737,
      "ĠRELATION": 2738,
      "TableName": 2739,
      "ĠRELATIONALPATTERN": 2740,
      "Candidate": 2741,
      "cumul": 2742,
      "Expansion": 2743,
      "BindingExpression": 2744,
      "ĠTimeSpan": 2745,
      "ĠApply": 2746,
      "EntityTypes": 2747,
      "ConventionContext": 2748,
      "bser": 2749,
      "SING": 2750,
      "Ġordinal": 2751,
      "ĠUSING": 2752,
      "ĠUSINGSTATEMENT": 2753,
      "Services": 2754,
      "group": 2755,
      "edg": 2756,
      "fined": 2757,
      "ModelBuilder": 2758,
      "Ġjoin": 2759,
      "Exp": 2760,
      "Indent": 2761,
      "ĠResult": 2762,
      "ĠPRE": 2763,
      "Ġconvention": 2764,
      "ullName": 2765,
      "reader": 2766,
      "Ġread": 2767,
      "ĠValueTask": 2768,
      "Can": 2769,
      "ĠRuntime": 2770,
      "FunctionExpression": 2771,
      "successor": 2772,
      "Application": 2773,
      "Prefix": 2774,
      "Initialized": 2775,
      "ee": 2776,
      "ĠJ": 2777,
      "Enum": 2778,
      "Ġconstraint": 2779,
      "TrackingStrategy": 2780,
      "Min": 2781,
      "ĠLIN": 2782,
      "Ġupdated": 2783,
      "Ġcreated": 2784,
      "ĠLINQ": 2785,
      "log": 2786,
      "configure": 2787,
      "ResultColumn": 2788,
      "opy": 2789,
      "sTo": 2790,
      "Ġz": 2791,
      "PropertyAccessMode": 2792,
      "Ġone": 2793,
      "Ġelements": 2794,
      "13": 2795,
      "vious": 2796,
      "Propag": 2797,
      "ĠHashSet": 2798,
      "Ġevent": 2799,
      "lay": 2800,
      "ĠRead": 2801,
      "request": 2802,
      "Instance": 2803,
      "ĠInter": 2804,
      "ĠIfLessThan": 2805,
      "Mis": 2806,
      "Ġbefore": 2807,
      "OptionsExtension": 2808,
      "Dir": 2809,
      "uted": 2810,
      "ower": 2811,
      "Deterministic": 2812,
      "ĠThrowIf": 2813,
      "ckets": 2814,
      "mbed": 2815,
      "Al": 2816,
      "zure": 2817,
      "ĠEntityState": 2818,
      "client": 2819,
      "iant": 2820,
      "ĠReturn": 2821,
      "adow": 2822,
      "ify": 2823,
      "ĠRelationalTypeMapping": 2824,
      "translated": 2825,
      "eeds": 2826,
      "Ġassociated": 2827,
      "Document": 2828,
      "Arg": 2829,
      "Ġdes": 2830,
      "eriod": 2831,
      "double": 2832,
      "mat": 2833,
      "siz": 2834,
      "ĠBIT": 2835,
      "ments": 2836,
      "WISE": 2837,
      "ĠArgumentException": 2838,
      "ĠBITWISE": 2839,
      "ten": 2840,
      "Apply": 2841,
      ">.": 2842,
      "Body": 2843,
      "ires": 2844,
      "ĠNull": 2845,
      "Ġprocedure": 2846,
      "Ġzero": 2847,
      "complex": 2848,
      "atus": 2849,
      "ĠNo": 2850,
      "ĠInstance": 2851,
      "RelationalTypeMapping": 2852,
      "ĠEntry": 2853,
      "DbContextOptionsBuilder": 2854,
      "ppress": 2855,
      "ular": 2856,
      "variant": 2857,
      "Ġpre": 2858,
      "MethodCall": 2859,
      "ĠArgumentOutOfRangeException": 2860,
      "Binary": 2861,
      "IST": 2862,
      "Pool": 2863,
      "her": 2864,
      "ĠTarget": 2865,
      "trigger": 2866,
      "ĠqueryExpression": 2867,
      "Cycle": 2868,
      "ture": 2869,
      "caff": 2870,
      "Buil": 2871,
      "Simple": 2872,
      "etime": 2873,
      "ollation": 2874,
      "ĠIMutable": 2875,
      "eg": 2876,
      "format": 2877,
      "ĠEF": 2878,
      "transaction": 2879,
      "Insert": 2880,
      "Information": 2881,
      "Assembly": 2882,
      "CheckConstraint": 2883,
      "INCREMENTEXPRESSION": 2884,
      "IConventionProperty": 2885,
      "ĠStar": 2886,
      "ĠPREINCREMENTEXPRESSION": 2887,
      "Words": 2888,
      "ias": 2889,
      "space": 2890,
      "ĠCosmos": 2891,
      "ĠValid": 2892,
      "propertyBase": 2893,
      "Ġimplementation": 2894,
      "tinct": 2895,
      "Period": 2896,
      "ĠQuery": 2897,
      "ĠJoin": 2898,
      "ĠUnwrapNullableType": 2899,
      "etwe": 2900,
      "TElement": 2901,
      "System": 2902,
      "Ġconverted": 2903,
      "Evaluation": 2904,
      "etween": 2905,
      "ditional": 2906,
      "attern": 2907,
      "rid": 2908,
      "Ġexecute": 2909,
      "ReferenceEquals": 2910,
      "Ġperforms": 2911,
      "edLength": 2912,
      "Left": 2913,
      "ĠMemberInfo": 2914,
      "ĠIProperty": 2915,
      "ĠValues": 2916,
      "Contains": 2917,
      "navigationName": 2918,
      "imit": 2919,
      "ĠCompare": 2920,
      "date": 2921,
      "fk": 2922,
      "ffix": 2923,
      "val": 2924,
      "sive": 2925,
      "viron": 2926,
      "Facade": 2927,
      "RootExpression": 2928,
      "subquery": 2929,
      "vironment": 2930,
      "Per": 2931,
      "Replace": 2932,
      "propertyType": 2933,
      "entities": 2934,
      "achable": 2935,
      "Scope": 2936,
      "pen": 2937,
      "ĠSelectExpression": 2938,
      "Nodes": 2939,
      "eigh": 2940,
      "ĠStructuralType": 2941,
      "ĠGetOr": 2942,
      "Stream": 2943,
      "ĠReplace": 2944,
      "Ġfirst": 2945,
      "erializer": 2946,
      "InternalEntry": 2947,
      "Equality": 2948,
      "sMap": 2949,
      "ĠPrim": 2950,
      "ders": 2951,
      "ĠIfGreaterThan": 2952,
      "Translated": 2953,
      "hashCode": 2954,
      "Capacity": 2955,
      "Found": 2956,
      "cord": 2957,
      "cending": 2958,
      "ĠLe": 2959,
      "AnnotationChanged": 2960,
      "valuation": 2961,
      "Ġhash": 2962,
      "Ġfa": 2963,
      "otal": 2964,
      "titionKey": 2965,
      "Tag": 2966,
      "ai": 2967,
      "structuralType": 2968,
      "Setter": 2969,
      "ColumnType": 2970,
      "Projections": 2971,
      "ĠQuote": 2972,
      "so": 2973,
      "peline": 2974,
      "ĠPropertyBuilder": 2975,
      "straints": 2976,
      "Ġ1000": 2977,
      "DebugStringOptions": 2978,
      "Ġseed": 2979,
      "respon": 2980,
      "ĠAll": 2981,
      "Static": 2982,
      "ComplexProperties": 2983,
      "visited": 2984,
      "ĠStoreObjectIdentifier": 2985,
      "HealthCheck": 2986,
      "database": 2987,
      "ĠIsRequired": 2988,
      "ĠDEFAULTSWITCHLABEL": 2989,
      "ĠShouldLog": 2990,
      "ĠComplexCollection": 2991,
      "Right": 2992,
      "uple": 2993,
      "Ġx": 2994,
      "Ġarray": 2995,
      "orted": 2996,
      "orrespon": 2997,
      "ĠSequence": 2998,
      "Ġwhile": 2999,
      "ĠCan": 3000,
      "Ġcomplete": 3001,
      "ress": 3002,
      "Int": 3003,
      "Ġcompiled": 3004,
      "owner": 3005,
      "Assignment": 3006,
      "ĠIsInModel": 3007,
      "ĠIns": 3008,
      "Ġbetween": 3009,
      "urned": 3010,
      "ĠSqlServer": 3011,
      "clusive": 3012,
      "ĠMakeGenericMethod": 3013,
      "Ignore": 3014,
      "Ġafter": 3015,
      "AccessExpression": 3016,
      "Overrides": 3017,
      "Ġexecution": 3018,
      "ĠShapedQueryExpression": 3019,
      "flic": 3020,
      "caffold": 3021,
      "Split": 3022,
      "lif": 3023,
      "rap": 3024,
      "Ġstrategy": 3025,
      "ĠOperand": 3026,
      "ValueReaderWriter": 3027,
      "Ġlist": 3028,
      "IReadOnlyEntityType": 3029,
      "Bytes": 3030,
      "Execute": 3031,
      "Execution": 3032,
      "MetadataDebugStringOptions": 3033,
      "ColumnOperation": 3034,
      "ĠSqlite": 3035,
      "Image": 3036,
      "ĠTrim": 3037,
      "Ġbase": 3038,
      "return": 3039,
      "Generates": 3040,
      "PLY": 3041,
      "OpenTelemetry": 3042,
      "GrammaticalGender": 3043,
      "Sensitive": 3044,
      "related": 3045,
      "ValueGenerationStrategy": 3046,
      "Ġtracking": 3047,
      "Write": 3048,
      "Ġobser": 3049,
      "Translation": 3050,
      "Ġlog": 3051,
      "genericMethod": 3052,
      "Sort": 3053,
      "last": 3054,
      "TIPLY": 3055,
      "ĠTDependentEntity": 3056,
      "ĠMUL": 3057,
      "Unicode": 3058,
      "cluded": 3059,
      "ĠMULTIPLY": 3060,
      "ĠCast": 3061,
      "ĠFindAnnotation": 3062,
      "Subquery": 3063,
      "discriminator": 3064,
      "peratorType": 3065,
      "ĠIsNullOrEmpty": 3066,
      "Ġprovided": 3067,
      "gister": 3068,
      "container": 3069,
      "ModificationCommand": 3070,
      "IDiagnosticsLogger": 3071,
      "ĠIEntityType": 3072,
      "ĠIDiagnosticsLogger": 3073,
      "InHierarchy": 3074,
      "Getter": 3075,
      "KeySelector": 3076,
      "points": 3077,
      "ShapedQueryExpression": 3078,
      "Interfa": 3079,
      "ĠCATCHCLAUSE": 3080,
      "roughput": 3081,
      "14": 3082,
      "nown": 3083,
      "illise": 3084,
      "NotEmpty": 3085,
      "Accessors": 3086,
      "ĠMULTIPLYEXPRESSION": 3087,
      "ĠcomplexType": 3088,
      "Ġformat": 3089,
      "ĠValueComparer": 3090,
      "ArgumentNullException": 3091,
      "ĠProvider": 3092,
      "StoreObjectType": 3093,
      "Description": 3094,
      "startTime": 3095,
      "ĠDateTimeOffset": 3096,
      "Edges": 3097,
      "Tree": 3098,
      "Ġmigration": 3099,
      "typeBase": 3100,
      "ĠFindMapping": 3101,
      "ĠDispose": 3102,
      "Validate": 3103,
      "duplicate": 3104,
      "Ġ11": 3105,
      "Ġsha": 3106,
      "Ġup": 3107,
      "proc": 3108,
      "ĠHasDefaultValue": 3109,
      "own": 3110,
      "Tables": 3111,
      "Optimized": 3112,
      "update": 3113,
      "ĠEventDefinition": 3114,
      "edi": 3115,
      "quires": 3116,
      "Ġpas": 3117,
      "Ġlength": 3118,
      "UpdateEntry": 3119,
      "lambda": 3120,
      "reachable": 3121,
      "ĠCSharp": 3122,
      "Concurrency": 3123,
      "content": 3124,
      "Ġchildren": 3125,
      "principalEntityType": 3126,
      "crib": 3127,
      "Event": 3128,
      "US": 3129,
      "temp": 3130,
      "ĠTProperty": 3131,
      "Ġreference": 3132,
      "buckets": 3133,
      "GeneratorFactory": 3134,
      "ler": 3135,
      "Ġentities": 3136,
      "Order": 3137,
      "ĠInsert": 3138,
      ":@": 3139,
      "?,": 3140,
      "Host": 3141,
      "ak": 3142,
      "ĠEqual": 3143,
      "Ġview": 3144,
      "ĠISql": 3145,
      "single": 3146,
      "change": 3147,
      "ĠWI": 3148,
      "ĠBuild": 3149,
      "ative": 3150,
      "ICollection": 3151,
      "ResultSet": 3152,
      "Ġvisitor": 3153,
      "ĠWITH": 3154,
      "OUS": 3155,
      "ots": 3156,
      "predicate": 3157,
      "ONYM": 3158,
      "Ġ12": 3159,
      "ession": 3160,
      "Ġac": 3161,
      "extension": 3162,
      "ĠpropertyExpression": 3163,
      "TimeSpan": 3164,
      "Ġprojection": 3165,
      "ĠANONYM": 3166,
      "Propagate": 3167,
      "ĠANONYMOUS": 3168,
      "Embed": 3169,
      "ark": 3170,
      "ĠSu": 3171,
      "exception": 3172,
      "ValueConverter": 3173,
      "imal": 3174,
      "Ġ_,": 3175,
      "ĠIConventionContext": 3176,
      "ĠStart": 3177,
      "cover": 3178,
      "cript": 3179,
      "voke": 3180,
      "primaryKey": 3181,
      "SON": 3182,
      "Space": 3183,
      "man": 3184,
      "ĠReference": 3185,
      "Logging": 3186,
      "RemoveAnnotation": 3187,
      "?>>": 3188,
      "duct": 3189,
      "fy": 3190,
      "for": 3191,
      "ipeline": 3192,
      "Ġentries": 3193,
      "Ġadditional": 3194,
      "Ġcalcul": 3195,
      "Api": 3196,
      "History": 3197,
      "oll": 3198,
      "ĠAdditional": 3199,
      "Ġcaused": 3200,
      "Pl": 3201,
      "Pri": 3202,
      "ĠIRelational": 3203,
      "Ġcapacity": 3204,
      "ĠToArray": 3205,
      "currentType": 3206,
      "tributes": 3207,
      "OwnerEntity": 3208,
      "conventionSet": 3209,
      "IQueryable": 3210,
      "TOwnerEntity": 3211,
      "unaryExpression": 3212,
      "Ġasynchronous": 3213,
      "Clr": 3214,
      "Ġcommands": 3215,
      "RelationshipBuilder": 3216,
      "Form": 3217,
      "onth": 3218,
      "Ġwai": 3219,
      "ĠparameterName": 3220,
      "typeMappingSource": 3221,
      "CultureInfo": 3222,
      "Ġobserve": 3223,
      "Ġwaiting": 3224,
      "Diff": 3225,
      "cimal": 3226,
      "ose": 3227,
      "ARPATTERN": 3228,
      "ences": 3229,
      "ĠVARPATTERN": 3230,
      "Interceptor": 3231,
      "aving": 3232,
      "Ġsuch": 3233,
      "Ġlambda": 3234,
      "claringType": 3235,
      "Ġhave": 3236,
      "ousand": 3237,
      "KeyValueFactory": 3238,
      "ĠInternalEntityEntry": 3239,
      "DbFunctions": 3240,
      "Loading": 3241,
      "ĠJSON": 3242,
      "length": 3243,
      "ĠmodelBuilder": 3244,
      "ĠnavigationName": 3245,
      "projectionMapping": 3246,
      "enumerable": 3247,
      "ĠDbContextOptionsBuilder": 3248,
      "PropagateNullability": 3249,
      "But": 3250,
      "Structural": 3251,
      "ĠIModel": 3252,
      "nsafe": 3253,
      "ĠMove": 3254,
      "acked": 3255,
      "empty": 3256,
      "GenericTypeDefinition": 3257,
      "Operand": 3258,
      "detached": 3259,
      "Ġderived": 3260,
      "Parse": 3261,
      "Ġprecision": 3262,
      "tableConstant": 3263,
      "targetEntityType": 3264,
      "Ġconverter": 3265,
      "Ġpassed": 3266,
      "di": 3267,
      "header": 3268,
      "ĠDatabase": 3269,
      "queryExpression": 3270,
      "ency": 3271,
      "ServiceCollection": 3272,
      "ĠComplexTypePropertyBuilder": 3273,
      "polog": 3274,
      "Queue": 3275,
      "IndexOf": 3276,
      "ĠNullBut": 3277,
      "ĠNullButNotEmpty": 3278,
      "Limit": 3279,
      "com": 3280,
      "identity": 3281,
      "ĠtypeMapping": 3282,
      "like": 3283,
      "ArgumentException": 3284,
      "Ġdiscriminator": 3285,
      "ĠBITWISEANDEXPRESSION": 3286,
      "back": 3287,
      "port": 3288,
      "ĠAT": 3289,
      "sequence": 3290,
      "RowsAffected": 3291,
      "Ġnullable": 3292,
      "BU": 3293,
      "TRI": 3294,
      "bor": 3295,
      "ĠColumns": 3296,
      "urther": 3297,
      "underlying": 3298,
      "ĠValueGenerated": 3299,
      "lob": 3300,
      "ServiceProperty": 3301,
      "open": 3302,
      "binaryExpression": 3303,
      "ĠValidate": 3304,
      "eighbor": 3305,
      "ĠATTRI": 3306,
      "ĠATTRIBU": 3307,
      "Literal": 3308,
      "Precision": 3309,
      "Ġfurther": 3310,
      "QueryRootExpression": 3311,
      "clrType": 3312,
      "PrimitiveCollectionBuilder": 3313,
      "IgnoreCase": 3314,
      "Tim": 3315,
      "Ġcount": 3316,
      "ĠTKey": 3317,
      "apsed": 3318,
      "newNodes": 3319,
      "Ġrepresentation": 3320,
      "otherPropertyInfo": 3321,
      "ĠOrdinalIgnoreCase": 3322,
      "Ġleft": 3323,
      "pplied": 3324,
      "ĠGetEnumerator": 3325,
      "Ġget": 3326,
      "Ġgenerate": 3327,
      "ĠCommandOption": 3328,
      "Temporal": 3329,
      "Record": 3330,
      "ails": 3331,
      "commandStringBuilder": 3332,
      "ĠGenerateMessage": 3333,
      "Flag": 3334,
      "Materialization": 3335,
      "uentApi": 3336,
      "Match": 3337,
      "batch": 3338,
      "Containing": 3339,
      "Ġcontainer": 3340,
      "OrRemoveAnnotation": 3341,
      "relationshipBuilder": 3342,
      "Using": 3343,
      "Ġselect": 3344,
      "edStringBuilder": 3345,
      "Ġpa": 3346,
      "ConstraintName": 3347,
      "ChatMessage": 3348,
      "shapedQueryExpression": 3349,
      "ĠLeft": 3350,
      "ĠTemporal": 3351,
      "GetEnumerator": 3352,
      "Ġdet": 3353,
      "Members": 3354,
      "Variables": 3355,
      "byte": 3356,
      "Aggregate": 3357,
      "include": 3358,
      "ĠIsCollection": 3359,
      "SkipNavigations": 3360,
      "Ġprimary": 3361,
      "bine": 3362,
      "Ġjson": 3363,
      "reds": 3364,
      "ombine": 3365,
      "Environment": 3366,
      "Ġinto": 3367,
      "posed": 3368,
      "write": 3369,
      "undreds": 3370,
      "Red": 3371,
      "cycle": 3372,
      "list": 3373,
      "use": 3374,
      "ValueBuffer": 3375,
      "ompleted": 3376,
      "Ġmaximum": 3377,
      "When": 3378,
      "ĠReturnType": 3379,
      "Ġempty": 3380,
      "Related": 3381,
      "tsWith": 3382,
      "ĠIService": 3383,
      "ĠRequest": 3384,
      "Compatible": 3385,
      "patchEventData": 3386,
      "check": 3387,
      "words": 3388,
      "Design": 3389,
      "Star": 3390,
      "Ġgender": 3391,
      "iteSpace": 3392,
      "WhiteSpace": 3393,
      "tract": 3394,
      "ĠpropertyType": 3395,
      "ĠException": 3396,
      "ĠmemberInfo": 3397,
      "selector": 3398,
      "odificationCommand": 3399,
      "ĠCATCHDECLARATION": 3400,
      "interceptors": 3401,
      "ĠIndentedStringBuilder": 3402,
      "Cal": 3403,
      "Lazy": 3404,
      "Serializer": 3405,
      "Ġenumerator": 3406,
      "itial": 3407,
      "<(": 3408,
      "king": 3409,
      "ĠNeeds": 3410,
      "uring": 3411,
      "Ġrequest": 3412,
      "verage": 3413,
      "ĠMin": 3414,
      "StateManager": 3415,
      "ĠNotTranslated": 3416,
      "Accumul": 3417,
      "ĠNeedsEventData": 3418,
      "ĠNotTranslatedExpression": 3419,
      "IList": 3420,
      "oad": 3421,
      "osed": 3422,
      "tf": 3423,
      "yb": 3424,
      "inter": 3425,
      "ason": 3426,
      "Constraints": 3427,
      "ValueExpression": 3428,
      "Role": 3429,
      "ĠCompile": 3430,
      "Resolver": 3431,
      "ĠOwnedNavigationBuilder": 3432,
      "ĠEnsureInitialized": 3433,
      "Uri": 3434,
      "uint": 3435,
      "ĠResponse": 3436,
      "ĠIList": 3437,
      "ĠOperation": 3438,
      "TableOperation": 3439,
      "Ġright": 3440,
      "Ġresponse": 3441,
      "ĠEnd": 3442,
      "translation": 3443,
      "igno": 3444,
      "Referencing": 3445,
      "Ġfield": 3446,
      "Ġarguments": 3447,
      "Calls": 3448,
      "elementType": 3449,
      "Ġdescrib": 3450,
      "EqualityComparer": 3451,
      "Ġouter": 3452,
      "MappingStrategy": 3453,
      "plate": 3454,
      "Ġdependent": 3455,
      "suppress": 3456,
      "Ġgenerated": 3457,
      "ĠStoredProcedure": 3458,
      "ĠInterceptionResult": 3459,
      "size": 3460,
      "Accumulate": 3461,
      "down": 3462,
      "ry": 3463,
      "tIn": 3464,
      "ves": 3465,
      "Ġ\"": 3466,
      "ĠIEnumerator": 3467,
      "alias": 3468,
      "Reporter": 3469,
      "MappingFragment": 3470,
      "Timeout": 3471,
      "ĠAnnotation": 3472,
      "Ġreturned": 3473,
      "ĠstartTime": 3474,
      "ybrid": 3475,
      "iod": 3476,
      "ĠNext": 3477,
      "Ġaccess": 3478,
      "ĠInvariant": 3479,
      "ĠSqlGenerationHelper": 3480,
      "ĠShared": 3481,
      "StoreObjectIdentifier": 3482,
      "ĠDelete": 3483,
      "create": 3484,
      "reak": 3485,
      "aries": 3486,
      "ĠFl": 3487,
      "Parts": 3488,
      "Ġexist": 3489,
      "ĠIReadOnlyEntityType": 3490,
      "ocal": 3491,
      "ĠOrderedDictionary": 3492,
      "argumentsPropagateNullability": 3493,
      "Ġfactory": 3494,
      "flicting": 3495,
      "Fin": 3496,
      "Condition": 3497,
      "vertices": 3498,
      "ĠHasConversion": 3499,
      "stateManager": 3500,
      "visitor": 3501,
      "limitIdentifier": 3502,
      "omputedColumn": 3503,
      "umanize": 3504,
      "operand": 3505,
      "Ġcros": 3506,
      "ĠError": 3507,
      "irection": 3508,
      "Ġpayload": 3509,
      "fromIndex": 3510,
      "toIndex": 3511,
      "Ġdescribes": 3512,
      "estion": 3513,
      "ĠFor": 3514,
      "angu": 3515,
      "clone": 3516,
      "ĠInclude": 3517,
      "Failed": 3518,
      "ĠRight": 3519,
      "ybridCache": 3520,
      "Co": 3521,
      "IUpdateEntry": 3522,
      "Ġcreate": 3523,
      "ĠisDeterministic": 3524,
      "MethodCallExpression": 3525,
      "rint": 3526,
      "Ordering": 3527,
      "ĠGetTypeInfo": 3528,
      "clientProjections": 3529,
      "next": 3530,
      "ĠIDictionary": 3531,
      "Ġcolumns": 3532,
      "emb": 3533,
      "activity": 3534,
      "Attributes": 3535,
      "ĠContainsKey": 3536,
      "crementIndent": 3537,
      "Shadow": 3538,
      "anguage": 3539,
      "16": 3540,
      "EventDefinition": 3541,
      "VARI": 3542,
      "gin": 3543,
      "Ġculture": 3544,
      "ABLESTATEMENT": 3545,
      "Ġbut": 3546,
      "ĠContent": 3547,
      "ĠInverse": 3548,
      "ĠHasNo": 3549,
      "ĠFOREACHVARI": 3550,
      "Directory": 3551,
      "Ġcalculation": 3552,
      "ĠFOREACHVARIABLESTATEMENT": 3553,
      "ĠPath": 3554,
      "ctual": 3555,
      "Ġback": 3556,
      "ĠLIST": 3557,
      "Ġwhere": 3558,
      "pending": 3559,
      "QueryableExtensions": 3560,
      "Evaluatable": 3561,
      "RuntimeAnnotationCodeGenerator": 3562,
      "raph": 3563,
      "ĠMoveNext": 3564,
      "ĠLISTPATTERN": 3565,
      "False": 3566,
      "Hour": 3567,
      "gex": 3568,
      "scope": 3569,
      "Ġen": 3570,
      "tered": 3571,
      "Keys": 3572,
      "Ġsupplied": 3573,
      ">?:": 3574,
      "memberExpression": 3575,
      "Roots": 3576,
      "MemoryQueryExpression": 3577,
      "SaveBehavior": 3578,
      "Messages": 3579,
      "non": 3580,
      "ĠIAnnotation": 3581,
      "oute": 3582,
      "configuration": 3583,
      "ColumnExpression": 3584,
      "OptionsAction": 3585,
      "Logs": 3586,
      "ĠFindPrimaryKey": 3587,
      "newRelationshipBuilder": 3588,
      "ĠDispatchEventData": 3589,
      "ĠIConventionAnnotation": 3590,
      "relationalCommandBuilder": 3591,
      "SyntaxKind": 3592,
      "Ġpart": 3593,
      "embed": 3594,
      "known": 3595,
      "tool": 3596,
      "illi": 3597,
      "GetDeclared": 3598,
      "ĠIsUnique": 3599,
      "shared": 3600,
      "Factor": 3601,
      "ĠDateDiff": 3602,
      "Ġboundaries": 3603,
      "Called": 3604,
      "Ġcrossed": 3605,
      "EventDefinitionBase": 3606,
      "Modified": 3607,
      "ĠPrint": 3608,
      "Ġbeen": 3609,
      "Infrastructure": 3610,
      "AsyncEnumerable": 3611,
      "Ġruntime": 3612,
      "Headers": 3613,
      "cp": 3614,
      "nodes": 3615,
      "ĠDelimitIdentifier": 3616,
      "ĠSelectMany": 3617,
      "ownership": 3618,
      "lapsed": 3619,
      "Ġcontaining": 3620,
      "iration": 3621,
      "Stopwatch": 3622,
      "uto": 3623,
      "ĠSetIs": 3624,
      "Details": 3625,
      "Flags": 3626,
      "dependentEntityType": 3627,
      "dge": 3628,
      "edge": 3629,
      "ĠInvariantCulture": 3630,
      "illion": 3631,
      "Safe": 3632,
      "sage": 3633,
      "resol": 3634,
      "ExpressionBase": 3635,
      "ĠGetDerivedTypes": 3636,
      "ValueType": 3637,
      "ommit": 3638,
      "ĠInvoke": 3639,
      "ĠAddRange": 3640,
      "keyValues": 3641,
      "StoredProcedureParameter": 3642,
      "InternalEntityEntry": 3643,
      "ĠIndexOf": 3644,
      "ĠStartsWith": 3645,
      "reachableException": 3646,
      "IServiceCollection": 3647,
      "md": 3648,
      "sation": 3649,
      "uffer": 3650,
      "Ġj": 3651,
      "ĠUnreachableException": 3652,
      "Handler": 3653,
      "Savepoint": 3654,
      "bytes": 3655,
      "Break": 3656,
      "ĠQueryExpression": 3657,
      "removed": 3658,
      "oun": 3659,
      "ĠAzure": 3660,
      "Ġfalse": 3661,
      "Ġpredicate": 3662,
      "Ġits": 3663,
      "TokenCount": 3664,
      "alize": 3665,
      "IConventionPropertyBuilder": 3666,
      "Ġmaps": 3667,
      "ĠDateOnly": 3668,
      "MappedTo": 3669,
      "omputedColumnSql": 3670,
      "OBJEC": 3671,
      "TMEMBER": 3672,
      "app": 3673,
      "ful": 3674,
      "sEnabled": 3675,
      "wns": 3676,
      "Ġet": 3677,
      "Ġ13": 3678,
      "iffer": 3679,
      "OnClient": 3680,
      "sqlBinaryExpression": 3681,
      "Ġ_:": 3682,
      "ĠFunctionOnClient": 3683,
      "ĠANONYMOUSOBJEC": 3684,
      "TMEMBERDECLARATOR": 3685,
      "ĠANONYMOUSOBJECTMEMBERDECLARATOR": 3686,
      "Uti": 3687,
      "core": 3688,
      "spaces": 3689,
      "ĠBody": 3690,
      "ĠOption": 3691,
      "add": 3692,
      "constant": 3693,
      "alized": 3694,
      "columnName": 3695,
      "record": 3696,
      "hash": 3697,
      "Position": 3698,
      "Ensure": 3699,
      "Zero": 3700,
      "get": 3701,
      "Ġroot": 3702,
      "alified": 3703,
      "SqlConstantExpression": 3704,
      "Ġdefined": 3705,
      "sqlite": 3706,
      "ĠSetOrRemoveAnnotation": 3707,
      "ĠPropertyInfo": 3708,
      "iledQuery": 3709,
      "Ġconversion": 3710,
      "FixedLength": 3711,
      "OriginalValue": 3712,
      "ExecutionStrategy": 3713,
      "essionToken": 3714,
      "Tens": 3715,
      "gment": 3716,
      "ĠSorted": 3717,
      "Inclusive": 3718,
      "ĠOpen": 3719,
      "propertyExpression": 3720,
      "ĠHasAnnotation": 3721,
      "CallCodeFragment": 3722,
      "Dependency": 3723,
      "Bucket": 3724,
      "SequenceType": 3725,
      "ĠIsNullableType": 3726,
      "Ġ100000000": 3727,
      "Tuple": 3728,
      "cor": 3729,
      "health": 3730,
      "ĠEventData": 3731,
      "ceed": 3732,
      "ExpressionFactory": 3733,
      "notatable": 3734,
      "ĠGetProperties": 3735,
      "ValueGenerated": 3736,
      "Ġnode": 3737,
      "ĠToDebugString": 3738,
      "ĠPrincipalToDependent": 3739,
      "inverseNavigation": 3740,
      "Embedding": 3741,
      "eom": 3742,
      "ix": 3743,
      "messages": 3744,
      "nested": 3745,
      "ACE": 3746,
      "ĠNAMESP": 3747,
      "igu": 3748,
      "ĠField": 3749,
      "ĠModified": 3750,
      "OrUpdate": 3751,
      "claration": 3752,
      "andidates": 3753,
      "token": 3754,
      "LambdaExpression": 3755,
      "Returning": 3756,
      "ĠĠĠĠ": 3757,
      "Args": 3758,
      "ĠNAMESPACE": 3759,
      "Custom": 3760,
      "Ġfl": 3761,
      "PropertyNames": 3762,
      "DbConnection": 3763,
      "vertex": 3764,
      "writer": 3765,
      "MaxLength": 3766,
      "derivedType": 3767,
      "ĠMODULOASSIGNMENTEXPRESSION": 3768,
      "ĠIsNullOrWhiteSpace": 3769,
      "ĠFI": 3770,
      "ĠCombine": 3771,
      "Ġfragment": 3772,
      "ĠGetService": 3773,
      "emplate": 3774,
      "Ġyear": 3775,
      "claringEntityType": 3776,
      "Ġchar": 3777,
      "image": 3778,
      "illiseconds": 3779,
      "15": 3780,
      "YCLAUSE": 3781,
      "bs": 3782,
      "yp": 3783,
      "etadata": 3784,
      "olation": 3785,
      "queue": 3786,
      "True": 3787,
      "Ġdelete": 3788,
      "ĠIfOutOfRange": 3789,
      "WithSelector": 3790,
      "Translator": 3791,
      "IPropertyBase": 3792,
      "Ġsecond": 3793,
      "CancellationToken": 3794,
      "ID": 3795,
      "LYCLAUSE": 3796,
      "NAL": 3797,
      "cret": 3798,
      "Ġsingle": 3799,
      "Container": 3800,
      "ĠInitializ": 3801,
      "irectlyDerivedTypes": 3802,
      "ĠAnd": 3803,
      "Ġprevious": 3804,
      "Coord": 3805,
      "ĠFINAL": 3806,
      "crete": 3807,
      "ĠFINALLYCLAUSE": 3808,
      "lse": 3809,
      "ĠElement": 3810,
      "Ġvalid": 3811,
      "TComplex": 3812,
      "Ġsuccess": 3813,
      "fining": 3814,
      "Determines": 3815,
      "icalSort": 3816,
      "Expiration": 3817,
      "pologicalSort": 3818,
      "Coordinator": 3819,
      "Li": 3820,
      "eat": 3821,
      "initializ": 3822,
      "ish": 3823,
      "Ġword": 3824,
      "Status": 3825,
      "EntityFrameworkQueryableExtensions": 3826,
      "Seed": 3827,
      "temporal": 3828,
      "orage": 3829,
      "Ġrequired": 3830,
      "Ġdictionary": 3831,
      "ĠtypeBase": 3832,
      "SqlOutput": 3833,
      "ĠHasForeignKey": 3834,
      "ĠIConventionEntityType": 3835,
      "ĠAsSpan": 3836,
      "iffContext": 3837,
      "lect": 3838,
      "Declaration": 3839,
      "sqlUnaryExpression": 3840,
      "cluding": 3841,
      "based": 3842,
      "columns": 3843,
      "oting": 3844,
      "IsNullable": 3845,
      "Lock": 3846,
      "FluentApi": 3847,
      "ChangeTrackingStrategy": 3848,
      "ĠSequenceEqual": 3849,
      "ĠATTRIBUTE": 3850,
      "iguous": 3851,
      "binding": 3852,
      "baseType": 3853,
      "tc": 3854,
      "Ġclient": 3855,
      "perExpression": 3856,
      "ases": 3857,
      "ĠstringBuilder": 3858,
      "Statement": 3859,
      "Uniqu": 3860,
      "Ġattribute": 3861,
      "ĠReset": 3862,
      "ĠTool": 3863,
      "Ġnext": 3864,
      "Ġmessages": 3865,
      "ĠGrammaticalGender": 3866,
      "ĠGuid": 3867,
      "DbCommand": 3868,
      "FieldInfo": 3869,
      "ChangedConvention": 3870,
      "ExpansionExpression": 3871,
      "Math": 3872,
      "Should": 3873,
      "document": 3874,
      "ĠNode": 3875,
      "Ġincrement": 3876,
      "ppended": 3877,
      "Prox": 3878,
      "navigationToDependent": 3879,
      "Prime": 3880,
      "Utf": 3881,
      "Ġinterceptor": 3882,
      "variable": 3883,
      "istance": 3884,
      "signTime": 3885,
      "principalKey": 3886,
      "NotNull": 3887,
      "predecessorCounts": 3888,
      "Also": 3889,
      "ignored": 3890,
      "RuntimeAnnotationCodeGeneratorParameters": 3891,
      "RootsQueue": 3892,
      "fully": 3893,
      "actor": 3894,
      "tmp": 3895,
      "required": 3896,
      "present": 3897,
      "contextType": 3898,
      "Detach": 3899,
      "Ġbyte": 3900,
      "prec": 3901,
      "Ġunique": 3902,
      "IMutableEntityType": 3903,
      "pc": 3904,
      "Ġ).": 3905,
      "Configure": 3906,
      "abel": 3907,
      "navigationToPrincipal": 3908,
      "indexBuilder": 3909,
      "lifted": 3910,
      "ĠCSharpRuntimeAnnotationCodeGeneratorParameters": 3911,
      "ceeded": 3912,
      "Ad": 3913,
      "Imp": 3914,
      "fragment": 3915,
      "total": 3916,
      "Ġ'": 3917,
      "ĠIQueryable": 3918,
      "ĠServices": 3919,
      "Const": 3920,
      "stopwatch": 3921,
      "ĠTUPLETYPE": 3922,
      "projectionBindingExpression": 3923,
      "ĠprimitiveCollectionBuilder": 3924,
      "Ġoptional": 3925,
      "fieldInfo": 3926,
      "BuiltIn": 3927,
      "ĠHasDefaultValueSql": 3928,
      "precision": 3929,
      "culture": 3930,
      "ĠCollection": 3931,
      "Ġinter": 3932,
      "ĠGetRequired": 3933,
      "Ġconvert": 3934,
      "ĠConver": 3935,
      "Indexer": 3936,
      "Ġlower": 3937,
      "Ġchat": 3938,
      "ĠDbConnection": 3939,
      "etry": 3940,
      "ĠMakeGenericType": 3941,
      "mplemented": 3942,
      "Interfaces": 3943,
      "eometry": 3944,
      "ion": 3945,
      "ush": 3946,
      "ĠCL": 3947,
      "ĠRA": 3948,
      "Ġcollation": 3949,
      "ascade": 3950,
      "sili": 3951,
      "aby": 3952,
      "NGE": 3953,
      "Ġnone": 3954,
      "ĠOptions": 3955,
      "lice": 3956,
      "000": 3957,
      "MemberIdentity": 3958,
      "Address": 3959,
      "Dispatcher": 3960,
      "Distinct": 3961,
      ">>.": 3962,
      "ĠPrincipalKey": 3963,
      "ĠShortName": 3964,
      "ĠISqlExpressionFactory": 3965,
      "ĠCLR": 3966,
      "ĠRANGE": 3967,
      "silience": 3968,
      "Vol": 3969,
      "ech": 3970,
      "wit": 3971,
      "reference": 3972,
      "TypeBuilder": 3973,
      "Ġreader": 3974,
      "atile": 3975,
      "Ġmore": 3976,
      "loat": 3977,
      "DateOnly": 3978,
      "Handle": 3979,
      "compil": 3980,
      "SqlOutputClause": 3981,
      "Volatile": 3982,
      "witch": 3983,
      "fullName": 3984,
      "oding": 3985,
      "ĠvalueComparer": 3986,
      "ĠDelay": 3987,
      "TableBuilder": 3988,
      "ĠIReadOnlyDictionary": 3989,
      "ComplexPropertyBuilder": 3990,
      "ComplexCollection": 3991,
      "ĠPrimitiveCollectionBuilder": 3992,
      "ĠcomplexTypeName": 3993,
      "func": 3994,
      "Ġle": 3995,
      "ĠGetGenericTypeDefinition": 3996,
      "Ġpool": 3997,
      "JsonPropertyName": 3998,
      "ĠOrder": 3999,
      "ReferenceMap": 4000,
      "Batching": 4001,
      "ĠMigrations": 4002,
      "Edge": 4003,
      "criptor": 4004,
      "DesignStrings": 4005,
      "medi": 4006,
      "Ġbuild": 4007,
      "Eng": 4008,
      "Ġcontain": 4009,
      "ĠValueConverter": 4010,
      "Suffix": 4011,
      "optionsBuilder": 4012,
      "ĠMakeNullable": 4013,
      "AliasManager": 4014,
      "GroupBy": 4015,
      "path": 4016,
      "ardinal": 4017,
      "Ġfilter": 4018,
      "ferred": 4019,
      "valueComparer": 4020,
      "Ġkeys": 4021,
      "TimeUnit": 4022,
      "targetType": 4023,
      "Compare": 4024,
      "PrincipalKey": 4025,
      "valuate": 4026,
      "ĠoptionsBuilder": 4027,
      "Missing": 4028,
      "Replacements": 4029,
      "?>:": 4030,
      "IRelational": 4031,
      "option": 4032,
      "sum": 4033,
      "smos": 4034,
      "DECREMENTEXPRESSION": 4035,
      "ĠText": 4036,
      "ĠTVertex": 4037,
      "parse": 4038,
      "ĠLast": 4039,
      "unk": 4040,
      "ultip": 4041,
      "cosmos": 4042,
      "Ġgeneration": 4043,
      "Validation": 4044,
      "predecessorMap": 4045,
      "shouldThrow": 4046,
      "groupBy": 4047,
      "Ġsuccessfully": 4048,
      ">>:": 4049,
      "cceeded": 4050,
      "http": 4051,
      "jected": 4052,
      "ĠINavigation": 4053,
      "atche": 4054,
      "roval": 4055,
      "Ġchanges": 4056,
      "Ġactual": 4057,
      "moves": 4058,
      "CollectionAccessor": 4059,
      "tableName": 4060,
      "Children": 4061,
      "ĠArgumentNullException": 4062,
      "Byte": 4063,
      "StoredProcedureBuilder": 4064,
      "MigrationOperation": 4065,
      "OwnedNavigationBuilder": 4066,
      "Lifetime": 4067,
      "parentIdentifier": 4068,
      "herit": 4069,
      "SimpleMember": 4070,
      "ĠGetOrCreate": 4071,
      "Ġupper": 4072,
      "olationLevel": 4073,
      "Sentinel": 4074,
      "ĠBind": 4075,
      "ict": 4076,
      "expected": 4077,
      "ĠGetDefault": 4078,
      "Enc": 4079,
      "Orderings": 4080,
      "Discover": 4081,
      "NotSupported": 4082,
      "UnitsMap": 4083,
      "DateTimeOffset": 4084,
      "ĠMigrationCommand": 4085,
      "ĠIdentifier": 4086,
      "OpenTelemetryConst": 4087,
      "ReturningClause": 4088,
      "OpenTelemetryConsts": 4089,
      "Implementation": 4090,
      "col": 4091,
      "filter": 4092,
      "Ġab": 4093,
      "Ġselector": 4094,
      "ĠcomplexProperty": 4095
    },
    "merges": [
      [
        "M",
        "E"
      ],
      [
        "E",
        "R"
      ],
      [
        "O",
        "N"
      ],
      [
        "S",
        "I"
      ],
      [
        "E",
        "S"
      ],
      [
        "T",
        "I"
      ],
      [
        "Ġ",
        "I"
      ],
      [
        "A",
        "ME"
      ],
      [
        "P",
        "R"
      ],
      [
        "E",
        "X"
      ],
      [
        "PR",
        "ES"
      ],
      [
        "SI",
        "ON"
      ],
      [
        "EX",
        "PRES"
      ],
      [
        "EXPRES",
        "SION"
      ],
      [
        "D",
        "E"
      ],
      [
        "N",
        "AME"
      ],
      [
        "F",
        "I"
      ],
      [
        "FI",
        "ER"
      ],
      [
        "N",
        "TI"
      ],
      [
        "ĠI",
        "DE"
      ],
      [
        "ĠIDE",
        "NTI"
      ],
      [
        "FIER",
        "NAME"
      ],
      [
        "ĠIDENTI",
        "FIERNAME"
      ],
      [
        "o",
        "n"
      ],
      [
        "A",
        "R"
      ],
      [
        "O",
        "C"
      ],
      [
        "A",
        "L"
      ],
      [
        "t",
        "i"
      ],
      [
        "e",
        "r"
      ],
      [
        "L",
        "E"
      ],
      [
        "T",
        "ER"
      ],
      [
        "r",
        "e"
      ],
      [
        "TI",
        "ON"
      ],
      [
        "S",
        "EXPRESSION"
      ],
      [
        "i",
        "n"
      ],
      [
        "A",
        "TION"
      ],
      [
        "P",
        "LE"
      ],
      [
        "Ġ",
        "SI"
      ],
      [
        "M",
        "PLE"
      ],
      [
        "ĠSI",
        "MPLE"
      ],
      [
        "A",
        "C"
      ],
      [
        "C",
        "ES"
      ],
      [
        "AC",
        "CES"
      ],
      [
        "ACCES",
        "SEXPRESSION"
      ],
      [
        "L",
        "OC"
      ],
      [
        "M",
        "B"
      ],
      [
        "ME",
        "MB"
      ],
      [
        "MEMB",
        "ER"
      ],
      [
        "ti",
        "on"
      ],
      [
        "ĠSIMPLE",
        "MEMBER"
      ],
      [
        "ĠSIMPLEMEMBER",
        "ACCESSEXPRESSION"
      ],
      [
        "a",
        "r"
      ],
      [
        "C",
        "L"
      ],
      [
        "e",
        "n"
      ],
      [
        "A",
        "T"
      ],
      [
        "Ġ",
        "P"
      ],
      [
        "ATION",
        "EXPRESSION"
      ],
      [
        "AME",
        "TER"
      ],
      [
        "AR",
        "AMETER"
      ],
      [
        "ĠI",
        "N"
      ],
      [
        "ĠP",
        "ARAMETER"
      ],
      [
        "Ġ",
        "t"
      ],
      [
        "Ġ",
        "LOC"
      ],
      [
        "ĠLOC",
        "AL"
      ],
      [
        "N",
        "T"
      ],
      [
        "a",
        "m"
      ],
      [
        "S",
        "T"
      ],
      [
        "V",
        "OC"
      ],
      [
        "ĠIN",
        "VOC"
      ],
      [
        "ĠINVOC",
        "ATIONEXPRESSION"
      ],
      [
        "Ġ",
        "1"
      ],
      [
        "a",
        "t"
      ],
      [
        "ME",
        "NT"
      ],
      [
        "a",
        "l"
      ],
      [
        "a",
        "n"
      ],
      [
        "t",
        "y"
      ],
      [
        "o",
        "u"
      ],
      [
        "T",
        "Y"
      ],
      [
        "l",
        "e"
      ],
      [
        "h",
        "e"
      ],
      [
        "AT",
        "E"
      ],
      [
        "Ġ",
        "s"
      ],
      [
        "o",
        "r"
      ],
      [
        "a",
        "tion"
      ],
      [
        "p",
        "e"
      ],
      [
        "am",
        "e"
      ],
      [
        "DE",
        "CL"
      ],
      [
        "DECL",
        "AR"
      ],
      [
        "ATE",
        "MENT"
      ],
      [
        "r",
        "o"
      ],
      [
        "ST",
        "ATEMENT"
      ],
      [
        "in",
        "g"
      ],
      [
        "Ġ",
        "C"
      ],
      [
        "TY",
        "P"
      ],
      [
        "Ġ",
        "c"
      ],
      [
        "Ġ",
        "E"
      ],
      [
        "TYP",
        "E"
      ],
      [
        "c",
        "e"
      ],
      [
        "y",
        "pe"
      ],
      [
        "Ġ",
        "NAME"
      ],
      [
        "re",
        "s"
      ],
      [
        "Ġ",
        "T"
      ],
      [
        "e",
        "d"
      ],
      [
        "AL",
        "EXPRESSION"
      ],
      [
        "e",
        "t"
      ],
      [
        "A",
        "B"
      ],
      [
        "D",
        "TYPE"
      ],
      [
        "p",
        "u"
      ],
      [
        "ĠNAME",
        "DTYPE"
      ],
      [
        "S",
        "E"
      ],
      [
        "p",
        "er"
      ],
      [
        "AB",
        "LE"
      ],
      [
        "a",
        "s"
      ],
      [
        "s",
        "i"
      ],
      [
        "Ġ",
        "N"
      ],
      [
        "I",
        "TER"
      ],
      [
        "ITER",
        "ALEXPRESSION"
      ],
      [
        "Ġ",
        "V"
      ],
      [
        "t",
        "r"
      ],
      [
        "T",
        "ype"
      ],
      [
        "i",
        "l"
      ],
      [
        "Ġ",
        "B"
      ],
      [
        "i",
        "c"
      ],
      [
        "d",
        "e"
      ],
      [
        "c",
        "t"
      ],
      [
        "Ġ",
        "v"
      ],
      [
        "DECLAR",
        "ATION"
      ],
      [
        "Ġ",
        "in"
      ],
      [
        "Ġt",
        "he"
      ],
      [
        "AR",
        "I"
      ],
      [
        "ARI",
        "ABLE"
      ],
      [
        "ĠV",
        "ARIABLE"
      ],
      [
        "i",
        "g"
      ],
      [
        "LOC",
        "K"
      ],
      [
        "ĠB",
        "LOCK"
      ],
      [
        "si",
        "on"
      ],
      [
        "A",
        "U"
      ],
      [
        "ti",
        "ty"
      ],
      [
        "Ġ",
        "A"
      ],
      [
        "CL",
        "AU"
      ],
      [
        "CLAU",
        "SE"
      ],
      [
        "R",
        "E"
      ],
      [
        "i",
        "s"
      ],
      [
        "d",
        "er"
      ],
      [
        "E",
        "x"
      ],
      [
        "e",
        "s"
      ],
      [
        "Q",
        "U"
      ],
      [
        "n",
        "o"
      ],
      [
        "p",
        "res"
      ],
      [
        "QU",
        "AL"
      ],
      [
        "ro",
        "per"
      ],
      [
        "u",
        "m"
      ],
      [
        "p",
        "ar"
      ],
      [
        "en",
        "t"
      ],
      [
        "pres",
        "sion"
      ],
      [
        "L",
        "ITERALEXPRESSION"
      ],
      [
        "i",
        "t"
      ],
      [
        "al",
        "u"
      ],
      [
        "ou",
        "t"
      ],
      [
        "Ġ",
        "2"
      ],
      [
        "Ġ",
        "b"
      ],
      [
        "u",
        "l"
      ],
      [
        "R",
        "I"
      ],
      [
        "at",
        "e"
      ],
      [
        "o",
        "l"
      ],
      [
        "roper",
        "ty"
      ],
      [
        "l",
        "ic"
      ],
      [
        "u",
        "r"
      ],
      [
        "o",
        "m"
      ],
      [
        "ĠN",
        "U"
      ],
      [
        "p",
        "p"
      ],
      [
        "Ġ",
        "S"
      ],
      [
        "C",
        "on"
      ],
      [
        "ĠE",
        "QUAL"
      ],
      [
        "Ġ",
        "an"
      ],
      [
        "u",
        "il"
      ],
      [
        "e",
        "x"
      ],
      [
        "t",
        "er"
      ],
      [
        "o",
        "re"
      ],
      [
        "Ex",
        "pression"
      ],
      [
        "a",
        "b"
      ],
      [
        "pu",
        "t"
      ],
      [
        "n",
        "tity"
      ],
      [
        "Ġ",
        "0"
      ],
      [
        "uil",
        "der"
      ],
      [
        "alu",
        "e"
      ],
      [
        "O",
        "R"
      ],
      [
        "Ġ",
        "w"
      ],
      [
        "Ġ",
        "F"
      ],
      [
        "Ġt",
        "o"
      ],
      [
        "out",
        "put"
      ],
      [
        "N",
        "G"
      ],
      [
        "<",
        "|"
      ],
      [
        "|",
        ">"
      ],
      [
        "U",
        "E"
      ],
      [
        "c",
        "tion"
      ],
      [
        "E",
        "L"
      ],
      [
        "Ġ",
        "o"
      ],
      [
        "ab",
        "le"
      ],
      [
        "par",
        "am"
      ],
      [
        "tr",
        "ing"
      ],
      [
        "Ġt",
        "h"
      ],
      [
        "T",
        "H"
      ],
      [
        "Ġ",
        "L"
      ],
      [
        "Ġv",
        "ar"
      ],
      [
        "TER",
        "N"
      ],
      [
        "AT",
        "TERN"
      ],
      [
        "Ġ",
        "re"
      ],
      [
        "a",
        "ti"
      ],
      [
        "b",
        "lic"
      ],
      [
        "pu",
        "blic"
      ],
      [
        "Ġ",
        "a"
      ],
      [
        "I",
        "n"
      ],
      [
        "EL",
        "D"
      ],
      [
        "O",
        "D"
      ],
      [
        "ou",
        "r"
      ],
      [
        "N",
        "ame"
      ],
      [
        "P",
        "ATTERN"
      ],
      [
        "Ġ",
        "n"
      ],
      [
        "FI",
        "ELD"
      ],
      [
        "R",
        "e"
      ],
      [
        "Ġ",
        "ME"
      ],
      [
        "TH",
        "OD"
      ],
      [
        "ĠME",
        "THOD"
      ],
      [
        "AT",
        "OR"
      ],
      [
        "DECLAR",
        "ATOR"
      ],
      [
        "ĠVARIABLE",
        "DECLARATOR"
      ],
      [
        "ĠVARIABLE",
        "DECLARATION"
      ],
      [
        "L",
        "L"
      ],
      [
        "Ġ",
        "m"
      ],
      [
        "e",
        "y"
      ],
      [
        "Ġ",
        "f"
      ],
      [
        "S",
        "V"
      ],
      [
        "AL",
        "UE"
      ],
      [
        "ĠEQUAL",
        "SV"
      ],
      [
        "ALUE",
        "CLAUSE"
      ],
      [
        "ĠEQUALSV",
        "ALUECLAUSE"
      ],
      [
        "ĠI",
        "F"
      ],
      [
        "no",
        "t"
      ],
      [
        "ĠIF",
        "STATEMENT"
      ],
      [
        "ĠLOCAL",
        "DECLARATION"
      ],
      [
        "ĠLOCALDECLARATION",
        "STATEMENT"
      ],
      [
        "as",
        "e"
      ],
      [
        "B",
        "uilder"
      ],
      [
        "o",
        "de"
      ],
      [
        "l",
        "y"
      ],
      [
        "v",
        "ar"
      ],
      [
        "ul",
        "t"
      ],
      [
        "ĠT",
        "he"
      ],
      [
        "T",
        "C"
      ],
      [
        "G",
        "et"
      ],
      [
        "Ġ",
        "d"
      ],
      [
        "Ġ",
        "RE"
      ],
      [
        "e",
        "ct"
      ],
      [
        "U",
        "R"
      ],
      [
        "Ġ",
        "u"
      ],
      [
        "Ġth",
        "at"
      ],
      [
        "O",
        "L"
      ],
      [
        "ST",
        "RI"
      ],
      [
        "STRI",
        "NG"
      ],
      [
        "ex",
        "t"
      ],
      [
        "s",
        "e"
      ],
      [
        "Ġ",
        "PR"
      ],
      [
        "f",
        "ig"
      ],
      [
        "O",
        "P"
      ],
      [
        "Ġs",
        "t"
      ],
      [
        "ĠPR",
        "OP"
      ],
      [
        "ĠPROP",
        "ER"
      ],
      [
        "Ġ",
        "O"
      ],
      [
        "om",
        "p"
      ],
      [
        "ĠNU",
        "LL"
      ],
      [
        "MENT",
        "EXPRESSION"
      ],
      [
        "R",
        "O"
      ],
      [
        "RO",
        "W"
      ],
      [
        "Ġb",
        "e"
      ],
      [
        "T",
        "UR"
      ],
      [
        "TUR",
        "N"
      ],
      [
        "TURN",
        "STATEMENT"
      ],
      [
        "I",
        "C"
      ],
      [
        "A",
        "S"
      ],
      [
        "r",
        "i"
      ],
      [
        "Ġ",
        "FIELD"
      ],
      [
        "ĠRE",
        "TURNSTATEMENT"
      ],
      [
        "it",
        "h"
      ],
      [
        "an",
        "d"
      ],
      [
        "our",
        "ce"
      ],
      [
        "Ġ",
        "AR"
      ],
      [
        "q",
        "u"
      ],
      [
        "p",
        "roperty"
      ],
      [
        "v",
        "er"
      ],
      [
        "ĠPROPER",
        "TY"
      ],
      [
        "G",
        "N"
      ],
      [
        "SI",
        "GN"
      ],
      [
        "p",
        "tion"
      ],
      [
        "Ġ",
        "D"
      ],
      [
        "AS",
        "SIGN"
      ],
      [
        "ASSIGN",
        "MENTEXPRESSION"
      ],
      [
        "b",
        "j"
      ],
      [
        "at",
        "a"
      ],
      [
        ":",
        "_"
      ],
      [
        "E",
        "ntity"
      ],
      [
        "s",
        "t"
      ],
      [
        "K",
        "ey"
      ],
      [
        "ROW",
        "EXPRESSION"
      ],
      [
        "u",
        "re"
      ],
      [
        "G",
        "IC"
      ],
      [
        "O",
        "GIC"
      ],
      [
        "ĠL",
        "OGIC"
      ],
      [
        "ĠLOGIC",
        "AL"
      ],
      [
        "bj",
        "ect"
      ],
      [
        "en",
        "d"
      ],
      [
        "a",
        "d"
      ],
      [
        "ĠC",
        "ON"
      ],
      [
        "ĠSIMPLE",
        "ASSIGNMENTEXPRESSION"
      ],
      [
        "ĠNULL",
        "LITERALEXPRESSION"
      ],
      [
        "m",
        "e"
      ],
      [
        "P",
        "roperty"
      ],
      [
        "Ġ",
        "Get"
      ],
      [
        "w",
        "or"
      ],
      [
        "not",
        "ation"
      ],
      [
        "ME",
        "RI"
      ],
      [
        "CL",
        "ITERALEXPRESSION"
      ],
      [
        "ĠNU",
        "MERI"
      ],
      [
        "ĠNUMERI",
        "CLITERALEXPRESSION"
      ],
      [
        "ĠAR",
        "ROWEXPRESSION"
      ],
      [
        "ĠARROWEXPRESSION",
        "CLAUSE"
      ],
      [
        "um",
        "ent"
      ],
      [
        "ĠE",
        "ntity"
      ],
      [
        "Ġw",
        "ith"
      ],
      [
        "V",
        "alue"
      ],
      [
        "a",
        "g"
      ],
      [
        "b",
        "er"
      ],
      [
        "r",
        "ame"
      ],
      [
        "wor",
        "k"
      ],
      [
        "rame",
        "work"
      ],
      [
        "Ġan",
        "d"
      ],
      [
        "n",
        "s"
      ],
      [
        "g",
        "ument"
      ],
      [
        "O",
        "T"
      ],
      [
        "a",
        "v"
      ],
      [
        "E",
        "C"
      ],
      [
        "Ġ",
        "3"
      ],
      [
        "E",
        "n"
      ],
      [
        "M",
        "a"
      ],
      [
        "n",
        "t"
      ],
      [
        "Ġs",
        "u"
      ],
      [
        "ur",
        "ation"
      ],
      [
        "en",
        "tity"
      ],
      [
        "e",
        "w"
      ],
      [
        "A",
        "N"
      ],
      [
        "an",
        "g"
      ],
      [
        "l",
        "ation"
      ],
      [
        "a",
        "y"
      ],
      [
        "u",
        "n"
      ],
      [
        "B",
        "J"
      ],
      [
        "BJ",
        "EC"
      ],
      [
        "o",
        "d"
      ],
      [
        "fig",
        "uration"
      ],
      [
        "q",
        "l"
      ],
      [
        "Ġ",
        "is"
      ],
      [
        "i",
        "f"
      ],
      [
        "STRING",
        "LITERALEXPRESSION"
      ],
      [
        "Ġ",
        "$"
      ],
      [
        "ame",
        "ter"
      ],
      [
        "Ġ",
        "STRINGLITERALEXPRESSION"
      ],
      [
        "Ġc",
        "on"
      ],
      [
        "M",
        "et"
      ],
      [
        "RE",
        "ATIONEXPRESSION"
      ],
      [
        "S",
        "ource"
      ],
      [
        "ĠC",
        "ore"
      ],
      [
        "n",
        "g"
      ],
      [
        "le",
        "ase"
      ],
      [
        "v",
        "i"
      ],
      [
        "P",
        "I"
      ],
      [
        "ĠA",
        "PI"
      ],
      [
        "d",
        "d"
      ],
      [
        "ĠF",
        "ramework"
      ],
      [
        "Ġre",
        "lease"
      ],
      [
        "e",
        "m"
      ],
      [
        "TC",
        "REATIONEXPRESSION"
      ],
      [
        "BJEC",
        "TCREATIONEXPRESSION"
      ],
      [
        "v",
        "en"
      ],
      [
        "Ġo",
        "f"
      ],
      [
        "i",
        "d"
      ],
      [
        "er",
        "y"
      ],
      [
        "A",
        "n"
      ],
      [
        "D",
        "I"
      ],
      [
        "Ġ",
        "or"
      ],
      [
        "D",
        "e"
      ],
      [
        "C",
        "ol"
      ],
      [
        "m",
        "o"
      ],
      [
        "ĠIN",
        "TER"
      ],
      [
        "P",
        "OL"
      ],
      [
        "ĠINTER",
        "POL"
      ],
      [
        "i",
        "r"
      ],
      [
        "ĠO",
        "BJECTCREATIONEXPRESSION"
      ],
      [
        "av",
        "ig"
      ],
      [
        "avig",
        "ation"
      ],
      [
        "c",
        "k"
      ],
      [
        "de",
        "x"
      ],
      [
        "ati",
        "c"
      ],
      [
        "T",
        "o"
      ],
      [
        "t",
        "ext"
      ],
      [
        "Ġs",
        "tring"
      ],
      [
        "l",
        "d"
      ],
      [
        "An",
        "notation"
      ],
      [
        "ur",
        "ns"
      ],
      [
        "Ġc",
        "an"
      ],
      [
        "ĠEQUAL",
        "SEXPRESSION"
      ],
      [
        "en",
        "er"
      ],
      [
        "i",
        "p"
      ],
      [
        "res",
        "ult"
      ],
      [
        "Ġ",
        "k"
      ],
      [
        "h",
        "ang"
      ],
      [
        "T",
        "h"
      ],
      [
        "t",
        "s"
      ],
      [
        "p",
        "d"
      ],
      [
        "D",
        "EXPRESSION"
      ],
      [
        "ul",
        "l"
      ],
      [
        "o",
        "ol"
      ],
      [
        "t",
        "h"
      ],
      [
        "P",
        "ar"
      ],
      [
        "mo",
        "v"
      ],
      [
        "Ġst",
        "atic"
      ],
      [
        "c",
        "on"
      ],
      [
        "m",
        "ent"
      ],
      [
        "ce",
        "s"
      ],
      [
        "h",
        "od"
      ],
      [
        "Entity",
        "Type"
      ],
      [
        "Ġ",
        "property"
      ],
      [
        "ven",
        "tion"
      ],
      [
        "LE",
        "MENT"
      ],
      [
        "u",
        "ct"
      ],
      [
        "ter",
        "n"
      ],
      [
        "pp",
        "ing"
      ],
      [
        "figuration",
        "Source"
      ],
      [
        "per",
        "ation"
      ],
      [
        "re",
        "t"
      ],
      [
        "a",
        "in"
      ],
      [
        "W",
        "I"
      ],
      [
        "Ġn",
        "ame"
      ],
      [
        "Q",
        "u"
      ],
      [
        "tr",
        "uct"
      ],
      [
        "Ġw",
        "h"
      ],
      [
        "S",
        "t"
      ],
      [
        "Ġ",
        "as"
      ],
      [
        "In",
        "f"
      ],
      [
        "ĠN",
        "OT"
      ],
      [
        "um",
        "n"
      ],
      [
        "ĠC",
        "on"
      ],
      [
        "tern",
        "al"
      ],
      [
        "omp",
        "le"
      ],
      [
        "ce",
        "ption"
      ],
      [
        "i",
        "re"
      ],
      [
        "ar",
        "gument"
      ],
      [
        "pp",
        "end"
      ],
      [
        "DI",
        "TION"
      ],
      [
        "ĠCON",
        "DITION"
      ],
      [
        "ret",
        "urns"
      ],
      [
        "G",
        "ener"
      ],
      [
        "ar",
        "y"
      ],
      [
        "TC",
        "H"
      ],
      [
        "WI",
        "TCH"
      ],
      [
        "u",
        "t"
      ],
      [
        "i",
        "ty"
      ],
      [
        "d",
        "s"
      ],
      [
        "u",
        "al"
      ],
      [
        "Inf",
        "o"
      ],
      [
        "ode",
        "l"
      ],
      [
        "Ġn",
        "ew"
      ],
      [
        "u",
        "res"
      ],
      [
        "Ma",
        "pping"
      ],
      [
        "om",
        "m"
      ],
      [
        "Ġ",
        "on"
      ],
      [
        "ĠC",
        "A"
      ],
      [
        "Ġs",
        "ame"
      ],
      [
        "Ġv",
        "alue"
      ],
      [
        "P",
        "ro"
      ],
      [
        "ĠA",
        "ppend"
      ],
      [
        "Ġb",
        "ool"
      ],
      [
        "Ġu",
        "se"
      ],
      [
        "omple",
        "x"
      ],
      [
        "ou",
        "ld"
      ],
      [
        "Qu",
        "ery"
      ],
      [
        "e",
        "le"
      ],
      [
        "R",
        "es"
      ],
      [
        "hang",
        "ed"
      ],
      [
        "Ġs",
        "o"
      ],
      [
        "o",
        "t"
      ],
      [
        "le",
        "ction"
      ],
      [
        "s",
        "tring"
      ],
      [
        "D",
        "ata"
      ],
      [
        "ro",
        "m"
      ],
      [
        "h",
        "ould"
      ],
      [
        "Ġ",
        "p"
      ],
      [
        "Ġ",
        "result"
      ],
      [
        "ĠS",
        "U"
      ],
      [
        "ĠI",
        "s"
      ],
      [
        "t",
        "ual"
      ],
      [
        "ati",
        "ng"
      ],
      [
        "ir",
        "tual"
      ],
      [
        "c",
        "l"
      ],
      [
        "is",
        "t"
      ],
      [
        "omm",
        "and"
      ],
      [
        "NG",
        "EXPRESSION"
      ],
      [
        "Ġ",
        "it"
      ],
      [
        "Ġv",
        "irtual"
      ],
      [
        "e",
        "ction"
      ],
      [
        "ĠI",
        "n"
      ],
      [
        "at",
        "or"
      ],
      [
        "Ġ",
        "not"
      ],
      [
        "S",
        "tring"
      ],
      [
        "c",
        "h"
      ],
      [
        "Ġf",
        "or"
      ],
      [
        "E",
        "QUAL"
      ],
      [
        "a",
        "u"
      ],
      [
        "AN",
        "DEXPRESSION"
      ],
      [
        "al",
        "l"
      ],
      [
        "Ġwh",
        "en"
      ],
      [
        "ĠNOT",
        "EQUAL"
      ],
      [
        "ĠNOTEQUAL",
        "SEXPRESSION"
      ],
      [
        "Con",
        "vention"
      ],
      [
        "in",
        "d"
      ],
      [
        "st",
        "an"
      ],
      [
        "D",
        "STRING"
      ],
      [
        "ATE",
        "DSTRING"
      ],
      [
        "ĠINTERPOL",
        "ATEDSTRING"
      ],
      [
        "Ġ",
        "no"
      ],
      [
        "ĠLOGICAL",
        "ANDEXPRESSION"
      ],
      [
        "N",
        "ull"
      ],
      [
        "um",
        "ber"
      ],
      [
        "ĠA",
        "dd"
      ],
      [
        "ct",
        "or"
      ],
      [
        "ou",
        "nt"
      ],
      [
        "Ex",
        "ception"
      ],
      [
        "Ġt",
        "ype"
      ],
      [
        "o",
        "g"
      ],
      [
        "ĠE",
        "LEMENT"
      ],
      [
        "mov",
        "ed"
      ],
      [
        "il",
        "ity"
      ],
      [
        "tr",
        "y"
      ],
      [
        "ĠELEMENT",
        "ACCESSEXPRESSION"
      ],
      [
        "pp",
        "or"
      ],
      [
        "O",
        "n"
      ],
      [
        "Con",
        "text"
      ],
      [
        "ST",
        "EXPRESSION"
      ],
      [
        "ĠCA",
        "STEXPRESSION"
      ],
      [
        "ig",
        "n"
      ],
      [
        "Ġ",
        "Y"
      ],
      [
        "a",
        "il"
      ],
      [
        "ore",
        "ign"
      ],
      [
        "C",
        "OL"
      ],
      [
        "Ġc",
        "omp"
      ],
      [
        "COL",
        "ON"
      ],
      [
        "Ġu",
        "pd"
      ],
      [
        "ĠT",
        "H"
      ],
      [
        "Ġa",
        "pp"
      ],
      [
        "Ġin",
        "f"
      ],
      [
        "Ġ",
        "M"
      ],
      [
        "ati",
        "b"
      ],
      [
        "Ġc",
        "ode"
      ],
      [
        "ĠNAME",
        "COLON"
      ],
      [
        "Ġs",
        "hould"
      ],
      [
        "Ġ",
        "4"
      ],
      [
        "H",
        "as"
      ],
      [
        "lic",
        "ation"
      ],
      [
        "ti",
        "es"
      ],
      [
        "entity",
        "Type"
      ],
      [
        "ption",
        "s"
      ],
      [
        "ces",
        "s"
      ],
      [
        "Ġ",
        "ex"
      ],
      [
        "Ġ",
        "y"
      ],
      [
        "Ġan",
        "y"
      ],
      [
        "he",
        "ck"
      ],
      [
        "Ġc",
        "au"
      ],
      [
        "ire",
        "ct"
      ],
      [
        "no",
        "w"
      ],
      [
        "truct",
        "ure"
      ],
      [
        "irect",
        "ly"
      ],
      [
        "oreign",
        "Key"
      ],
      [
        "m",
        "a"
      ],
      [
        "ĠI",
        "t"
      ],
      [
        "Ġm",
        "ay"
      ],
      [
        "Ġre",
        "moved"
      ],
      [
        "Ġc",
        "hanged"
      ],
      [
        "an",
        "s"
      ],
      [
        "r",
        "as"
      ],
      [
        "Ġd",
        "o"
      ],
      [
        "ras",
        "tructure"
      ],
      [
        "and",
        "ar"
      ],
      [
        "Ġwith",
        "out"
      ],
      [
        "Ġon",
        "ly"
      ],
      [
        "p",
        "ri"
      ],
      [
        "Ġ",
        "TYPE"
      ],
      [
        "Ġin",
        "ternal"
      ],
      [
        "atib",
        "ility"
      ],
      [
        "er",
        "vi"
      ],
      [
        "Ġ",
        "ext"
      ],
      [
        "par",
        "ameter"
      ],
      [
        "Ġsu",
        "ppor"
      ],
      [
        "Ġf",
        "ail"
      ],
      [
        "Ġd",
        "irectly"
      ],
      [
        "Met",
        "hod"
      ],
      [
        "Ġapp",
        "lication"
      ],
      [
        "Ġst",
        "andar"
      ],
      [
        "ĠI",
        "S"
      ],
      [
        "Ġfail",
        "ures"
      ],
      [
        "Ġcomp",
        "atibility"
      ],
      [
        "ĠY",
        "ou"
      ],
      [
        "Th",
        "is"
      ],
      [
        "Ġk",
        "now"
      ],
      [
        "Ġ",
        "public"
      ],
      [
        "ad",
        "ata"
      ],
      [
        "Ġupd",
        "ating"
      ],
      [
        "Ġsuppor",
        "ts"
      ],
      [
        "Ġno",
        "ti"
      ],
      [
        "Ġy",
        "our"
      ],
      [
        "Ġinf",
        "rastructure"
      ],
      [
        "ĠAPI",
        "s"
      ],
      [
        "re",
        "me"
      ],
      [
        "Ġsu",
        "bject"
      ],
      [
        "Ġcau",
        "tion"
      ],
      [
        "Ġdo",
        "ing"
      ],
      [
        "Ġext",
        "reme"
      ],
      [
        "Ġstandar",
        "ds"
      ],
      [
        "Ġknow",
        "ing"
      ],
      [
        "Ġnoti",
        "ce"
      ],
      [
        "A",
        "NT"
      ],
      [
        "ĠCON",
        "ST"
      ],
      [
        "ANT",
        "PATTERN"
      ],
      [
        "ĠCONST",
        "ANTPATTERN"
      ],
      [
        "c",
        "he"
      ],
      [
        "FIELD",
        "S"
      ],
      [
        "N",
        "U"
      ],
      [
        "r",
        "in"
      ],
      [
        "roper",
        "ties"
      ],
      [
        "um",
        "er"
      ],
      [
        "f",
        "a"
      ],
      [
        "A",
        "s"
      ],
      [
        "Met",
        "adata"
      ],
      [
        "v",
        "ate"
      ],
      [
        "In",
        "dex"
      ],
      [
        "pri",
        "vate"
      ],
      [
        "in",
        "al"
      ],
      [
        "s",
        "h"
      ],
      [
        "ĠS",
        "WITCH"
      ],
      [
        "N",
        "I"
      ],
      [
        "N",
        "avigation"
      ],
      [
        "qu",
        "al"
      ],
      [
        "A",
        "r"
      ],
      [
        "T",
        "r"
      ],
      [
        "I",
        "d"
      ],
      [
        "S",
        "ql"
      ],
      [
        "O",
        "r"
      ],
      [
        "i",
        "z"
      ],
      [
        "re",
        "nt"
      ],
      [
        "ĠCONDITION",
        "ALEXPRESSION"
      ],
      [
        "ĠE",
        "x"
      ],
      [
        "Col",
        "lection"
      ],
      [
        "p",
        "end"
      ],
      [
        "k",
        "en"
      ],
      [
        "em",
        "ber"
      ],
      [
        "ver",
        "ri"
      ],
      [
        "PATTERN",
        "EXPRESSION"
      ],
      [
        "ĠIS",
        "PATTERNEXPRESSION"
      ],
      [
        "Ġ",
        "g"
      ],
      [
        "Par",
        "ameter"
      ],
      [
        "lation",
        "al"
      ],
      [
        "Re",
        "ad"
      ],
      [
        "verri",
        "de"
      ],
      [
        "ty",
        "pe"
      ],
      [
        "A",
        "EXPRESSION"
      ],
      [
        "A",
        "MB"
      ],
      [
        "D",
        "AEXPRESSION"
      ],
      [
        "L",
        "AMB"
      ],
      [
        "LAMB",
        "DAEXPRESSION"
      ],
      [
        "fa",
        "ult"
      ],
      [
        "Con",
        "figurationSource"
      ],
      [
        "l",
        "i"
      ],
      [
        "si",
        "t"
      ],
      [
        "On",
        "ly"
      ],
      [
        "ĠD",
        "e"
      ],
      [
        "ĠT",
        "R"
      ],
      [
        "p",
        "ro"
      ],
      [
        "un",
        "ction"
      ],
      [
        "ar",
        "g"
      ],
      [
        "Ġin",
        "t"
      ],
      [
        "ag",
        "e"
      ],
      [
        "F",
        "EXPRESSION"
      ],
      [
        "i",
        "tion"
      ],
      [
        "O",
        "peration"
      ],
      [
        "To",
        "ken"
      ],
      [
        "S",
        "et"
      ],
      [
        "en",
        "ce"
      ],
      [
        "es",
        "s"
      ],
      [
        "N",
        "OT"
      ],
      [
        "NOT",
        "EXPRESSION"
      ],
      [
        "O",
        "FEXPRESSION"
      ],
      [
        "ĠTYPE",
        "OFEXPRESSION"
      ],
      [
        "re",
        "ate"
      ],
      [
        "ĠLOGICAL",
        "NOTEXPRESSION"
      ],
      [
        "f",
        "er"
      ],
      [
        "o",
        "id"
      ],
      [
        "Ġv",
        "oid"
      ],
      [
        "C",
        "TION"
      ],
      [
        "Ġ",
        "U"
      ],
      [
        "En",
        "umer"
      ],
      [
        "ur",
        "rent"
      ],
      [
        "m",
        "p"
      ],
      [
        "alu",
        "es"
      ],
      [
        "ti",
        "c"
      ],
      [
        "a",
        "p"
      ],
      [
        "ervi",
        "ce"
      ],
      [
        "re",
        "d"
      ],
      [
        "if",
        "i"
      ],
      [
        "n",
        "c"
      ],
      [
        "NU",
        "LL"
      ],
      [
        "P",
        "PRES"
      ],
      [
        "S",
        "NULL"
      ],
      [
        "W",
        "AR"
      ],
      [
        "ABLE",
        "WAR"
      ],
      [
        "ĠSU",
        "PPRES"
      ],
      [
        "NI",
        "NGEXPRESSION"
      ],
      [
        "SNULL",
        "ABLEWAR"
      ],
      [
        "ĠSUPPRES",
        "SNULLABLEWAR"
      ],
      [
        "ĠSUPPRESSNULLABLEWAR",
        "NINGEXPRESSION"
      ],
      [
        "UE",
        "LITERALEXPRESSION"
      ],
      [
        "ĠTR",
        "UELITERALEXPRESSION"
      ],
      [
        "0",
        "0"
      ],
      [
        "F",
        "a"
      ],
      [
        "at",
        "ed"
      ],
      [
        "Ġ",
        "."
      ],
      [
        "ol",
        "umn"
      ],
      [
        "param",
        "Name"
      ],
      [
        "Ġ",
        "Has"
      ],
      [
        "Ġ",
        "e"
      ],
      [
        "EX",
        "T"
      ],
      [
        "T",
        "EXT"
      ],
      [
        "ĠINTERPOLATEDSTRING",
        "TEXT"
      ],
      [
        "ctor",
        "y"
      ],
      [
        "in",
        "e"
      ],
      [
        "ti",
        "ng"
      ],
      [
        "AL",
        "SE"
      ],
      [
        "ĠF",
        "ALSE"
      ],
      [
        "ĠFALSE",
        "LITERALEXPRESSION"
      ],
      [
        "f",
        "i"
      ],
      [
        "g",
        "er"
      ],
      [
        "fig",
        "ure"
      ],
      [
        "i",
        "sit"
      ],
      [
        "ĠN",
        "ame"
      ],
      [
        "ifi",
        "ed"
      ],
      [
        "ĠSIMPLE",
        "LAMBDAEXPRESSION"
      ],
      [
        "c",
        "ip"
      ],
      [
        "rin",
        "cip"
      ],
      [
        "rincip",
        "al"
      ],
      [
        "B",
        "ase"
      ],
      [
        "i",
        "es"
      ],
      [
        "Col",
        "umn"
      ],
      [
        "Ġb",
        "uilder"
      ],
      [
        "th",
        "er"
      ],
      [
        "L",
        "ist"
      ],
      [
        "v",
        "e"
      ],
      [
        "Ġo",
        "verride"
      ],
      [
        "ro",
        "w"
      ],
      [
        "Read",
        "Only"
      ],
      [
        "v",
        "alue"
      ],
      [
        "Ġ",
        "if"
      ],
      [
        "O",
        "RE"
      ],
      [
        "p",
        "l"
      ],
      [
        "Ġk",
        "ey"
      ],
      [
        "ic",
        "tion"
      ],
      [
        "iction",
        "ary"
      ],
      [
        "s",
        "on"
      ],
      [
        "C",
        "heck"
      ],
      [
        "Ġ",
        "de"
      ],
      [
        "Res",
        "ult"
      ],
      [
        "f",
        "in"
      ],
      [
        "Ġo",
        "bject"
      ],
      [
        "en",
        "g"
      ],
      [
        "om",
        "par"
      ],
      [
        "eng",
        "th"
      ],
      [
        "s",
        "ed"
      ],
      [
        "pe",
        "c"
      ],
      [
        "o",
        "w"
      ],
      [
        "al",
        "id"
      ],
      [
        "Ġ",
        "Re"
      ],
      [
        "v",
        "ent"
      ],
      [
        "C",
        "ore"
      ],
      [
        "OR",
        "EXPRESSION"
      ],
      [
        "Ġ",
        "l"
      ],
      [
        "in",
        "t"
      ],
      [
        "RE",
        "A"
      ],
      [
        "t",
        "ain"
      ],
      [
        "ĠLOGICAL",
        "OREXPRESSION"
      ],
      [
        "s",
        "ql"
      ],
      [
        "o",
        "f"
      ],
      [
        "stan",
        "ce"
      ],
      [
        "Ġ",
        "entity"
      ],
      [
        "I",
        "T"
      ],
      [
        "ĠT",
        "ype"
      ],
      [
        "ri",
        "m"
      ],
      [
        "Ġ",
        "argument"
      ],
      [
        "qu",
        "ery"
      ],
      [
        "ĠT",
        "o"
      ],
      [
        "ĠT",
        "r"
      ],
      [
        "y",
        "nc"
      ],
      [
        "ce",
        "l"
      ],
      [
        "Name",
        "s"
      ],
      [
        "ĠINTERPOL",
        "ATION"
      ],
      [
        "i",
        "me"
      ],
      [
        "I",
        "N"
      ],
      [
        "En",
        "try"
      ],
      [
        "De",
        "pend"
      ],
      [
        "Fa",
        "ctory"
      ],
      [
        "arg",
        "et"
      ],
      [
        "O",
        "bject"
      ],
      [
        "n",
        "er"
      ],
      [
        "en",
        "ti"
      ],
      [
        "cel",
        "lation"
      ],
      [
        "j",
        "ection"
      ],
      [
        "i",
        "ag"
      ],
      [
        "n",
        "ection"
      ],
      [
        "no",
        "s"
      ],
      [
        "iag",
        "nos"
      ],
      [
        "or",
        "m"
      ],
      [
        "iagnos",
        "tic"
      ],
      [
        "b",
        "uilder"
      ],
      [
        "AN",
        "EXPRESSION"
      ],
      [
        "O",
        "ptions"
      ],
      [
        "Ġs",
        "pec"
      ],
      [
        "ĠV",
        "alue"
      ],
      [
        "St",
        "ate"
      ],
      [
        "Enumer",
        "able"
      ],
      [
        "sh",
        "ip"
      ],
      [
        "a",
        "der"
      ],
      [
        "(",
        ")"
      ],
      [
        "Ġ",
        "W"
      ],
      [
        "n",
        "ame"
      ],
      [
        "t",
        "ed"
      ],
      [
        "c",
        "cess"
      ],
      [
        "cellation",
        "Token"
      ],
      [
        "M",
        "ember"
      ],
      [
        "T",
        "able"
      ],
      [
        "Ar",
        "gument"
      ],
      [
        "Ġspec",
        "ified"
      ],
      [
        "er",
        "t"
      ],
      [
        "che",
        "ma"
      ],
      [
        "Ġ",
        "G"
      ],
      [
        "ABLE",
        "TYPE"
      ],
      [
        "ĠNULL",
        "ABLETYPE"
      ],
      [
        "et",
        "hod"
      ],
      [
        "ect",
        "ed"
      ],
      [
        "A",
        "dd"
      ],
      [
        "fin",
        "ition"
      ],
      [
        "Ġbe",
        "ing"
      ],
      [
        "ess",
        "age"
      ],
      [
        "vi",
        "der"
      ],
      [
        "ompar",
        "er"
      ],
      [
        "a",
        "ction"
      ],
      [
        "O",
        "f"
      ],
      [
        "at",
        "ch"
      ],
      [
        "Ġ",
        "parameter"
      ],
      [
        "T",
        "ime"
      ],
      [
        "P",
        "roperties"
      ],
      [
        "Ġm",
        "a"
      ],
      [
        "L",
        "og"
      ],
      [
        "Ġ",
        "5"
      ],
      [
        "ti",
        "me"
      ],
      [
        "ĠSWITCH",
        "EXPRESSION"
      ],
      [
        "Par",
        "am"
      ],
      [
        "F",
        "oreignKey"
      ],
      [
        "cl",
        "ar"
      ],
      [
        "C",
        "ommand"
      ],
      [
        "Data",
        "Annotation"
      ],
      [
        "U",
        "n"
      ],
      [
        "Ġf",
        "rom"
      ],
      [
        "Re",
        "lational"
      ],
      [
        "ĠSU",
        "B"
      ],
      [
        "M",
        "odel"
      ],
      [
        "pe",
        "d"
      ],
      [
        "un",
        "c"
      ],
      [
        "ans",
        "action"
      ],
      [
        "e",
        "c"
      ],
      [
        "Ġ",
        "DECLARATION"
      ],
      [
        "ĠDECLARATION",
        "PATTERN"
      ],
      [
        "ĠF",
        "ind"
      ],
      [
        "St",
        "ore"
      ],
      [
        "Ġn",
        "umber"
      ],
      [
        "ĠA",
        "D"
      ],
      [
        "pd",
        "ate"
      ],
      [
        "B",
        "IN"
      ],
      [
        "AL",
        "ACCESSEXPRESSION"
      ],
      [
        "DI",
        "NGEXPRESSION"
      ],
      [
        "ĠCONDITION",
        "ALACCESSEXPRESSION"
      ],
      [
        "BIN",
        "DINGEXPRESSION"
      ],
      [
        "at",
        "ab"
      ],
      [
        "ĠC",
        "ount"
      ],
      [
        "R",
        "A"
      ],
      [
        "Ġ",
        "MEMBER"
      ],
      [
        "ĠMEMBER",
        "BINDINGEXPRESSION"
      ],
      [
        "C",
        "ode"
      ],
      [
        "h",
        "a"
      ],
      [
        "al",
        "iz"
      ],
      [
        "AC",
        "H"
      ],
      [
        "ĠF",
        "ORE"
      ],
      [
        "ĠFORE",
        "ACH"
      ],
      [
        "As",
        "ync"
      ],
      [
        "atab",
        "ase"
      ],
      [
        "ĠT",
        "Param"
      ],
      [
        "clar",
        "ing"
      ],
      [
        "Ma",
        "p"
      ],
      [
        "F",
        "i"
      ],
      [
        "omplex",
        "Property"
      ],
      [
        "I",
        "SEXPRESSION"
      ],
      [
        "ĠTH",
        "ISEXPRESSION"
      ],
      [
        "I",
        "Convention"
      ],
      [
        "C",
        "all"
      ],
      [
        "stan",
        "t"
      ],
      [
        "le",
        "ment"
      ],
      [
        "Type",
        "Mapping"
      ],
      [
        "p",
        "on"
      ],
      [
        "ĠI",
        "f"
      ],
      [
        "Ġ",
        "DECLAR"
      ],
      [
        "ĠDECLAR",
        "ATIONEXPRESSION"
      ],
      [
        "Ġ",
        "paramName"
      ],
      [
        "at",
        "es"
      ],
      [
        "RA",
        "Y"
      ],
      [
        "C",
        "l"
      ],
      [
        "iagnostic",
        "s"
      ],
      [
        "v",
        "alid"
      ],
      [
        "d",
        "inal"
      ],
      [
        "r",
        "ay"
      ],
      [
        "J",
        "son"
      ],
      [
        "ĠA",
        "n"
      ],
      [
        "ĠFOREACH",
        "STATEMENT"
      ],
      [
        "ĠEx",
        "pression"
      ],
      [
        "ĠAR",
        "RAY"
      ],
      [
        "er",
        "i"
      ],
      [
        "ĠS",
        "t"
      ],
      [
        "Ġth",
        "is"
      ],
      [
        "as",
        "k"
      ],
      [
        "lation",
        "ship"
      ],
      [
        "n",
        "avigation"
      ],
      [
        "it",
        "e"
      ],
      [
        "fi",
        "er"
      ],
      [
        "AB",
        "EL"
      ],
      [
        "mov",
        "e"
      ],
      [
        "AR",
        "M"
      ],
      [
        "ĠSWITCHEXPRESSION",
        "ARM"
      ],
      [
        "n",
        "ew"
      ],
      [
        "L",
        "ABEL"
      ],
      [
        "WITCH",
        "LABEL"
      ],
      [
        "ĠN",
        "ot"
      ],
      [
        "ut",
        "e"
      ],
      [
        "enti",
        "fier"
      ],
      [
        ">",
        ":"
      ],
      [
        "ce",
        "d"
      ],
      [
        "I",
        "s"
      ],
      [
        "L",
        "SE"
      ],
      [
        "ĠE",
        "LSE"
      ],
      [
        "ĠELSE",
        "CLAUSE"
      ],
      [
        "ig",
        "inal"
      ],
      [
        "ĠINTERPOLATEDSTRING",
        "EXPRESSION"
      ],
      [
        "L",
        "ine"
      ],
      [
        "Ġcon",
        "figure"
      ],
      [
        "ĠAD",
        "DEXPRESSION"
      ],
      [
        "n",
        "ed"
      ],
      [
        "D",
        "b"
      ],
      [
        "k",
        "ey"
      ],
      [
        "p",
        "o"
      ],
      [
        "D",
        "is"
      ],
      [
        "Con",
        "ver"
      ],
      [
        "en",
        "c"
      ],
      [
        "ele",
        "ct"
      ],
      [
        "C",
        "ount"
      ],
      [
        "ang",
        "e"
      ],
      [
        "Ġin",
        "stance"
      ],
      [
        "en",
        "try"
      ],
      [
        "b",
        "u"
      ],
      [
        "t",
        "able"
      ],
      [
        "Th",
        "row"
      ],
      [
        "e",
        "ld"
      ],
      [
        "vent",
        "Data"
      ],
      [
        "t",
        "ected"
      ],
      [
        "ĠC",
        "reate"
      ],
      [
        "pro",
        "tected"
      ],
      [
        "a",
        "ck"
      ],
      [
        "r",
        "Type"
      ],
      [
        "s",
        "ing"
      ],
      [
        "in",
        "dex"
      ],
      [
        "ele",
        "ment"
      ],
      [
        "De",
        "fault"
      ],
      [
        "t",
        "e"
      ],
      [
        "Ġc",
        "h"
      ],
      [
        "ES",
        "ST"
      ],
      [
        "ĠL",
        "ESST"
      ],
      [
        "ĠLESST",
        "H"
      ],
      [
        "A",
        "ccess"
      ],
      [
        "TER",
        "TH"
      ],
      [
        "REA",
        "TERTH"
      ],
      [
        "ĠG",
        "REATERTH"
      ],
      [
        "l",
        "o"
      ],
      [
        "s",
        "tr"
      ],
      [
        "ĠC",
        "O"
      ],
      [
        "pon",
        "se"
      ],
      [
        "ĠIn",
        "valid"
      ],
      [
        "Ġan",
        "notation"
      ],
      [
        "ĠTr",
        "y"
      ],
      [
        "Ġcon",
        "figuration"
      ],
      [
        "qual",
        "s"
      ],
      [
        "ĠD",
        "I"
      ],
      [
        "er",
        "ver"
      ],
      [
        "C",
        "E"
      ],
      [
        "ES",
        "CE"
      ],
      [
        "AL",
        "ESCE"
      ],
      [
        "ĠCO",
        "ALESCE"
      ],
      [
        "ĠDe",
        "claring"
      ],
      [
        "n",
        "d"
      ],
      [
        "on",
        "g"
      ],
      [
        "Gener",
        "ic"
      ],
      [
        "ĠS",
        "ql"
      ],
      [
        "omplex",
        "Type"
      ],
      [
        "ced",
        "ure"
      ],
      [
        "s",
        "ource"
      ],
      [
        "Ġma",
        "x"
      ],
      [
        "R",
        "et"
      ],
      [
        "i",
        "ven"
      ],
      [
        "p",
        "a"
      ],
      [
        "ol",
        "lection"
      ],
      [
        "O",
        "ut"
      ],
      [
        "F",
        "unction"
      ],
      [
        "Ġex",
        "pression"
      ],
      [
        "ĠS",
        "et"
      ],
      [
        "Ġg",
        "iven"
      ],
      [
        "Ġm",
        "odel"
      ],
      [
        "Operation",
        "Exception"
      ],
      [
        "ig",
        "r"
      ],
      [
        "ĠInvalid",
        "OperationException"
      ],
      [
        "C",
        "omparer"
      ],
      [
        "E",
        "LEMENT"
      ],
      [
        "ĠD",
        "is"
      ],
      [
        "Ġc",
        "all"
      ],
      [
        "ROW",
        "STATEMENT"
      ],
      [
        "ĠTH",
        "ROWSTATEMENT"
      ],
      [
        "an",
        "cellationToken"
      ],
      [
        "ĠSUB",
        "PATTERN"
      ],
      [
        ">",
        ">"
      ],
      [
        "Null",
        "able"
      ],
      [
        "W",
        "ith"
      ],
      [
        "qu",
        "ence"
      ],
      [
        "i",
        "ti"
      ],
      [
        "fer",
        "ence"
      ],
      [
        "c",
        "urrent"
      ],
      [
        "k",
        "ip"
      ],
      [
        "Ġth",
        "an"
      ],
      [
        "m",
        "ethod"
      ],
      [
        "pl",
        "ay"
      ],
      [
        "a",
        "che"
      ],
      [
        "Ġt",
        "r"
      ],
      [
        "able",
        "d"
      ],
      [
        "String",
        "s"
      ],
      [
        "o",
        "in"
      ],
      [
        "m",
        "in"
      ],
      [
        "un",
        "time"
      ],
      [
        "V",
        "isit"
      ],
      [
        "S",
        "ervice"
      ],
      [
        "en",
        "sion"
      ],
      [
        "Ġo",
        "peration"
      ],
      [
        "V",
        "alues"
      ],
      [
        "f",
        "oreignKey"
      ],
      [
        "play",
        "Name"
      ],
      [
        "il",
        "l"
      ],
      [
        "[",
        "]"
      ],
      [
        "f",
        "rom"
      ],
      [
        "ate",
        "g"
      ],
      [
        "Ġ",
        "h"
      ],
      [
        "ex",
        "pression"
      ],
      [
        "c",
        "ommand"
      ],
      [
        "igr",
        "ation"
      ],
      [
        "p",
        "le"
      ],
      [
        "Annotation",
        "Names"
      ],
      [
        "ou",
        "nd"
      ],
      [
        "V",
        "E"
      ],
      [
        "mp",
        "ty"
      ],
      [
        "ĠI",
        "Enumerable"
      ],
      [
        "it",
        "er"
      ],
      [
        "Ġname",
        "of"
      ],
      [
        "es",
        "t"
      ],
      [
        "R",
        "ange"
      ],
      [
        "Re",
        "ader"
      ],
      [
        "Ġp",
        "ro"
      ],
      [
        "LE",
        "CTION"
      ],
      [
        "ĠC",
        "OL"
      ],
      [
        "ĠCOL",
        "LECTION"
      ],
      [
        "ans",
        "l"
      ],
      [
        "n",
        "umber"
      ],
      [
        "tr",
        "ies"
      ],
      [
        "SE",
        "CTION"
      ],
      [
        "ĠSWITCH",
        "SECTION"
      ],
      [
        "En",
        "abled"
      ],
      [
        "i",
        "m"
      ],
      [
        "Pro",
        "vider"
      ],
      [
        "d",
        "Pro"
      ],
      [
        "Depend",
        "ent"
      ],
      [
        "ĠLESSTH",
        "ANEXPRESSION"
      ],
      [
        "SI",
        "VE"
      ],
      [
        "e",
        "quence"
      ],
      [
        "at",
        "h"
      ],
      [
        "F",
        "ramework"
      ],
      [
        "ateg",
        "y"
      ],
      [
        "C",
        "UR"
      ],
      [
        "ĠRE",
        "CUR"
      ],
      [
        "SIVE",
        "PATTERN"
      ],
      [
        "ĠRECUR",
        "SIVEPATTERN"
      ],
      [
        ">",
        "?"
      ],
      [
        "ĠI",
        "ReadOnly"
      ],
      [
        "Ġu",
        "sed"
      ],
      [
        "am",
        "b"
      ],
      [
        "Ġt",
        "able"
      ],
      [
        "Ġ",
        "entityType"
      ],
      [
        "ro",
        "s"
      ],
      [
        "tain",
        "s"
      ],
      [
        "dPro",
        "cedure"
      ],
      [
        "ĠP",
        "roperty"
      ],
      [
        "le",
        "d"
      ],
      [
        "ul",
        "ti"
      ],
      [
        "str",
        "ain"
      ],
      [
        "ol",
        "d"
      ],
      [
        "ore",
        "Object"
      ],
      [
        "S",
        "ha"
      ],
      [
        "k",
        "e"
      ],
      [
        "ar",
        "t"
      ],
      [
        "d",
        "a"
      ],
      [
        "I",
        "ReadOnly"
      ],
      [
        "ig",
        "h"
      ],
      [
        "Ġ",
        "Metadata"
      ],
      [
        "Ġin",
        "dex"
      ],
      [
        "H",
        "e"
      ],
      [
        "cl",
        "u"
      ],
      [
        "F",
        "rom"
      ],
      [
        "Entity",
        "Framework"
      ],
      [
        "me",
        "m"
      ],
      [
        "Gener",
        "ate"
      ],
      [
        "amb",
        "da"
      ],
      [
        "m",
        "b"
      ],
      [
        "TYP",
        "ATTERN"
      ],
      [
        "ĠPROPER",
        "TYPATTERN"
      ],
      [
        "ĠPROPERTYPATTERN",
        "CLAUSE"
      ],
      [
        "ĠCOLLECTION",
        "EXPRESSION"
      ],
      [
        "r",
        "or"
      ],
      [
        "tr",
        "ategy"
      ],
      [
        "Con",
        "fig"
      ],
      [
        "A",
        "ction"
      ],
      [
        "he",
        "ther"
      ],
      [
        "con",
        "figurationSource"
      ],
      [
        "ĠAppend",
        "Line"
      ],
      [
        "o",
        "peration"
      ],
      [
        "Ġ",
        "EXPRESSION"
      ],
      [
        "Ġm",
        "in"
      ],
      [
        "Ġ",
        "_"
      ],
      [
        "kip",
        "Navigation"
      ],
      [
        "ĠA",
        "r"
      ],
      [
        "D",
        "ictionary"
      ],
      [
        "C",
        "h"
      ],
      [
        "bu",
        "g"
      ],
      [
        "H",
        "E"
      ],
      [
        "i",
        "able"
      ],
      [
        "Id",
        "entifier"
      ],
      [
        "T",
        "E"
      ],
      [
        "ĠI",
        "Convention"
      ],
      [
        "C",
        "RE"
      ],
      [
        "ur",
        "al"
      ],
      [
        "c",
        "olumn"
      ],
      [
        "Ġc",
        "heck"
      ],
      [
        "ĠL",
        "ength"
      ],
      [
        "CRE",
        "MENTEXPRESSION"
      ],
      [
        "o",
        "c"
      ],
      [
        "C",
        "reate"
      ],
      [
        "Ġcall",
        "s"
      ],
      [
        "S",
        "C"
      ],
      [
        "Ġw",
        "hether"
      ],
      [
        "m",
        "odel"
      ],
      [
        "ele",
        "ctor"
      ],
      [
        "t",
        "ent"
      ],
      [
        "or",
        "t"
      ],
      [
        "AR",
        "D"
      ],
      [
        "ĠDI",
        "SC"
      ],
      [
        "ĠDISC",
        "ARD"
      ],
      [
        "mem",
        "ber"
      ],
      [
        "t",
        "arget"
      ],
      [
        "Ġd",
        "atabase"
      ],
      [
        "Pro",
        "jection"
      ],
      [
        "S",
        "erver"
      ],
      [
        "Ġ",
        "6"
      ],
      [
        "uil",
        "d"
      ],
      [
        "ĠL",
        "ist"
      ],
      [
        "Query",
        "able"
      ],
      [
        "sql",
        "Expression"
      ],
      [
        "Config",
        "ures"
      ],
      [
        "Re",
        "qu"
      ],
      [
        "ain",
        "ed"
      ],
      [
        "ĠAr",
        "gument"
      ],
      [
        "v",
        "ed"
      ],
      [
        "or",
        "y"
      ],
      [
        "Ar",
        "ray"
      ],
      [
        "T",
        "Key"
      ],
      [
        "Con",
        "stant"
      ],
      [
        "Of",
        "Range"
      ],
      [
        "w",
        "ned"
      ],
      [
        "si",
        "g"
      ],
      [
        "R",
        "o"
      ],
      [
        "ind",
        "ing"
      ],
      [
        "Depend",
        "enc"
      ],
      [
        "Ġn",
        "avigation"
      ],
      [
        "Query",
        "Expression"
      ],
      [
        "p",
        "t"
      ],
      [
        "at",
        "er"
      ],
      [
        "Out",
        "OfRange"
      ],
      [
        "S",
        "y"
      ],
      [
        "p",
        "an"
      ],
      [
        "ĠV",
        "isit"
      ],
      [
        "ĠCOALESCE",
        "EXPRESSION"
      ],
      [
        "ĠEXPRESSION",
        "ELEMENT"
      ],
      [
        "re",
        "ater"
      ],
      [
        "M",
        "an"
      ],
      [
        "Ġ",
        "i"
      ],
      [
        "Gener",
        "ator"
      ],
      [
        "E",
        "mpty"
      ],
      [
        "Ġ",
        "query"
      ],
      [
        "C",
        "omp"
      ],
      [
        "A",
        "SE"
      ],
      [
        "ĠB",
        "ASE"
      ],
      [
        "ĠBASE",
        "EXPRESSION"
      ],
      [
        "Ġ",
        "element"
      ],
      [
        "ĠP",
        "ro"
      ],
      [
        "Ġc",
        "olumn"
      ],
      [
        "S",
        "u"
      ],
      [
        "truct",
        "ural"
      ],
      [
        "o",
        "p"
      ],
      [
        "ir",
        "st"
      ],
      [
        "ulti",
        "ple"
      ],
      [
        "Ġch",
        "ained"
      ],
      [
        "Ġe",
        "qual"
      ],
      [
        "B",
        "y"
      ],
      [
        "p",
        "lic"
      ],
      [
        "ic",
        "ros"
      ],
      [
        "of",
        "t"
      ],
      [
        "icros",
        "oft"
      ],
      [
        "Type",
        "s"
      ],
      [
        "in",
        "ator"
      ],
      [
        "em",
        "p"
      ],
      [
        "ĠGREATERTH",
        "ANEXPRESSION"
      ],
      [
        "ĠI",
        "M"
      ],
      [
        "Fi",
        "eld"
      ],
      [
        "L",
        "ength"
      ],
      [
        "U",
        "pdate"
      ],
      [
        "EntityFramework",
        "Core"
      ],
      [
        "Ġw",
        "ill"
      ],
      [
        "ĠO",
        "r"
      ],
      [
        "Method",
        "Info"
      ],
      [
        "f",
        "t"
      ],
      [
        "Ġa",
        "dd"
      ],
      [
        "P",
        "L"
      ],
      [
        "B",
        "e"
      ],
      [
        "P",
        "rincipal"
      ],
      [
        "S",
        "elector"
      ],
      [
        "ert",
        "ex"
      ],
      [
        "ary",
        "Expression"
      ],
      [
        "con",
        "text"
      ],
      [
        "an",
        "notation"
      ],
      [
        "Tr",
        "ansaction"
      ],
      [
        "ma",
        "x"
      ],
      [
        "sig",
        "n"
      ],
      [
        "ĠM",
        "icrosoft"
      ],
      [
        "ur",
        "n"
      ],
      [
        "li",
        "ent"
      ],
      [
        "S",
        "trategy"
      ],
      [
        "Store",
        "dProcedure"
      ],
      [
        "Ġfrom",
        "DataAnnotation"
      ],
      [
        "ĠNOT",
        "PATTERN"
      ],
      [
        "t",
        "ension"
      ],
      [
        "r",
        "ou"
      ],
      [
        "strain",
        "t"
      ],
      [
        "V",
        "ertex"
      ],
      [
        "s",
        "et"
      ],
      [
        "ar",
        "iable"
      ],
      [
        "en",
        "tries"
      ],
      [
        "igh",
        "t"
      ],
      [
        "ĠS",
        "elect"
      ],
      [
        "R",
        "untime"
      ],
      [
        "ec",
        "ute"
      ],
      [
        "og",
        "ger"
      ],
      [
        "v",
        "alu"
      ],
      [
        "ĠP",
        "O"
      ],
      [
        "ES",
        "T"
      ],
      [
        "Ġm",
        "ultiple"
      ],
      [
        "EST",
        "ATEMENT"
      ],
      [
        "Res",
        "ponse"
      ],
      [
        "o",
        "ptions"
      ],
      [
        "Dependenc",
        "ies"
      ],
      [
        "s",
        "ert"
      ],
      [
        "OutOfRange",
        "Exception"
      ],
      [
        "de",
        "finition"
      ],
      [
        "Re",
        "ference"
      ],
      [
        "K",
        "STATEMENT"
      ],
      [
        "Ġv",
        "alues"
      ],
      [
        "le",
        "s"
      ],
      [
        "ervi",
        "ces"
      ],
      [
        "iz",
        "e"
      ],
      [
        "M",
        "essage"
      ],
      [
        "ĠTH",
        "ROWEXPRESSION"
      ],
      [
        "Throw",
        "s"
      ],
      [
        "um",
        "ns"
      ],
      [
        "ĠD",
        "ictionary"
      ],
      [
        "Ġ",
        "Ma"
      ],
      [
        "Ġcon",
        "text"
      ],
      [
        "S",
        "WITCHLABEL"
      ],
      [
        "Ġre",
        "pres"
      ],
      [
        "d",
        "ic"
      ],
      [
        "Ex",
        "tension"
      ],
      [
        "V",
        "ariable"
      ],
      [
        "Ġor",
        "iginal"
      ],
      [
        "c",
        "al"
      ],
      [
        "sqlExpression",
        "Factory"
      ],
      [
        "a",
        "c"
      ],
      [
        "E",
        "lement"
      ],
      [
        "a",
        "red"
      ],
      [
        "ver",
        "se"
      ],
      [
        "ĠE",
        "quals"
      ],
      [
        "REA",
        "KSTATEMENT"
      ],
      [
        "c",
        "rim"
      ],
      [
        "f",
        "fer"
      ],
      [
        "D",
        "et"
      ],
      [
        "from",
        "DataAnnotation"
      ],
      [
        "ĠT",
        "h"
      ],
      [
        "Q",
        "L"
      ],
      [
        "ĠDis",
        "playName"
      ],
      [
        "crim",
        "inator"
      ],
      [
        "Ġconfigure",
        "d"
      ],
      [
        "Ġc",
        "urrent"
      ],
      [
        "ver",
        "t"
      ],
      [
        "in",
        "ner"
      ],
      [
        "ĠARRAY",
        "TYPE"
      ],
      [
        "c",
        "o"
      ],
      [
        "eri",
        "aliz"
      ],
      [
        "tr",
        "i"
      ],
      [
        "Ġc",
        "ommand"
      ],
      [
        "ire",
        "d"
      ],
      [
        "Ġcheck",
        "ed"
      ],
      [
        "u",
        "st"
      ],
      [
        "o",
        "bject"
      ],
      [
        "ĠDeclaring",
        "Type"
      ],
      [
        "Ret",
        "urns"
      ],
      [
        "ĠB",
        "REAKSTATEMENT"
      ],
      [
        "ĠT",
        "Value"
      ],
      [
        "ĠS",
        "QL"
      ],
      [
        "ĠF",
        "unc"
      ],
      [
        "D",
        "ate"
      ],
      [
        "ĠP",
        "ar"
      ],
      [
        "U",
        "PLE"
      ],
      [
        "ĠT",
        "UPLE"
      ],
      [
        "Ġf",
        "unction"
      ],
      [
        "orm",
        "at"
      ],
      [
        "parameter",
        "s"
      ],
      [
        "Ġs",
        "et"
      ],
      [
        "ĠRe",
        "move"
      ],
      [
        "Ġs",
        "ource"
      ],
      [
        "ig",
        "ger"
      ],
      [
        "as",
        "t"
      ],
      [
        "ag",
        "er"
      ],
      [
        "i",
        "qu"
      ],
      [
        "ĠTry",
        "Get"
      ],
      [
        "h",
        "Code"
      ],
      [
        "En",
        "d"
      ],
      [
        "ou",
        "s"
      ],
      [
        "en",
        "der"
      ],
      [
        "Ġb",
        "y"
      ],
      [
        "ct",
        "ed"
      ],
      [
        "P",
        "ARAMETER"
      ],
      [
        "ĠTYPE",
        "PARAMETER"
      ],
      [
        "if",
        "ic"
      ],
      [
        "d",
        "iagnostics"
      ],
      [
        "is",
        "ting"
      ],
      [
        "S",
        "TI"
      ],
      [
        "STI",
        "N"
      ],
      [
        "B",
        "inding"
      ],
      [
        "ĠPO",
        "STIN"
      ],
      [
        "ĠPOSTIN",
        "CREMENTEXPRESSION"
      ],
      [
        "av",
        "e"
      ],
      [
        "ĠCon",
        "figurationSource"
      ],
      [
        "Ġ",
        "all"
      ],
      [
        "j",
        "son"
      ],
      [
        "P",
        "rin"
      ],
      [
        "hang",
        "e"
      ],
      [
        "Con",
        "nection"
      ],
      [
        "Gener",
        "ation"
      ],
      [
        "C",
        "lient"
      ],
      [
        "ĠD",
        "b"
      ],
      [
        "Ġ",
        "r"
      ],
      [
        "p",
        "rincipal"
      ],
      [
        "Expression",
        "Type"
      ],
      [
        "tri",
        "b"
      ],
      [
        "a",
        "ch"
      ],
      [
        "P",
        "ath"
      ],
      [
        "ing",
        "le"
      ],
      [
        "C",
        "hanged"
      ],
      [
        "ĠC",
        "l"
      ],
      [
        "p",
        "re"
      ],
      [
        "ut",
        "able"
      ],
      [
        "E",
        "D"
      ],
      [
        "ĠTo",
        "String"
      ],
      [
        "Ro",
        "ot"
      ],
      [
        "J",
        "oin"
      ],
      [
        "00",
        "00"
      ],
      [
        "w",
        "r"
      ],
      [
        "Ġde",
        "fault"
      ],
      [
        "In",
        "ternal"
      ],
      [
        "AR",
        "G"
      ],
      [
        "IC",
        "IT"
      ],
      [
        "ĠIM",
        "PL"
      ],
      [
        "ĠIMPL",
        "ICIT"
      ],
      [
        "E",
        "qual"
      ],
      [
        "U",
        "MENT"
      ],
      [
        "OR",
        "STATEMENT"
      ],
      [
        "ĠF",
        "ORSTATEMENT"
      ],
      [
        "ARG",
        "UMENT"
      ],
      [
        "r",
        "ag"
      ],
      [
        "rag",
        "ment"
      ],
      [
        "b",
        "le"
      ],
      [
        "pe",
        "cted"
      ],
      [
        "Core",
        "Strings"
      ],
      [
        "E",
        "ventData"
      ],
      [
        "Ġ",
        "Generate"
      ],
      [
        "Call",
        "Expression"
      ],
      [
        "cl",
        "ared"
      ],
      [
        "on",
        "e"
      ],
      [
        "Ġu",
        "sing"
      ],
      [
        "E",
        "NT"
      ],
      [
        "Z",
        "ED"
      ],
      [
        "SI",
        "ZED"
      ],
      [
        "AR",
        "ENT"
      ],
      [
        "ĠP",
        "ARENT"
      ],
      [
        "HE",
        "SIZED"
      ],
      [
        "ĠPARENT",
        "HESIZED"
      ],
      [
        "ĠCon",
        "figure"
      ],
      [
        "s",
        "u"
      ],
      [
        "ce",
        "pt"
      ],
      [
        "ic",
        "h"
      ],
      [
        "QU",
        "ALEXPRESSION"
      ],
      [
        "AN",
        "ORE"
      ],
      [
        "pa",
        "ce"
      ],
      [
        "ANORE",
        "QUALEXPRESSION"
      ],
      [
        "Ġcan",
        "cellationToken"
      ],
      [
        "d",
        "ent"
      ],
      [
        "Ġre",
        "t"
      ],
      [
        "A",
        "t"
      ],
      [
        "tructural",
        "Type"
      ],
      [
        "et",
        "r"
      ],
      [
        "Ġst",
        "ore"
      ],
      [
        "ĠEntity",
        "Type"
      ],
      [
        "ĠU",
        "n"
      ],
      [
        "o",
        "s"
      ],
      [
        "Ġo",
        "ther"
      ],
      [
        "C",
        "re"
      ],
      [
        "L",
        "o"
      ],
      [
        "ĠCA",
        "SE"
      ],
      [
        "PATTERN",
        "SWITCHLABEL"
      ],
      [
        "les",
        "s"
      ],
      [
        "ĠCASE",
        "PATTERNSWITCHLABEL"
      ],
      [
        "and",
        "id"
      ],
      [
        "ĠD",
        "ata"
      ],
      [
        "pend",
        "ent"
      ],
      [
        "Argument",
        "OutOfRangeException"
      ],
      [
        "ES",
        "WITCHLABEL"
      ],
      [
        "ĠC",
        "AS"
      ],
      [
        "ĠCAS",
        "ESWITCHLABEL"
      ],
      [
        "c",
        "ancellationToken"
      ],
      [
        "ic",
        "ate"
      ],
      [
        "Log",
        "ger"
      ],
      [
        "De",
        "finition"
      ],
      [
        "Annotation",
        "s"
      ],
      [
        "ary",
        "Key"
      ],
      [
        "S",
        "kipNavigation"
      ],
      [
        "pro",
        "jection"
      ],
      [
        "Ġw",
        "as"
      ],
      [
        "Ġd",
        "ata"
      ],
      [
        "plic",
        "it"
      ],
      [
        "AL",
        "I"
      ],
      [
        "Ġs",
        "chema"
      ],
      [
        "Key",
        "Value"
      ],
      [
        "red",
        "icate"
      ],
      [
        "ult",
        "ure"
      ],
      [
        "ĠN",
        "umber"
      ],
      [
        "ack",
        "ing"
      ],
      [
        "T",
        "Entity"
      ],
      [
        "Ġg",
        "reater"
      ],
      [
        "Prin",
        "ter"
      ],
      [
        "Con",
        "tent"
      ],
      [
        "N",
        "ot"
      ],
      [
        "ou",
        "ble"
      ],
      [
        "C",
        "ache"
      ],
      [
        "is",
        "e"
      ],
      [
        "Ġwh",
        "ich"
      ],
      [
        "rou",
        "p"
      ],
      [
        "i",
        "led"
      ],
      [
        "Cl",
        "rType"
      ],
      [
        "M",
        "IT"
      ],
      [
        "h",
        "av"
      ],
      [
        "or",
        "d"
      ],
      [
        "ĠC",
        "H"
      ],
      [
        "DTYPE",
        "ARGUMENT"
      ],
      [
        "ĠO",
        "MIT"
      ],
      [
        "mp",
        "le"
      ],
      [
        "TE",
        "DTYPEARGUMENT"
      ],
      [
        "ĠOMIT",
        "TEDTYPEARGUMENT"
      ],
      [
        "EntityType",
        "Builder"
      ],
      [
        "L",
        "e"
      ],
      [
        "B",
        "u"
      ],
      [
        "i",
        "or"
      ],
      [
        "Re",
        "move"
      ],
      [
        "g",
        "ate"
      ],
      [
        "Z",
        "ER"
      ],
      [
        "TI",
        "ALI"
      ],
      [
        "AR",
        "AC"
      ],
      [
        "TER",
        "LITERALEXPRESSION"
      ],
      [
        "NI",
        "TIALI"
      ],
      [
        "Sha",
        "per"
      ],
      [
        "ĠCH",
        "ARAC"
      ],
      [
        "ZER",
        "EXPRESSION"
      ],
      [
        "NITIALI",
        "ZEREXPRESSION"
      ],
      [
        "ĠCHARAC",
        "TERLITERALEXPRESSION"
      ],
      [
        "hav",
        "ior"
      ],
      [
        "ĠCon",
        "vention"
      ],
      [
        "Sql",
        "Server"
      ],
      [
        "uild",
        "Action"
      ],
      [
        "Parameter",
        "s"
      ],
      [
        "Enumer",
        "ator"
      ],
      [
        "C",
        "omplexProperty"
      ],
      [
        "O",
        "BJECTCREATIONEXPRESSION"
      ],
      [
        "Ġm",
        "ethod"
      ],
      [
        "S",
        "pan"
      ],
      [
        "Ġm",
        "ember"
      ],
      [
        "P",
        "rim"
      ],
      [
        "Man",
        "ager"
      ],
      [
        "ĠPar",
        "ameter"
      ],
      [
        "Ġm",
        "ap"
      ],
      [
        "ĠU",
        "pdate"
      ],
      [
        "F",
        "ind"
      ],
      [
        "Con",
        "straint"
      ],
      [
        "se",
        "le"
      ],
      [
        "ition",
        "al"
      ],
      [
        "W",
        "r"
      ],
      [
        "Property",
        "Builder"
      ],
      [
        "e",
        "ed"
      ],
      [
        "Th",
        "an"
      ],
      [
        "fi",
        "x"
      ],
      [
        "Ġo",
        "ptions"
      ],
      [
        "Argument",
        "s"
      ],
      [
        "n",
        "ull"
      ],
      [
        "Tr",
        "ansl"
      ],
      [
        "O",
        "p"
      ],
      [
        "r",
        "ror"
      ],
      [
        "c",
        "ri"
      ],
      [
        "iter",
        "al"
      ],
      [
        "mo",
        "s"
      ],
      [
        "iti",
        "aliz"
      ],
      [
        "c",
        "a"
      ],
      [
        "u",
        "e"
      ],
      [
        "ĠT",
        "able"
      ],
      [
        "s",
        "er"
      ],
      [
        "ĠD",
        "ate"
      ],
      [
        "F",
        "unc"
      ],
      [
        "ation",
        "Context"
      ],
      [
        "t",
        "t"
      ],
      [
        "Ġs",
        "ervice"
      ],
      [
        "Ġg",
        "ener"
      ],
      [
        "ĠNot",
        "Null"
      ],
      [
        "ĠCl",
        "rType"
      ],
      [
        "clu",
        "de"
      ],
      [
        "S",
        "chema"
      ],
      [
        "st",
        "em"
      ],
      [
        "an",
        "Set"
      ],
      [
        "le",
        "ft"
      ],
      [
        "w",
        "ner"
      ],
      [
        "ific",
        "ation"
      ],
      [
        "ĠIMPLICIT",
        "OBJECTCREATIONEXPRESSION"
      ],
      [
        "con",
        "d"
      ],
      [
        "Res",
        "ource"
      ],
      [
        "Pro",
        "cess"
      ],
      [
        "T",
        "ext"
      ],
      [
        "Sql",
        "Expression"
      ],
      [
        "Ġex",
        "pected"
      ],
      [
        "Collection",
        "Builder"
      ],
      [
        "F",
        "AU"
      ],
      [
        "L",
        "T"
      ],
      [
        "DE",
        "FAU"
      ],
      [
        "re",
        "ad"
      ],
      [
        "con",
        "nection"
      ],
      [
        "DEFAU",
        "LT"
      ],
      [
        "S",
        "P"
      ],
      [
        "Re",
        "lationship"
      ],
      [
        "od",
        "ification"
      ],
      [
        "T",
        "Property"
      ],
      [
        "ter",
        "cept"
      ],
      [
        "tercept",
        "or"
      ],
      [
        "f",
        "f"
      ],
      [
        "ĠEx",
        "plicit"
      ],
      [
        "re",
        "c"
      ],
      [
        "po",
        "int"
      ],
      [
        "Ġm",
        "essage"
      ],
      [
        "Ġ",
        "DEFAULT"
      ],
      [
        "iqu",
        "e"
      ],
      [
        "n",
        "ap"
      ],
      [
        "Ġt",
        "arget"
      ],
      [
        "A",
        "pp"
      ],
      [
        "t",
        "o"
      ],
      [
        "ĠE",
        "n"
      ],
      [
        "Ġ",
        "7"
      ],
      [
        "er",
        "e"
      ],
      [
        "argument",
        "s"
      ],
      [
        "Db",
        "Context"
      ],
      [
        "Ġp",
        "roperties"
      ],
      [
        "er",
        "min"
      ],
      [
        "ĠL",
        "og"
      ],
      [
        "Ġu",
        "n"
      ],
      [
        "s",
        "truct"
      ],
      [
        "u",
        "tion"
      ],
      [
        "Ġ",
        "less"
      ],
      [
        "ĠIReadOnly",
        "List"
      ],
      [
        "emp",
        "or"
      ],
      [
        "Visit",
        "or"
      ],
      [
        "String",
        "Builder"
      ],
      [
        "Id",
        "entity"
      ],
      [
        "andid",
        "ate"
      ],
      [
        "M",
        "ode"
      ],
      [
        "As",
        "sign"
      ],
      [
        "De",
        "clared"
      ],
      [
        "Ġc",
        "ollection"
      ],
      [
        "c",
        "omplexProperty"
      ],
      [
        "N",
        "ode"
      ],
      [
        "ĠM",
        "odel"
      ],
      [
        "d",
        "ed"
      ],
      [
        "c",
        "re"
      ],
      [
        "Ġrepres",
        "ent"
      ],
      [
        "He",
        "l"
      ],
      [
        "ĠCon",
        "tains"
      ],
      [
        "Conver",
        "ter"
      ],
      [
        "ĠDeclaring",
        "EntityType"
      ],
      [
        "T",
        "Vertex"
      ],
      [
        "li",
        "as"
      ],
      [
        "Ġre",
        "lationship"
      ],
      [
        "Or",
        "dinal"
      ],
      [
        "c",
        "ount"
      ],
      [
        "Requ",
        "ired"
      ],
      [
        "ĠDe",
        "bug"
      ],
      [
        "Be",
        "havior"
      ],
      [
        "lo",
        "ck"
      ],
      [
        "orm",
        "ation"
      ],
      [
        "il",
        "ter"
      ],
      [
        "ĠP",
        "roperties"
      ],
      [
        "e",
        "l"
      ],
      [
        "Ġcon",
        "nection"
      ],
      [
        "M",
        "igration"
      ],
      [
        "em",
        "ory"
      ],
      [
        "S",
        "equence"
      ],
      [
        "eri",
        "ved"
      ],
      [
        "ĠC",
        "ommand"
      ],
      [
        "ĠCon",
        "vert"
      ],
      [
        "Ġ",
        "Key"
      ],
      [
        "Con",
        "figuration"
      ],
      [
        "R",
        "ow"
      ],
      [
        "Hel",
        "per"
      ],
      [
        "ĠC",
        "ancellationToken"
      ],
      [
        "os",
        "mos"
      ],
      [
        "ĠEx",
        "ecute"
      ],
      [
        "Ġ",
        "("
      ],
      [
        "A",
        "IT"
      ],
      [
        "W",
        "AIT"
      ],
      [
        "o",
        "ther"
      ],
      [
        "ĠA",
        "WAIT"
      ],
      [
        "ĠMa",
        "ke"
      ],
      [
        "tt",
        "p"
      ],
      [
        "ĠAWAIT",
        "EXPRESSION"
      ],
      [
        "a",
        "ce"
      ],
      [
        "ĠP",
        "rincipal"
      ],
      [
        "Relational",
        "AnnotationNames"
      ],
      [
        "T",
        "ask"
      ],
      [
        "U",
        "L"
      ],
      [
        "st",
        "oreObject"
      ],
      [
        "ĠT",
        "ask"
      ],
      [
        "der",
        "ing"
      ],
      [
        "der",
        "ed"
      ],
      [
        "As",
        "sert"
      ],
      [
        "Conver",
        "t"
      ],
      [
        "ĠSql",
        "Expression"
      ],
      [
        "res",
        "ponse"
      ],
      [
        "m",
        "etr"
      ],
      [
        "at",
        "erializ"
      ],
      [
        "Ġin",
        "dic"
      ],
      [
        "struct",
        "or"
      ],
      [
        "ĠTryGet",
        "Value"
      ],
      [
        "Ġ",
        "OR"
      ],
      [
        "T",
        "R"
      ],
      [
        "trib",
        "ute"
      ],
      [
        "f",
        "set"
      ],
      [
        "i",
        "ew"
      ],
      [
        "mp",
        "lement"
      ],
      [
        "O",
        "wner"
      ],
      [
        "E",
        "quals"
      ],
      [
        "ar",
        "ray"
      ],
      [
        "ped",
        "QueryExpression"
      ],
      [
        "Comp",
        "il"
      ],
      [
        "Y",
        "M"
      ],
      [
        "entityType",
        "Builder"
      ],
      [
        "iti",
        "ve"
      ],
      [
        "Ġh",
        "as"
      ],
      [
        "D",
        "erived"
      ],
      [
        "method",
        "CallExpression"
      ],
      [
        "t",
        "es"
      ],
      [
        "re",
        "lational"
      ],
      [
        "m",
        "ain"
      ],
      [
        "ĠO",
        "n"
      ],
      [
        "per",
        "and"
      ],
      [
        "cre",
        "ment"
      ],
      [
        "B",
        "in"
      ],
      [
        "b",
        "ool"
      ],
      [
        "hang",
        "es"
      ],
      [
        "nap",
        "sh"
      ],
      [
        "ĠA",
        "s"
      ],
      [
        "E",
        "rror"
      ],
      [
        "tain",
        "er"
      ],
      [
        "Bu",
        "ffer"
      ],
      [
        "c",
        "ollection"
      ],
      [
        "Ġl",
        "ong"
      ],
      [
        "S",
        "h"
      ],
      [
        "h",
        "as"
      ],
      [
        "ĠGet",
        "Field"
      ],
      [
        "Ġcon",
        "ver"
      ],
      [
        "sele",
        "ct"
      ],
      [
        "Gener",
        "ated"
      ],
      [
        "Element",
        "Type"
      ],
      [
        "Navigation",
        "Builder"
      ],
      [
        "napsh",
        "ot"
      ],
      [
        "verride",
        "s"
      ],
      [
        "AC",
        "T"
      ],
      [
        "ĠC",
        "omp"
      ],
      [
        "qu",
        "est"
      ],
      [
        "ĠSUB",
        "TR"
      ],
      [
        "Ġadd",
        "ed"
      ],
      [
        "ĠSUBTR",
        "ACT"
      ],
      [
        "g",
        "no"
      ],
      [
        "st",
        "ate"
      ],
      [
        "w",
        "ise"
      ],
      [
        "le",
        "te"
      ],
      [
        "Ġ",
        "MethodInfo"
      ],
      [
        "ar",
        "ch"
      ],
      [
        "Ġindic",
        "ating"
      ],
      [
        "l",
        "l"
      ],
      [
        "l",
        "ine"
      ],
      [
        "Ġc",
        "omplex"
      ],
      [
        "Entity",
        "State"
      ],
      [
        "Member",
        "Info"
      ],
      [
        "g",
        "ener"
      ],
      [
        "De",
        "bug"
      ],
      [
        "?",
        ":"
      ],
      [
        "l",
        "ogger"
      ],
      [
        "Ġm",
        "ust"
      ],
      [
        "o",
        "st"
      ],
      [
        "is",
        "ts"
      ],
      [
        "empor",
        "al"
      ],
      [
        "A",
        "lias"
      ],
      [
        "E",
        "valu"
      ],
      [
        "N",
        "ew"
      ],
      [
        "ĠC",
        "olumn"
      ],
      [
        "il",
        "d"
      ],
      [
        "Col",
        "umns"
      ],
      [
        "en",
        "umer"
      ],
      [
        "it",
        "em"
      ],
      [
        "ĠDebug",
        "Assert"
      ],
      [
        "F",
        "ragment"
      ],
      [
        "S",
        "ize"
      ],
      [
        "a",
        "x"
      ],
      [
        "Generic",
        "Type"
      ],
      [
        "ĠGetField",
        "Value"
      ],
      [
        "ĠPARENTHESIZED",
        "LAMBDAEXPRESSION"
      ],
      [
        "Cre",
        "ates"
      ],
      [
        "er",
        "ror"
      ],
      [
        "F",
        "l"
      ],
      [
        "j",
        "oin"
      ],
      [
        "out",
        "er"
      ],
      [
        "ĠTUPLE",
        "EXPRESSION"
      ],
      [
        "s",
        "ervice"
      ],
      [
        "u",
        "s"
      ],
      [
        "Has",
        "hCode"
      ],
      [
        "TI",
        "NU"
      ],
      [
        "ĠCON",
        "TINU"
      ],
      [
        "Collection",
        "s"
      ],
      [
        "ĠCONTINU",
        "ESTATEMENT"
      ],
      [
        "Ġ",
        "H"
      ],
      [
        "Ġcon",
        "figurationSource"
      ],
      [
        "Mapping",
        "s"
      ],
      [
        "Or",
        "Default"
      ],
      [
        "ve",
        "l"
      ],
      [
        "ĠS",
        "h"
      ],
      [
        "nt",
        "ax"
      ],
      [
        "expression",
        "Printer"
      ],
      [
        "I",
        "Enumerable"
      ],
      [
        "ĠIn",
        "ternal"
      ],
      [
        "ĠRe",
        "lational"
      ],
      [
        "f",
        "orm"
      ],
      [
        "ec",
        "ution"
      ],
      [
        "i",
        "sion"
      ],
      [
        "v",
        "o"
      ],
      [
        "I",
        "FIER"
      ],
      [
        "Ġ",
        "R"
      ],
      [
        "EC",
        "IFIER"
      ],
      [
        "SP",
        "ECIFIER"
      ],
      [
        "K",
        "SPECIFIER"
      ],
      [
        "R",
        "AN"
      ],
      [
        "ti",
        "m"
      ],
      [
        "ĠARRAY",
        "RAN"
      ],
      [
        "ĠARRAYRAN",
        "KSPECIFIER"
      ],
      [
        "w",
        "a"
      ],
      [
        "y",
        "c"
      ],
      [
        "ĠCon",
        "stant"
      ],
      [
        "Ġmap",
        "ped"
      ],
      [
        "annotation",
        "s"
      ],
      [
        "Expression",
        "Visitor"
      ],
      [
        "null",
        "able"
      ],
      [
        "property",
        "Name"
      ],
      [
        "ĠSUBTRACT",
        "EXPRESSION"
      ],
      [
        "de",
        "pendent"
      ],
      [
        "N",
        "umber"
      ],
      [
        "ĠOR",
        "PATTERN"
      ],
      [
        "a",
        "ct"
      ],
      [
        "ĠGREATERTH",
        "ANOREQUALEXPRESSION"
      ],
      [
        "ĠS",
        "y"
      ],
      [
        "M",
        "utable"
      ],
      [
        "cess",
        "or"
      ],
      [
        "Ġother",
        "wise"
      ],
      [
        "ache",
        "d"
      ],
      [
        "Tr",
        "acking"
      ],
      [
        "Dis",
        "criminator"
      ],
      [
        "co",
        "pe"
      ],
      [
        "L",
        "ambda"
      ],
      [
        "T",
        "Context"
      ],
      [
        "string",
        "Builder"
      ],
      [
        "A",
        "wa"
      ],
      [
        "Type",
        "Base"
      ],
      [
        "b",
        "query"
      ],
      [
        "Ġ",
        "al"
      ],
      [
        "is",
        "on"
      ],
      [
        "ompar",
        "ison"
      ],
      [
        "Access",
        "or"
      ],
      [
        "F",
        "or"
      ],
      [
        "d",
        "ing"
      ],
      [
        "S",
        "elect"
      ],
      [
        "p",
        "roperties"
      ],
      [
        "pl",
        "ace"
      ],
      [
        "C",
        "omplex"
      ],
      [
        "t",
        "em"
      ],
      [
        "Entity",
        "Entry"
      ],
      [
        "Ġ",
        "param"
      ],
      [
        "Method",
        "s"
      ],
      [
        "ĠData",
        "Annotation"
      ],
      [
        "Resource",
        "s"
      ],
      [
        "Awa",
        "it"
      ],
      [
        "P",
        "a"
      ],
      [
        "Ch",
        "at"
      ],
      [
        "Ġ1",
        "0"
      ],
      [
        "type",
        "Mapping"
      ],
      [
        "Ġ",
        "8"
      ],
      [
        "par",
        "ts"
      ],
      [
        "ĠDe",
        "fault"
      ],
      [
        "Ġt",
        "ask"
      ],
      [
        "ĠArgument",
        "s"
      ],
      [
        "I",
        "f"
      ],
      [
        "ĠA",
        "ction"
      ],
      [
        "ex",
        "isting"
      ],
      [
        "ap",
        "ac"
      ],
      [
        "apac",
        "ity"
      ],
      [
        "ĠB",
        "uilder"
      ],
      [
        "ĠGet",
        "Type"
      ],
      [
        "ti",
        "ve"
      ],
      [
        "iz",
        "ed"
      ],
      [
        "Op",
        "en"
      ],
      [
        "ĠConfigure",
        "Await"
      ],
      [
        "ma",
        "p"
      ],
      [
        "I",
        "gno"
      ],
      [
        "Ġs",
        "equence"
      ],
      [
        "i",
        "le"
      ],
      [
        "r",
        "am"
      ],
      [
        "r",
        "on"
      ],
      [
        "Ma",
        "x"
      ],
      [
        "Get",
        "s"
      ],
      [
        "ĠF",
        "irst"
      ],
      [
        "To",
        "Principal"
      ],
      [
        "c",
        "ode"
      ],
      [
        "con",
        "ver"
      ],
      [
        "ĠTo",
        "List"
      ],
      [
        "Un",
        "it"
      ],
      [
        "ĠIf",
        "Null"
      ],
      [
        "Prim",
        "aryKey"
      ],
      [
        "M",
        "emory"
      ],
      [
        "au",
        "se"
      ],
      [
        "Ġd",
        "iagnostics"
      ],
      [
        "ppor",
        "ted"
      ],
      [
        "ĠPro",
        "cess"
      ],
      [
        "ĠC",
        "omplexType"
      ],
      [
        "ans",
        "lation"
      ],
      [
        "L",
        "ESTATEMENT"
      ],
      [
        "ĠC",
        "h"
      ],
      [
        "Ġd",
        "ouble"
      ],
      [
        "mb",
        "ol"
      ],
      [
        "d",
        "g"
      ],
      [
        "ĠL",
        "iteral"
      ],
      [
        "li",
        "ed"
      ],
      [
        "S",
        "e"
      ],
      [
        "V",
        "alid"
      ],
      [
        "An",
        "d"
      ],
      [
        "ĠSh",
        "ort"
      ],
      [
        "Ġproperty",
        "Name"
      ],
      [
        "Dis",
        "playName"
      ],
      [
        "wr",
        "ap"
      ],
      [
        "itive",
        "CollectionBuilder"
      ],
      [
        "ĠS",
        "ha"
      ],
      [
        "de",
        "cessor"
      ],
      [
        "In",
        "ter"
      ],
      [
        "v",
        "alues"
      ],
      [
        "ag",
        "es"
      ],
      [
        "Sy",
        "ntax"
      ],
      [
        "D",
        "iagnostics"
      ],
      [
        "cal",
        "ar"
      ],
      [
        "I",
        "Property"
      ],
      [
        "Store",
        "Object"
      ],
      [
        "Ġ",
        "per"
      ],
      [
        "Ġall",
        "ow"
      ],
      [
        "l",
        "ated"
      ],
      [
        "Ġ",
        "entry"
      ],
      [
        "ĠU",
        "se"
      ],
      [
        "V",
        "er"
      ],
      [
        "a",
        "re"
      ],
      [
        "ĠentityType",
        "Builder"
      ],
      [
        "dered",
        "Dictionary"
      ],
      [
        "O",
        "ption"
      ],
      [
        "ag",
        "s"
      ],
      [
        "ĠM",
        "ember"
      ],
      [
        "Ġex",
        "ception"
      ],
      [
        "Tr",
        "y"
      ],
      [
        "Source",
        "Enabled"
      ],
      [
        "ĠW",
        "ith"
      ],
      [
        "ĠW",
        "h"
      ],
      [
        "ĠOr",
        "dinal"
      ],
      [
        "n",
        "ing"
      ],
      [
        "Ġma",
        "pping"
      ],
      [
        "tain",
        "ing"
      ],
      [
        "Access",
        "Mode"
      ],
      [
        "M",
        "odification"
      ],
      [
        "ul",
        "ong"
      ],
      [
        "ol",
        "umns"
      ],
      [
        "N",
        "on"
      ],
      [
        "Ġn",
        "ull"
      ],
      [
        "I",
        "tem"
      ],
      [
        "Ġ",
        "Method"
      ],
      [
        "Ġs",
        "e"
      ],
      [
        "BJEC",
        "TI"
      ],
      [
        "ĠTh",
        "is"
      ],
      [
        "Ġtr",
        "ansaction"
      ],
      [
        "u",
        "p"
      ],
      [
        "re",
        "lationship"
      ],
      [
        "de",
        "s"
      ],
      [
        "de",
        "fault"
      ],
      [
        "ĠO",
        "BJECTI"
      ],
      [
        "ĠOBJECTI",
        "NITIALIZEREXPRESSION"
      ],
      [
        "Ġ1",
        "00"
      ],
      [
        "der",
        "i"
      ],
      [
        "Ret",
        "urn"
      ],
      [
        "Compil",
        "ationContext"
      ],
      [
        "C",
        "omplexType"
      ],
      [
        "Date",
        "Time"
      ],
      [
        "P",
        "re"
      ],
      [
        "iagnostic",
        "SourceEnabled"
      ],
      [
        "Log",
        "Enabled"
      ],
      [
        "mple",
        "LogEnabled"
      ],
      [
        "r",
        "ite"
      ],
      [
        "Value",
        "Comparer"
      ],
      [
        "Of",
        "fset"
      ],
      [
        "d",
        "is"
      ],
      [
        "Su",
        "pported"
      ],
      [
        "s",
        "es"
      ],
      [
        "ar",
        "ning"
      ],
      [
        "ĠAn",
        "y"
      ],
      [
        "p",
        "atch"
      ],
      [
        "od",
        "y"
      ],
      [
        "Ġparameter",
        "s"
      ],
      [
        "sh",
        "a"
      ],
      [
        "r",
        "ight"
      ],
      [
        "Ġ",
        "Ġ"
      ],
      [
        "Ġannotation",
        "s"
      ],
      [
        "Le",
        "vel"
      ],
      [
        "yc",
        "le"
      ],
      [
        "F",
        "U"
      ],
      [
        "N",
        "CTION"
      ],
      [
        "ĠLOCAL",
        "FU"
      ],
      [
        "ĠF",
        "unction"
      ],
      [
        "NCTION",
        "STATEMENT"
      ],
      [
        "ĠLOCALFU",
        "NCTIONSTATEMENT"
      ],
      [
        "To",
        "Dependent"
      ],
      [
        "ro",
        "ot"
      ],
      [
        "O",
        "wned"
      ],
      [
        "ĠSy",
        "stem"
      ],
      [
        "se",
        "mb"
      ],
      [
        "ĠTh",
        "row"
      ],
      [
        "C",
        "hanges"
      ],
      [
        "Ġin",
        "ner"
      ],
      [
        "ess",
        "ages"
      ],
      [
        "id",
        "entifier"
      ],
      [
        "ĠDEFAULT",
        "LITERALEXPRESSION"
      ],
      [
        "Ġb",
        "uildAction"
      ],
      [
        "ĠCOALESCE",
        "ASSIGNMENTEXPRESSION"
      ],
      [
        "Property",
        "Info"
      ],
      [
        "semb",
        "ly"
      ],
      [
        "Ġe",
        "ventData"
      ],
      [
        "Ġin",
        "put"
      ],
      [
        "Ġrepresent",
        "s"
      ],
      [
        "Ġs",
        "ql"
      ],
      [
        "al",
        "th"
      ],
      [
        "con",
        "vention"
      ],
      [
        "Shaper",
        "Expression"
      ],
      [
        "I",
        "Mutable"
      ],
      [
        "In",
        "itializ"
      ],
      [
        "Ġl",
        "ogger"
      ],
      [
        "Options",
        "Builder"
      ],
      [
        "F",
        "ormat"
      ],
      [
        "Ġc",
        "l"
      ],
      [
        "G",
        "ender"
      ],
      [
        "W",
        "h"
      ],
      [
        "deri",
        "ved"
      ],
      [
        "D",
        "es"
      ],
      [
        "Property",
        "Name"
      ],
      [
        "ns",
        "ure"
      ],
      [
        "ĠNot",
        "Empty"
      ],
      [
        "Constant",
        "Expression"
      ],
      [
        "mplement",
        "ation"
      ],
      [
        "N",
        "o"
      ],
      [
        "Ġcon",
        "tains"
      ],
      [
        "ti",
        "n"
      ],
      [
        "ĠIs",
        "Nullable"
      ],
      [
        "Default",
        "Value"
      ],
      [
        "pre",
        "decessor"
      ],
      [
        "Un",
        "ique"
      ],
      [
        "property",
        "Info"
      ],
      [
        "C",
        "omparison"
      ],
      [
        "ĠW",
        "rite"
      ],
      [
        "rec",
        "ision"
      ],
      [
        "ab",
        "ility"
      ],
      [
        "Wr",
        "iter"
      ],
      [
        "d",
        "iagnosticSourceEnabled"
      ],
      [
        "m",
        "essage"
      ],
      [
        "si",
        "mpleLogEnabled"
      ],
      [
        "ForeignKey",
        "s"
      ],
      [
        "HE",
        "N"
      ],
      [
        "s",
        "chema"
      ],
      [
        "Ġu",
        "int"
      ],
      [
        "property",
        "Builder"
      ],
      [
        "ĠW",
        "HEN"
      ],
      [
        "Generic",
        "Method"
      ],
      [
        "ĠWHEN",
        "CLAUSE"
      ],
      [
        "I",
        "ELD"
      ],
      [
        "ĠY",
        "IELD"
      ],
      [
        "ti",
        "tion"
      ],
      [
        "in",
        "put"
      ],
      [
        "Debug",
        "String"
      ],
      [
        "o",
        "bj"
      ],
      [
        "ase",
        "Type"
      ],
      [
        "cal",
        "e"
      ],
      [
        "a",
        "f"
      ],
      [
        "Ġde",
        "finition"
      ],
      [
        "C",
        "ulture"
      ],
      [
        "f",
        "unction"
      ],
      [
        "le",
        "ar"
      ],
      [
        "atic",
        "al"
      ],
      [
        "member",
        "Info"
      ],
      [
        "Diagnostics",
        "Logger"
      ],
      [
        "st",
        "art"
      ],
      [
        "Ġd",
        "ate"
      ],
      [
        "od",
        "ified"
      ],
      [
        "gener",
        "ic"
      ],
      [
        "P",
        "redicate"
      ],
      [
        "Requ",
        "est"
      ],
      [
        "at",
        "able"
      ],
      [
        "Set",
        "s"
      ],
      [
        "H",
        "and"
      ],
      [
        "Db",
        "Function"
      ],
      [
        "Ġstore",
        "d"
      ],
      [
        "Ġ",
        "Json"
      ],
      [
        "ck",
        "et"
      ],
      [
        "ĠType",
        "Mapping"
      ],
      [
        "ĠCh",
        "at"
      ],
      [
        "C",
        "urrent"
      ],
      [
        "Pa",
        "ir"
      ],
      [
        "D",
        "atabase"
      ],
      [
        "T",
        "arget"
      ],
      [
        "c",
        "ur"
      ],
      [
        "l",
        "ong"
      ],
      [
        "ĠU",
        "N"
      ],
      [
        "main",
        "Builder"
      ],
      [
        "1",
        "0"
      ],
      [
        "ĠS",
        "chema"
      ],
      [
        "Builder",
        "s"
      ],
      [
        "M",
        "aterializ"
      ],
      [
        "I",
        "NU"
      ],
      [
        "S",
        "ave"
      ],
      [
        "AR",
        "YM"
      ],
      [
        "ĠC",
        "anSet"
      ],
      [
        "ĠUN",
        "ARYM"
      ],
      [
        "INU",
        "SEXPRESSION"
      ],
      [
        "ĠUNARYM",
        "INUSEXPRESSION"
      ],
      [
        "Ġo",
        "wned"
      ],
      [
        "ĠL",
        "ambda"
      ],
      [
        "OD",
        "UL"
      ],
      [
        "ĠM",
        "ODUL"
      ],
      [
        "dic",
        "ates"
      ],
      [
        "ĠMODUL",
        "O"
      ],
      [
        "I",
        "DE"
      ],
      [
        "V",
        "IDE"
      ],
      [
        "in",
        "stance"
      ],
      [
        "Ġas",
        "ync"
      ],
      [
        "ĠDI",
        "VIDE"
      ],
      [
        "H",
        "i"
      ],
      [
        "w",
        "atch"
      ],
      [
        "c",
        "omplexType"
      ],
      [
        "re",
        "n"
      ],
      [
        "A",
        "c"
      ],
      [
        "C",
        "H"
      ],
      [
        "Convention",
        "s"
      ],
      [
        "Owner",
        "ship"
      ],
      [
        "ĠIs",
        "Null"
      ],
      [
        "ĠHas",
        "Value"
      ],
      [
        "Extension",
        "s"
      ],
      [
        "select",
        "Expression"
      ],
      [
        "C",
        "ase"
      ],
      [
        "ĠGet",
        "HashCode"
      ],
      [
        "Column",
        "Name"
      ],
      [
        "Sy",
        "mbol"
      ],
      [
        "d",
        "ictionary"
      ],
      [
        "ĠDate",
        "Time"
      ],
      [
        "m",
        "atical"
      ],
      [
        "re",
        "am"
      ],
      [
        "AT",
        "CH"
      ],
      [
        "an",
        "ce"
      ],
      [
        "ĠC",
        "ATCH"
      ],
      [
        "ram",
        "matical"
      ],
      [
        "ĠDIVIDE",
        "EXPRESSION"
      ],
      [
        "Fi",
        "le"
      ],
      [
        "Ġ",
        "old"
      ],
      [
        "Ġst",
        "art"
      ],
      [
        "reater",
        "Than"
      ],
      [
        "or",
        "dinal"
      ],
      [
        "st",
        "ore"
      ],
      [
        "S",
        "napshot"
      ],
      [
        "ic",
        "ode"
      ],
      [
        "Ġproperty",
        "Builder"
      ],
      [
        "SqlServer",
        "AnnotationNames"
      ],
      [
        "Ġb",
        "ound"
      ],
      [
        "ĠS",
        "ingle"
      ],
      [
        "At",
        "tribute"
      ],
      [
        "Expression",
        "s"
      ],
      [
        "oc",
        "ument"
      ],
      [
        "Man",
        "y"
      ],
      [
        "T",
        "Value"
      ],
      [
        "or",
        "ds"
      ],
      [
        "ut",
        "es"
      ],
      [
        "Ġp",
        "rincipal"
      ],
      [
        "Navigation",
        "s"
      ],
      [
        "Base",
        "Type"
      ],
      [
        "G",
        "roup"
      ],
      [
        "ĠIn",
        "dicates"
      ],
      [
        "Ġ",
        "9"
      ],
      [
        "lo",
        "ad"
      ],
      [
        "ĠDISCARD",
        "PATTERN"
      ],
      [
        "H",
        "I"
      ],
      [
        "c",
        "ul"
      ],
      [
        "k",
        "ed"
      ],
      [
        "is",
        "tic"
      ],
      [
        "Par",
        "t"
      ],
      [
        "Query",
        "Context"
      ],
      [
        "Lo",
        "ad"
      ],
      [
        "T",
        "Source"
      ],
      [
        "en",
        "ting"
      ],
      [
        "Ġf",
        "ound"
      ],
      [
        "op",
        "watch"
      ],
      [
        "g",
        "re"
      ],
      [
        "IReadOnly",
        "List"
      ],
      [
        "er",
        "o"
      ],
      [
        "Det",
        "ermin"
      ],
      [
        "in",
        "ternal"
      ],
      [
        "in",
        "terceptor"
      ],
      [
        "Ġa",
        "re"
      ],
      [
        "ĠDb",
        "Context"
      ],
      [
        "ĠSt",
        "ore"
      ],
      [
        "ĠC",
        "omplexProperty"
      ],
      [
        "Ġd",
        "is"
      ],
      [
        "vi",
        "sit"
      ],
      [
        "Ġpro",
        "vider"
      ],
      [
        "or",
        "iginal"
      ],
      [
        "end",
        "ing"
      ],
      [
        "Res",
        "ol"
      ],
      [
        "Ġde",
        "le"
      ],
      [
        "RE",
        "TURNSTATEMENT"
      ],
      [
        "Assign",
        "able"
      ],
      [
        "ĠWh",
        "ere"
      ],
      [
        "ĠYIELD",
        "RETURNSTATEMENT"
      ],
      [
        "Cl",
        "ause"
      ],
      [
        "A",
        "I"
      ],
      [
        "c",
        "at"
      ],
      [
        "Ġinf",
        "ormation"
      ],
      [
        "Fi",
        "x"
      ],
      [
        "Derived",
        "Types"
      ],
      [
        "ĠT",
        "ime"
      ],
      [
        "ĠSt",
        "oreObject"
      ],
      [
        "KeyValue",
        "Pair"
      ],
      [
        "in",
        "verse"
      ],
      [
        "Ġth",
        "en"
      ],
      [
        "map",
        "ped"
      ],
      [
        "f",
        "irst"
      ],
      [
        "ĠIs",
        "Assignable"
      ],
      [
        "Ġrepres",
        "enting"
      ],
      [
        "gre",
        "gate"
      ],
      [
        "H",
        "ttp"
      ],
      [
        "er",
        "arch"
      ],
      [
        "ly",
        "ing"
      ],
      [
        "ild",
        "ren"
      ],
      [
        "Ġret",
        "urns"
      ],
      [
        "Ġp",
        "rim"
      ],
      [
        "pl",
        "it"
      ],
      [
        "ca",
        "de"
      ],
      [
        "B",
        "atch"
      ],
      [
        "Ġa",
        "ction"
      ],
      [
        "Conver",
        "sion"
      ],
      [
        "enumer",
        "ator"
      ],
      [
        "S",
        "ingle"
      ],
      [
        "Ġ",
        "at"
      ],
      [
        "Ġst",
        "oreObject"
      ],
      [
        "ĠSt",
        "ate"
      ],
      [
        "Ġex",
        "ists"
      ],
      [
        "C",
        "osmos"
      ],
      [
        "Ġ",
        "par"
      ],
      [
        "b",
        "y"
      ],
      [
        "ĠUn",
        "wrap"
      ],
      [
        "ĠShort",
        "DisplayName"
      ],
      [
        "P",
        "o"
      ],
      [
        "g",
        "ing"
      ],
      [
        "re",
        "e"
      ],
      [
        "ist",
        "ory"
      ],
      [
        "W",
        "arning"
      ],
      [
        "re",
        "nc"
      ],
      [
        "Query",
        "CompilationContext"
      ],
      [
        "ĠSWITCH",
        "STATEMENT"
      ],
      [
        "renc",
        "y"
      ],
      [
        "t",
        "on"
      ],
      [
        "De",
        "lete"
      ],
      [
        "ff",
[...]
