{
  "version": "1.0",
  "truncation": null,
  "padding": null,
  "added_tokens": [
    {
      "id": 0,
      "content": "<|pad|>",
      "single_word": false,
      "lstrip": false,
      "rstrip": false,
      "normalized": false,
      "special": true
    },
    {
      "id": 1,
      "content": "<|unk|>",
      "single_word": false,
      "lstrip": false,
      "rstrip": false,
      "normalized": false,
      "special": true
    },
    {
      "id": 2,
      "content": "<|bos|>",
      "single_word": false,
      "lstrip": false,
      "rstrip": false,
      "normalized": false,
      "special": true
    },
    {
      "id": 3,
      "content": "<|eos|>",
      "single_word": false,
      "lstrip": false,
      "rstrip": false,
      "normalized": false,
      "special": true
    },
    {
      "id": 4,
      "content": "<|output|>",
      "single_word": false,
      "lstrip": false,
      "rstrip": false,
      "normalized": false,
      "special": true
    }
  ],
  "normalizer": null,
  "pre_tokenizer": {
    "type": "ByteLevel",
    "add_prefix_space": false,
    "trim_offsets": true,
    "use_regex": true
  },
  "post_processor": null,
  "decoder": {
    "type": "ByteLevel",
    "add_prefix_space": true,
    "trim_offsets": true,
    "use_regex": true
  },
  "model": {
    "type": "BPE",
    "dropout": null,
    "unk_token": "<|unk|>",
    "continuing_subword_prefix": null,
    "end_of_word_suffix": null,
    "fuse_unk": false,
    "byte_fallback": false,
    "ignore_merges": false,
    "vocab": {
      "<|pad|>": 0,
      "<|unk|>": 1,
      "<|bos|>": 2,
      "<|eos|>": 3,
      "<|output|>": 4,
      "\"": 5,
      "#": 6,
      "$": 7,
      "&": 8,
      "'": 9,
      "(": 10,
      ")": 11,
      ",": 12,
      "-": 13,
      ".": 14,
      "/": 15,
      "0": 16,
      "1": 17,
      "2": 18,
      "3": 19,
      "4": 20,
      "5": 21,
      "6": 22,
      "7": 23,
      "8": 24,
      "9": 25,
      ":": 26,
      ";": 27,
      "<": 28,
      "=": 29,
      ">": 30,
      "?": 31,
      "@": 32,
      "A": 33,
      "B": 34,
      "C": 35,
      "D": 36,
      "E": 37,
      "F": 38,
      "G": 39,
      "H": 40,
      "I": 41,
      "J": 42,
      "K": 43,
      "L": 44,
      "M": 45,
      "N": 46,
      "O": 47,
      "P": 48,
      "Q": 49,
      "R": 50,
      "S": 51,
      "T": 52,
      "U": 53,
      "V": 54,
      "W": 55,
      "X": 56,
      "Y": 57,
      "Z": 58,
      "[": 59,
      "]": 60,
      "_": 61,
      "a": 62,
      "b": 63,
      "c": 64,
      "d": 65,
      "e": 66,
      "f": 67,
      "g": 68,
      "h": 69,
      "i": 70,
      "j": 71,
      "k": 72,
      "l": 73,
      "m": 74,
      "n": 75,
      "o": 76,
      "p": 77,
      "q": 78,
      "r": 79,
      "s": 80,
      "t": 81,
      "u": 82,
      "v": 83,
      "w": 84,
      "x": 85,
      "y": 86,
      "z": 87,
      "{": 88,
      "|": 89,
      "}": 90,
      "~": 91,
      "¦": 92,
      "§": 93,
      "ª": 94,
      "°": 95,
      "³": 96,
      "¸": 97,
      "º": 98,
      "Â": 99,
      "Ã": 100,
      "Ä": 101,
      "Î": 102,
      "Ð": 103,
      "Ø": 104,
      "Û": 105,
      "â": 106,
      "Ċ": 107,
      "Ġ": 108,
      "Ģ": 109,
      "ĥ": 110,
      "Ĩ": 111,
      "Į": 112,
      "İ": 113,
      "Ĵ": 114,
      "ķ": 115,
      "Ł": 116,
      "ER": 117,
      "ME": 118,
      "ON": 119,
      "ION": 120,
      "SS": 121,
      "ESS": 122,
      "EX": 123,
      "PR": 124,
      "PRESS": 125,
      "EXPRESS": 126,
      "EXPRESSION": 127,
      "AME": 128,
      "NT": 129,
      "ĠI": 130,
      "DE": 131,
      "NAME": 132,
      "AL": 133,
      "FI": 134,
      "AT": 135,
      "NTI": 136,
      "FIER": 137,
      "ĠIDE": 138,
      "NTIFIER": 139,
      "ĠIDENTIFIER": 140,
      "ĠIDENTIFIERNAME": 141,
      "TER": 142,
      "AR": 143,
      "OC": 144,
      "CL": 145,
      "EME": 146,
      "er": 147,
      "in": 148,
      "ĠS": 149,
      "Ġ1": 150,
      "LOC": 151,
      "ATION": 152,
      "ALEXPRESSION": 153,
      "ITER": 154,
      "ITERALEXPRESSION": 155,
      "ĠP": 156,
      "ĠPAR": 157,
      "AMETER": 158,
      "ĠPARAMETER": 159,
      "ST": 160,
      "at": 161,
      "ar": 162,
      "ĠLOC": 163,
      "ĠLOCAL": 164,
      "AC": 165,
      "PL": 166,
      "MPL": 167,
      "CESS": 168,
      "ACCESS": 169,
      "ACCESSEXPRESSION": 170,
      "EMENT": 171,
      "IMPL": 172,
      "ĠSIMPL": 173,
      "00": 174,
      "ut": 175,
      "um": 176,
      "ĠN": 177,
      "ATIONEXPRESSION": 178,
      "MB": 179,
      "MBER": 180,
      "EMEMBER": 181,
      "ĠSIMPLEMEMBER": 182,
      "ĠSIMPLEMEMBERACCESSEXPRESSION": 183,
      "ATEMENT": 184,
      "STATEMENT": 185,
      "ĠNU": 186,
      "ĠIN": 187,
      "VOC": 188,
      "ĠINVOC": 189,
      "ĠINVOCATIONEXPRESSION": 190,
      "st": 191,
      "ICL": 192,
      "MER": 193,
      "ĠNUMER": 194,
      "ICLITERALEXPRESSION": 195,
      "ĠNUMERICLITERALEXPRESSION": 196,
      "ber": 197,
      "re": 198,
      "umber": 199,
      "on": 200,
      "al": 201,
      "ing": 202,
      "or": 203,
      "en": 204,
      "DECL": 205,
      "DECLAR": 206,
      "number": 207,
      "ic": 208,
      "IN": 209,
      "SE": 210,
      "ING": 211,
      "RING": 212,
      "ĠE": 213,
      "LITERALEXPRESSION": 214,
      "TY": 215,
      "ĠNAME": 216,
      "put": 217,
      "ring": 218,
      "TYP": 219,
      "TYPE": 220,
      "ĠB": 221,
      "DTYPE": 222,
      "RE": 223,
      "ĠNAMEDTYPE": 224,
      "Ġst": 225,
      "AU": 226,
      "CLAU": 227,
      "CLAUSE": 228,
      "ate": 229,
      "TH": 230,
      "LOCK": 231,
      "ĠBLOCK": 232,
      "AB": 233,
      "LE": 234,
      "ĠV": 235,
      "ABLE": 236,
      "ul": 237,
      "IABLE": 238,
      "ARIABLE": 239,
      "ĠVARIABLE": 240,
      "ĠVARIABLEDECLAR": 241,
      "var": 242,
      "QU": 243,
      "ĠST": 244,
      "ĠSTRING": 245,
      "Ġ$": 246,
      "ĠSTRINGLITERALEXPRESSION": 247,
      "ĠA": 248,
      "ĠC": 249,
      "Ġt": 250,
      "it": 251,
      "der": 252,
      "ALS": 253,
      "QUALS": 254,
      "ĠEQUALS": 255,
      "OD": 256,
      "Ġ2": 257,
      "me": 258,
      "an": 259,
      "ord": 260,
      "ĠIF": 261,
      "ĠIFSTATEMENT": 262,
      "ou": 263,
      "atic": 264,
      "par": 265,
      "out": 266,
      "ĠT": 267,
      "output": 268,
      "Ġstring": 269,
      "ed": 270,
      "<|": 271,
      "|>": 272,
      "bl": 273,
      "ender": 274,
      "OL": 275,
      "Ġ0": 276,
      "0000": 277,
      "he": 278,
      "ro": 279,
      "ver": 280,
      "ĠD": 281,
      "ult": 282,
      "OR": 283,
      "ĠRE": 284,
      "POL": 285,
      "ERPOL": 286,
      "NTERPOL": 287,
      "ĠINTERPOL": 288,
      "ĠME": 289,
      "THOD": 290,
      "ĠMETHOD": 291,
      "EL": 292,
      "TERN": 293,
      "ATTERN": 294,
      "PATTERN": 295,
      "UE": 296,
      "Ġvar": 297,
      "ts": 298,
      "ĠM": 299,
      "ime": 300,
      "am": 301,
      "Ġin": 302,
      "ion": 303,
      "UR": 304,
      "AN": 305,
      "OW": 306,
      "ROW": 307,
      "NSTATEMENT": 308,
      "TUR": 309,
      "ĠRETUR": 310,
      "ĠRETURNSTATEMENT": 311,
      "ĠAR": 312,
      "pu": 313,
      "blic": 314,
      "public": 315,
      "ĠG": 316,
      "Ġd": 317,
      "ATOR": 318,
      "ĠVARIABLEDECLARATOR": 319,
      "ROWEXPRESSION": 320,
      "IT": 321,
      "ĠVARIABLEDECLARATION": 322,
      "un": 323,
      "DECLARATION": 324,
      "VAL": 325,
      "ĠEQUALSVAL": 326,
      "UECLAUSE": 327,
      "ĠEQUALSVALUECLAUSE": 328,
      "FIEL": 329,
      "FIELD": 330,
      "ĠARROWEXPRESSION": 331,
      "ĠARROWEXPRESSIONCLAUSE": 332,
      "ĠLOCALDECLARATION": 333,
      "orm": 334,
      "ĠLOCALDECLARATIONSTATEMENT": 335,
      "es": 336,
      "onver": 337,
      "inal": 338,
      "iz": 339,
      "dd": 340,
      "ĠL": 341,
      "Un": 342,
      "onvert": 343,
      "Ġstatic": 344,
      "Ġnumber": 345,
      "et": 346,
      "ur": 347,
      "ec": 348,
      "word": 349,
      "GN": 350,
      "IGN": 351,
      "ASS": 352,
      "MENT": 353,
      "IGNMENT": 354,
      "ASSIGNMENT": 355,
      "ASSIGNMENTEXPRESSION": 356,
      "is": 357,
      "THAN": 358,
      "ĠAdd": 359,
      "ĠCON": 360,
      "Or": 361,
      "dinal": 362,
      "ĠEL": 363,
      "ĠF": 364,
      "Ġo": 365,
      "parts": 366,
      "Unit": 367,
      "th": 368,
      "Ordinal": 369,
      "as": 370,
      "ri": 371,
      "ED": 372,
      "Ġc": 373,
      "ATED": 374,
      "STRING": 375,
      "ĠINTERPOLATED": 376,
      "ĠINTERPOLATEDSTRING": 377,
      "alu": 378,
      "Ġthe": 379,
      "ĠFIELD": 380,
      "ĠEQUALSEXPRESSION": 381,
      "Time": 382,
      "gender": 383,
      "res": 384,
      "alue": 385,
      "ce": 386,
      "de": 387,
      "ure": 388,
      "rom": 389,
      "Gender": 390,
      "ds": 391,
      "DEXPRESSION": 392,
      "ol": 393,
      "ay": 394,
      "Ġb": 395,
      "ulture": 396,
      "ĠAD": 397,
      "ĠDI": 398,
      "UL": 399,
      "ap": 400,
      "THANEXPRESSION": 401,
      "fi": 402,
      "matic": 403,
      "ram": 404,
      "matical": 405,
      "rammatical": 406,
      "Ġ3": 407,
      "pl": 408,
      "Ġto": 409,
      "our": 410,
      "Ġ100": 411,
      "ize": 412,
      "string": 413,
      "IDE": 414,
      "VIDE": 415,
      "ĠDIVIDE": 416,
      "Ġs": 417,
      "ĠDIVIDEEXPRESSION": 418,
      "Word": 419,
      "yt": 420,
      "ent": 421,
      "CH": 422,
      "ATER": 423,
      "EMENTACCESSEXPRESSION": 424,
      "REATER": 425,
      "ĠGREATER": 426,
      "ĠELEMENTACCESSEXPRESSION": 427,
      "WIT": 428,
      "WITCH": 429,
      "Map": 430,
      "il": 431,
      "ens": 432,
      "Par": 433,
      "rammaticalGender": 434,
      "ex": 435,
      "vi": 436,
      "Ġf": 437,
      "ANT": 438,
      "input": 439,
      "STANT": 440,
      "ĠCONSTANT": 441,
      "ĠCONSTANTPATTERN": 442,
      "ODUL": 443,
      "ĠMODUL": 444,
      "ĠMODULO": 445,
      "ormat": 446,
      "ĠSWITCH": 447,
      "Ġinput": 448,
      "nt": 449,
      "ĠINTERPOLATION": 450,
      "Ġof": 451,
      "param": 452,
      "Convert": 453,
      "Ġdate": 454,
      "St": 455,
      "On": 456,
      "ĠADDEXPRESSION": 457,
      "Ġm": 458,
      "Number": 459,
      "ateTime": 460,
      "int": 461,
      "Ġa": 462,
      "ĠSWITCHEXPRESSION": 463,
      "EASSIGNMENTEXPRESSION": 464,
      "Ġ10000": 465,
      "IC": 466,
      "String": 467,
      "ĠThe": 468,
      "nd": 469,
      "Ġp": 470,
      "ĠSIMPLEASSIGNMENTEXPRESSION": 471,
      "urn": 472,
      "ĠGREATERTHANEXPRESSION": 473,
      "Ġre": 474,
      "Ġ10": 475,
      "dre": 476,
      "undre": 477,
      "To": 478,
      "Ġint": 479,
      "ear": 480,
      "ame": 481,
      "Ġn": 482,
      "value": 483,
      "rovi": 484,
      "TEX": 485,
      "ARM": 486,
      "ĠTo": 487,
      "ĠINTERPOLATEDSTRINGTEX": 488,
      "ĠSWITCHEXPRESSIONARM": 489,
      "ĠINTERPOLATEDSTRINGTEXT": 490,
      "ly": 491,
      "Ġword": 492,
      "em": 493,
      "ays": 494,
      "ĠINTERPOLATEDSTRINGEXPRESSION": 495,
      "Words": 496,
      "ong": 497,
      "ation": 498,
      "ble": 499,
      "ext": 500,
      "urns": 501,
      "gth": 502,
      "ine": 503,
      "ength": 504,
      "CT": 505,
      "ect": 506,
      "pres": 507,
      "Only": 508,
      "pri": 509,
      "ITION": 510,
      "ig": 511,
      "ill": 512,
      "Ġl": 513,
      "GIC": 514,
      "OGIC": 515,
      "ĠLOGIC": 516,
      "ĠLOGICAL": 517,
      "In": 518,
      "vate": 519,
      "uman": 520,
      "[]": 521,
      "private": 522,
      "Sp": 523,
      "GrammaticalGender": 524,
      "Ġ4": 525,
      "ĠConvert": 526,
      "DITION": 527,
      "ĠCONDITION": 528,
      "date": 529,
      "ĠCONDITIONALEXPRESSION": 530,
      "pt": 531,
      "yte": 532,
      "Units": 533,
      "us": 534,
      "fix": 535,
      "ous": 536,
      "Ġprovi": 537,
      "ĠLESS": 538,
      "ve": 539,
      "CRE": 540,
      "CREATIONEXPRESSION": 541,
      "and": 542,
      "DateTime": 543,
      "Get": 544,
      "ded": 545,
      "ĠMODULOEXPRESSION": 546,
      "ized": 547,
      "FIELDS": 548,
      "Part": 549,
      "From": 550,
      "ateOnly": 551,
      "Hour": 552,
      "BJ": 553,
      "ECT": 554,
      "OBJ": 555,
      "ECTCREATIONEXPRESSION": 556,
      "OBJECTCREATIONEXPRESSION": 557,
      "Name": 558,
      "present": 559,
      "undreds": 560,
      "Ġ1000": 561,
      "Value": 562,
      "oc": 563,
      "Ġgender": 564,
      "inut": 565,
      "ot": 566,
      "ular": 567,
      "ytes": 568,
      "Ġrepresent": 569,
      "ace": 570,
      "eg": 571,
      "fa": 572,
      "lect": 573,
      "unc": 574,
      "Tens": 575,
      "econ": 576,
      "Ġprovided": 577,
      "ret": 578,
      "fault": 579,
      "ow": 580,
      "ĠR": 581,
      "ollect": 582,
      "umanize": 583,
      "ORE": 584,
      "ab": 585,
      "unit": 586,
      "Humanize": 587,
      "ad": 588,
      "Ġculture": 589,
      "Ġh": 590,
      "SECLAUSE": 591,
      "ĠGet": 592,
      "eci": 593,
      "ĠELSECLAUSE": 594,
      "Ġfrom": 595,
      "illion": 596,
      "Span": 597,
      "ch": 598,
      "Form": 599,
      "ull": 600,
      "verri": 601,
      "verride": 602,
      "Ġbo": 603,
      "ĠLESSTHANEXPRESSION": 604,
      "Ġoverride": 605,
      "Parts": 606,
      "returns": 607,
      "Ġbool": 608,
      "Ġw": 609,
      "Ġ100000000": 610,
      "ĠMODULOASSIGNMENTEXPRESSION": 611,
      "ĠSU": 612,
      "ĠCA": 613,
      "yteS": 614,
      "econds": 615,
      "asc": 616,
      "result": 617,
      "runc": 618,
      "hous": 619,
      "year": 620,
      "fied": 621,
      "ANDEXPRESSION": 622,
      "ĠSUB": 623,
      "Ex": 624,
      "fo": 625,
      "QUALEXPRESSION": 626,
      "THANORE": 627,
      "THANOREQUALEXPRESSION": 628,
      "ĠGrammaticalGender": 629,
      "ĠLOGICALANDEXPRESSION": 630,
      "ter": 631,
      "Ġus": 632,
      "ALSE": 633,
      "ĠFALSE": 634,
      "ĠFALSELITERALEXPRESSION": 635,
      "long": 636,
      "ural": 637,
      "ase": 638,
      "default": 639,
      "inutes": 640,
      "ual": 641,
      "rec": 642,
      "ouble": 643,
      "OT": 644,
      "onth": 645,
      ":_": 646,
      "DASSIGNMENTEXPRESSION": 647,
      "rent": 648,
      "ingular": 649,
      "urrent": 650,
      "ĠADDASSIGNMENTEXPRESSION": 651,
      "Ġ5": 652,
      "ĠU": 653,
      "ĠOBJECTCREATIONEXPRESSION": 654,
      "om": 655,
      "tens": 656,
      "igit": 657,
      "ount": 658,
      "Of": 659,
      "ey": 660,
      "words": 661,
      "Info": 662,
      "UnitsMap": 663,
      "Format": 664,
      "ist": 665,
      "Ġis": 666,
      "ource": 667,
      "ith": 668,
      "TimeUnit": 669,
      "yteSize": 670,
      "ek": 671,
      "Ġsp": 672,
      "And": 673,
      "Con": 674,
      "eek": 675,
      "ive": 676,
      "inine": 677,
      "STEXPRESSION": 678,
      "ĠLength": 679,
      "Ġ1000000": 680,
      "eminine": 681,
      "ĠCASTEXPRESSION": 682,
      "uline": 683,
      "asculine": 684,
      "ast": 685,
      "culture": 686,
      "rou": 687,
      "refix": 688,
      "ption": 689,
      "Ġbe": 690,
      "ax": 691,
      "ĠFrom": 692,
      "Ġwords": 693,
      "Ġyear": 694,
      "Collect": 695,
      "Ġvalue": 696,
      "ALPATTERN": 697,
      "able": 698,
      "time": 699,
      "ĠDateTime": 700,
      "LL": 701,
      "ĠNULL": 702,
      "ĠDateOnly": 703,
      "Ġrepresenting": 704,
      "Sy": 705,
      "Year": 706,
      "format": 707,
      "ĠTR": 708,
      "Mat": 709,
      "ands": 710,
      "UELITERALEXPRESSION": 711,
      "ocal": 712,
      "ĠTRUELITERALEXPRESSION": 713,
      "Ġ6": 714,
      "Ġth": 715,
      "Ġdays": 716,
      "abytes": 717,
      "onths": 718,
      "Ġspeci": 719,
      "ator": 720,
      "ultureInfo": 721,
      "eeks": 722,
      "ĠNULLLITERALEXPRESSION": 723,
      "ipl": 724,
      "ĠW": 725,
      "ultipl": 726,
      "ĠMasculine": 727,
      "ToOrdinal": 728,
      "()": 729,
      "99": 730,
      "000": 731,
      "ordinal": 732,
      "ception": 733,
      "Ġby": 734,
      "illions": 735,
      "Key": 736,
      "ac": 737,
      "bol": 738,
      "mbol": 739,
      "Ġdouble": 740,
      "ĠFeminine": 741,
      "undred": 742,
      "LATION": 743,
      "Ġ\"": 744,
      "ĠRELATION": 745,
      "Ġlong": 746,
      "ĠRELATIONALPATTERN": 747,
      "Days": 748,
      "Digit": 749,
      "ĠTime": 750,
      "ĠGREATERTHANOREQUALEXPRESSION": 751,
      "ain": 752,
      "lural": 753,
      "ĠIS": 754,
      "ort": 755,
      "Exception": 756,
      "roup": 757,
      "TR": 758,
      "le": 759,
      "PATTERNEXPRESSION": 760,
      "ormal": 761,
      "ĠISPATTERNEXPRESSION": 762,
      "10": 763,
      "DateOnly": 764,
      "IPL": 765,
      "TIPL": 766,
      "ĠMUL": 767,
      "ĠToWords": 768,
      "TIPLY": 769,
      "ĠMULTIPLY": 770,
      "Hundreds": 771,
      "SEXPRESSION": 772,
      "ACT": 773,
      "Ġ1000000000": 774,
      "ĠSUBTR": 775,
      "ĠSUBTRACT": 776,
      "ĠNOT": 777,
      "Ġtime": 778,
      "Thous": 779,
      "to": 780,
      "Ġ7": 781,
      "ĠPR": 782,
      "ĠMULTIPLYEXPRESSION": 783,
      "ders": 784,
      "TensMap": 785,
      "ĠSUBTRACTEXPRESSION": 786,
      "OP": 787,
      "sp": 788,
      "Ġi": 789,
      "ument": 790,
      "ĠPROP": 791,
      "ĠPROPER": 792,
      "Ġas": 793,
      "ree": 794,
      "pty": 795,
      "End": 796,
      "Text": 797,
      "Prefix": 798,
      "resource": 799,
      "COL": 800,
      "For": 801,
      "ĠNAMECOL": 802,
      "ĠNAMECOLON": 803,
      "EQUALS": 804,
      "iv": 805,
      "mpty": 806,
      "Ġunit": 807,
      "dex": 808,
      "Math": 809,
      "ĠNOTEQUALS": 810,
      "ĠNOTEQUALSEXPRESSION": 811,
      "ĠCon": 812,
      "ant": 813,
      "isOrdinal": 814,
      "CollectParts": 815,
      "Ġspecified": 816,
      "MIN": 817,
      "NAR": 818,
      "USEXPRESSION": 819,
      "YMIN": 820,
      "ric": 821,
      "ĠOR": 822,
      "ĠUNAR": 823,
      "YMINUSEXPRESSION": 824,
      "ĠORPATTERN": 825,
      "ĠUNARYMINUSEXPRESSION": 826,
      "DPATTERN": 827,
      "Plural": 828,
      "tion": 829,
      "Ġformat": 830,
      "Ġnull": 831,
      "si": 832,
      "Ġcurrent": 833,
      "ormalized": 834,
      "aUnit": 835,
      "gn": 836,
      "Ġparts": 837,
      "ĠIs": 838,
      "ataUnit": 839,
      "ower": 840,
      "ĠTimeSpan": 841,
      "ĠPROPERTY": 842,
      "Ġg": 843,
      "umer": 844,
      "ode": 845,
      "sed": 846,
      "reate": 847,
      "ĠByteSize": 848,
      "count": 849,
      "qu": 850,
      "ity": 851,
      "Ġrepresentation": 852,
      "runcate": 853,
      "Singular": 854,
      "hundreds": 855,
      "ified": 856,
      "ore": 857,
      "pp": 858,
      "ĠIMPL": 859,
      "ĠCultureInfo": 860,
      "ĠTr": 861,
      "ICIT": 862,
      "ĠToString": 863,
      "ualified": 864,
      "ĠIMPLICIT": 865,
      "Case": 866,
      "SC": 867,
      "mpl": 868,
      "Ġordinal": 869,
      "numberString": 870,
      "ĠList": 871,
      "place": 872,
      "antity": 873,
      "uil": 874,
      "ĠYear": 875,
      "ary": 876,
      "isor": 877,
      "Ġuse": 878,
      "ultipli": 879,
      "ivisor": 880,
      "ge": 881,
      "last": 882,
      "uf": 883,
      "Ġ20": 884,
      "One": 885,
      "ading": 886,
      "ompar": 887,
      "HAR": 888,
      "se": 889,
      "TERLITERALEXPRESSION": 890,
      "ACTERLITERALEXPRESSION": 891,
      "ĠCHAR": 892,
      "ans": 893,
      "etric": 894,
      "ĠIMPLICITOBJECTCREATIONEXPRESSION": 895,
      "ĠCHARACTERLITERALEXPRESSION": 896,
      "id": 897,
      "ost": 898,
      "Ġv": 899,
      "ĠEmpty": 900,
      "ualifiedName": 901,
      "uffix": 902,
      "Length": 903,
      "Ġ8": 904,
      "Ġan": 905,
      "normalized": 906,
      "ĠTH": 907,
      "ĠTri": 908,
      "illis": 909,
      "Ġhour": 910,
      "Thousand": 911,
      "ĠTrim": 912,
      "Di": 913,
      "form": 914,
      "ob": 915,
      "ĠEXPRESSION": 916,
      "ELEMENT": 917,
      "ĠEXPRESSIONELEMENT": 918,
      "Th": 919,
      "its": 920,
      "ĠAddDays": 921,
      "Ġminutes": 922,
      "Formatter": 923,
      "Impl": 924,
      "thous": 925,
      "Ġseconds": 926,
      "Symbol": 927,
      ">:": 928,
      "Ar": 929,
      "cat": 930,
      "ĠJ": 931,
      "rovider": 932,
      "ĠRe": 933,
      "runcation": 934,
      "ĠSUBPATTERN": 935,
      "Ġused": 936,
      "el": 937,
      "ntax": 938,
      "Ġweeks": 939,
      "Ġ1000000000000": 940,
      "ByteSize": 941,
      "ĠHour": 942,
      "ule": 943,
      "ound": 944,
      "Ġday": 945,
      "fig": 946,
      "Ġhours": 947,
      "Create": 948,
      "Minutes": 949,
      "im": 950,
      "ĠOrdinal": 951,
      "ĠPO": 952,
      "atch": 953,
      "Space": 954,
      "ĠConvertToOrdinal": 955,
      "eger": 956,
      "rect": 957,
      "toWords": 958,
      "Ending": 959,
      "With": 960,
      "Ġand": 961,
      "char": 962,
      "Creates": 963,
      "tic": 964,
      "text": 965,
      "ingDi": 966,
      "space": 967,
      "resourceKey": 968,
      "rective": 969,
      "ingDirective": 970,
      "Ġ(": 971,
      "Ġex": 972,
      "ddAnd": 973,
      "ision": 974,
      "WordForm": 975,
      "Ġinteger": 976,
      "recision": 977,
      "ainder": 978,
      "Hundred": 979,
      "ppl": 980,
      "Ġ9": 981,
      "Ġor": 982,
      "Ġun": 983,
      "Uncount": 984,
      "ison": 985,
      "Converter": 986,
      "CTION": 987,
      "ĠLESSTHANOREQUALEXPRESSION": 988,
      "omparison": 989,
      "Uncountable": 990,
      "Set": 991,
      "zen": 992,
      "ĠAs": 993,
      "rozen": 994,
      "eturns": 995,
      "ĠDISC": 996,
      "plural": 997,
      "ĠwordForm": 998,
      "HundredsMap": 999,
      "ticle": 1000,
      "ĠDISCAR": 1001,
      "current": 1002,
      "divisor": 1003,
      "num": 1004,
      "ĠHumanize": 1005,
      "iction": 1006,
      "Under": 1007,
      "ĠAddUncountable": 1008,
      "Ġfor": 1009,
      "Index": 1010,
      "ĠConcat": 1011,
      "ĠAsSpan": 1012,
      "ictionary": 1013,
      "AY": 1014,
      "NOT": 1015,
      "Rule": 1016,
      "RAY": 1017,
      "OREXPRESSION": 1018,
      "ĠLOGICALNOT": 1019,
      "umanized": 1020,
      "ĠTry": 1021,
      "illiseconds": 1022,
      "ĠReplace": 1023,
      "ĠLOGICALNOTEXPRESSION": 1024,
      "Provider": 1025,
      "group": 1026,
      "ĠDays": 1027,
      "Consi": 1028,
      "pply": 1029,
      "Considers": 1030,
      "'s": 1031,
      "Culture": 1032,
      "EEXPRESSION": 1033,
      "od": 1034,
      "oid": 1035,
      "pro": 1036,
      "ĠAb": 1037,
      "esource": 1038,
      "ĠnumberString": 1039,
      "ilob": 1040,
      "ĠLOGICALOREXPRESSION": 1041,
      "inute": 1042,
      "uilder": 1043,
      "normalizedHour": 1044,
      "runcationString": 1045,
      "figur": 1046,
      "Returns": 1047,
      "Ġ12": 1048,
      "Ġtens": 1049,
      "ish": 1050,
      "Ġconvert": 1051,
      "Configur": 1052,
      "Syntax": 1053,
      "reeDigit": 1054,
      "ĠDISCARDPATTERN": 1055,
      "Configurator": 1056,
      "ding": 1057,
      "day": 1058,
      "local": 1059,
      "mal": 1060,
      "Ġ-": 1061,
      "ĠIf": 1062,
      "read": 1063,
      "NumberTo": 1064,
      "Ġlocal": 1065,
      "ocument": 1066,
      "ansform": 1067,
      "Base": 1068,
      "har": 1069,
      "Ġvoid": 1070,
      "omparisonBase": 1071,
      "11": 1072,
      "As": 1073,
      "Suffix": 1074,
      "Wh": 1075,
      "est": 1076,
      "gument": 1077,
      "ust": 1078,
      "extHour": 1079,
      "units": 1080,
      "thousands": 1081,
      "hort": 1082,
      "ove": 1083,
      "Ġme": 1084,
      "ontext": 1085,
      "ĠARRAY": 1086,
      "ess": 1087,
      "Ġnot": 1088,
      "CR": 1089,
      "gular": 1090,
      "ll": 1091,
      "mainder": 1092,
      "oin": 1093,
      "Ġresult": 1094,
      "EMENTEXPRESSION": 1095,
      "ĠEn": 1096,
      "item": 1097,
      "Ġse": 1098,
      "ĠaddAnd": 1099,
      "press": 1100,
      "egex": 1101,
      "ecimal": 1102,
      "ĠFromDateTime": 1103,
      "Ġgrammatical": 1104,
      "ĠAbs": 1105,
      "CREMENTEXPRESSION": 1106,
      "Apply": 1107,
      "double": 1108,
      "efault": 1109,
      "ymbol": 1110,
      "ance": 1111,
      "Ġname": 1112,
      "Namespace": 1113,
      "Is": 1114,
      "Kilob": 1115,
      "Months": 1116,
      "Resource": 1117,
      "Se": 1118,
      "nal": 1119,
      "os": 1120,
      "ForGender": 1121,
      "Ġunits": 1122,
      "ĠPOST": 1123,
      "12": 1124,
      "AEXPRESSION": 1125,
      "AMB": 1126,
      "DAEXPRESSION": 1127,
      "Group": 1128,
      "Numer": 1129,
      "Ro": 1130,
      "agn": 1131,
      "convert": 1132,
      "ew": 1133,
      "ĠNumber": 1134,
      "heading": 1135,
      "Ġinto": 1136,
      "housands": 1137,
      "dersc": 1138,
      "quantity": 1139,
      "runcateFrom": 1140,
      "ostic": 1141,
      "AMBDAEXPRESSION": 1142,
      "agnostic": 1143,
      "Conver": 1144,
      "Qu": 1145,
      "Ten": 1146,
      "full": 1147,
      "rre": 1148,
      "sFrom": 1149,
      "ĠFormat": 1150,
      "Ġret": 1151,
      "ollection": 1152,
      "Ġwith": 1153,
      "ĠWeeks": 1154,
      "EndingForGender": 1155,
      "Converts": 1156,
      "rregular": 1157,
      "13": 1158,
      "DataUnit": 1159,
      "Dictionary": 1160,
      "Tr": 1161,
      "qualifiedName": 1162,
      "end": 1163,
      "ence": 1164,
      "ĠFrozen": 1165,
      "ple": 1166,
      "Ġif": 1167,
      "lastPart": 1168,
      "Root": 1169,
      "SI": 1170,
      "digit": 1171,
      "length": 1172,
      "rt": 1173,
      "truncationString": 1174,
      "Ġvi": 1175,
      "ĠWordForm": 1176,
      "erabytes": 1177,
      "ĠSIMPLEL": 1178,
      "ated": 1179,
      "ĠAr": 1180,
      "ite": 1181,
      "parator": 1182,
      "ROWSTATEMENT": 1183,
      "ign": 1184,
      "igabytes": 1185,
      "ĠUI": 1186,
      "Ġyears": 1187,
      "Ġthread": 1188,
      "ĠTHROWSTATEMENT": 1189,
      "ĠJoin": 1190,
      "ecimals": 1191,
      "rtual": 1192,
      "Ġvirtual": 1193,
      "ĠSIMPLELAMBDAEXPRESSION": 1194,
      "15": 1195,
      "GEEXPRESSION": 1196,
      "Null": 1197,
      "fic": 1198,
      "match": 1199,
      "tain": 1200,
      "ĠH": 1201,
      "rest": 1202,
      "ĠValue": 1203,
      "ange": 1204,
      "ĠMetric": 1205,
      "ANGEEXPRESSION": 1206,
      "Ġsu": 1207,
      "ConvertImpl": 1208,
      "ĠRANGEEXPRESSION": 1209,
      "14": 1210,
      "LAB": 1211,
      "Metric": 1212,
      "SWITCH": 1213,
      "idate": 1214,
      "SECTION": 1215,
      "ĠCO": 1216,
      "ĠDay": 1217,
      "ĠAddMonths": 1218,
      "ĠSWITCHSECTION": 1219,
      "Ġmonths": 1220,
      "Ġmultipl": 1221,
      "Ġlast": 1222,
      "oman": 1223,
      "Quantity": 1224,
      "ĠArgument": 1225,
      "LABEL": 1226,
      "SWITCHLABEL": 1227,
      "CultureInfo": 1228,
      "KSTATEMENT": 1229,
      "Le": 1230,
      "NDPATTERN": 1231,
      "context": 1232,
      "hundred": 1233,
      "iagnostic": 1234,
      "uple": 1235,
      "ĠANDPATTERN": 1236,
      "ĠDate": 1237,
      "OrdinalParts": 1238,
      "Ġread": 1239,
      "Ġhundreds": 1240,
      "ĠFrozenDictionary": 1241,
      "Ġreadable": 1242,
      "AKSTATEMENT": 1243,
      "Char": 1244,
      "Irregular": 1245,
      "Per": 1246,
      "The": 1247,
      "iod": 1248,
      "ph": 1249,
      "sMap": 1250,
      "ĠDECLAR": 1251,
      "ĠBRE": 1252,
      "etter": 1253,
      "wordForm": 1254,
      "ĠAddYear": 1255,
      "plit": 1256,
      "Ġsingular": 1257,
      "andidate": 1258,
      "round": 1259,
      "9999": 1260,
      "Prefixes": 1261,
      "pper": 1262,
      "NumberToText": 1263,
      "White": 1264,
      "Period": 1265,
      "ĠDECLARATIONEXPRESSION": 1266,
      "ĠBREAKSTATEMENT": 1267,
      "ĠAddYears": 1268,
      "WhiteSpace": 1269,
      "CUR": 1270,
      "EPATTERN": 1271,
      "QualifiedName": 1272,
      "Regex": 1273,
      "Range": 1274,
      "VEPATTERN": 1275,
      "ogn": 1276,
      "pon": 1277,
      "singDirective": 1278,
      "Ġon": 1279,
      "revi": 1280,
      "remainder": 1281,
      "alLength": 1282,
      "iter": 1283,
      "ĠRECUR": 1284,
      "Ġmultipli": 1285,
      "Ġlength": 1286,
      "GetUnit": 1287,
      "Hours": 1288,
      "ĠCASE": 1289,
      "recogn": 1290,
      "act": 1291,
      "ThreeDigit": 1292,
      "imiter": 1293,
      "SIVEPATTERN": 1294,
      "ĠRECURSIVEPATTERN": 1295,
      "recognized": 1296,
      "Bytes": 1297,
      "DEX": 1298,
      "NextHour": 1299,
      "comparisonBase": 1300,
      "mon": 1301,
      "Ġe": 1302,
      "Ġplural": 1303,
      "article": 1304,
      "ĠINDEX": 1305,
      "INCREMENTEXPRESSION": 1306,
      "ĠCulture": 1307,
      "ĠAddIrregular": 1308,
      "Ġmilliseconds": 1309,
      "econd": 1310,
      "Ġthree": 1311,
      "ĠTrimEnd": 1312,
      "ĠINDEXEXPRESSION": 1313,
      ").": 1314,
      "20": 1315,
      "HSTATEMENT": 1316,
      "List": 1317,
      "Lower": 1318,
      "Meg": 1319,
      "Power": 1320,
      "Re": 1321,
      "Round": 1322,
      "if": 1323,
      "tot": 1324,
      "Ġheading": 1325,
      "ACHSTATEMENT": 1326,
      "ĠCollect": 1327,
      "ĠDataUnit": 1328,
      "ĠMonths": 1329,
      "ĠMinute": 1330,
      "ĠAddSingular": 1331,
      "ĠFORE": 1332,
      "Ġmax": 1333,
      "Ġhumanized": 1334,
      "tense": 1335,
      "toSymbol": 1336,
      "ĠYearsFrom": 1337,
      "ostfix": 1338,
      "Than": 1339,
      "Ġexpress": 1340,
      "ĠDaysFrom": 1341,
      "naly": 1342,
      "osit": 1343,
      "ĠPOSTINCREMENTEXPRESSION": 1344,
      "ĠWeeksFrom": 1345,
      "ĠDataUnitHumanize": 1346,
      "ĠMonthsFrom": 1347,
      "ĠFOREACHSTATEMENT": 1348,
      "Out": 1349,
      "builder": 1350,
      "limiter": 1351,
      "of": 1352,
      "ray": 1353,
      "sb": 1354,
      "ative": 1355,
      "Ġtext": 1356,
      "delimiter": 1357,
      "dsWith": 1358,
      "ĠtoWords": 1359,
      "Ġform": 1360,
      "UnitsOrdinal": 1361,
      "OfRange": 1362,
      "aces": 1363,
      "Thousands": 1364,
      "ĠEndsWith": 1365,
      "Ġnameof": 1366,
      "Kilobytes": 1367,
      "converted": 1368,
      "derscore": 1369,
      "ponent": 1370,
      "money": 1371,
      "OutOfRange": 1372,
      "Int": 1373,
      "Multipli": 1374,
      "Roman": 1375,
      "brevi": 1376,
      "candidate": 1377,
      "ug": 1378,
      "Ġen": 1379,
      "Ġ11": 1380,
      "numbermoney": 1381,
      "Ġthousands": 1382,
      "parsed": 1383,
      "Ġcode": 1384,
      "alues": 1385,
      "TimeOnly": 1386,
      "Ġmore": 1387,
      "earest": 1388,
      "Ġproviding": 1389,
      "Ġway": 1390,
      "yteSymbol": 1391,
      "Match": 1392,
      "ĠOrdinalize": 1393,
      "ĠTryGet": 1394,
      "Ġmultiply": 1395,
      "ĠArgumentOutOfRange": 1396,
      "Ġmultiplied": 1397,
      "Multiplies": 1398,
      "ĠArgumentOutOfRangeException": 1399,
      "16": 1400,
      "Five": 1401,
      "Turns": 1402,
      "ag": 1403,
      "loc": 1404,
      "Ġk": 1405,
      "art": 1406,
      "ĠNow": 1407,
      "ions": 1408,
      "ash": 1409,
      "assed": 1410,
      "Ġpassed": 1411,
      "Ġnth": 1412,
      "GetOrdinal": 1413,
      "egative": 1414,
      "ascal": 1415,
      "housand": 1416,
      "CollectOrdinalParts": 1417,
      "Exceptions": 1418,
      "Ġordinalized": 1419,
      "ĠdayNumber": 1420,
      "dayNumber": 1421,
      "Numeral": 1422,
      "ĠDateHumanize": 1423,
      "totalLength": 1424,
      "earestFive": 1425,
      "lock": 1426,
      "17": 1427,
      "En": 1428,
      "cal": 1429,
      "eading": 1430,
      "gl": 1431,
      "ix": 1432,
      "ject": 1433,
      "nc": 1434,
      "precision": 1435,
      "ync": 1436,
      "Tense": 1437,
      "Extens": 1438,
      "cultureFormatter": 1439,
      "Ġthat": 1440,
      "quence": 1441,
      "ĠARRAYTYPE": 1442,
      "osition": 1443,
      "ĠTryGetValue": 1444,
      "glish": 1445,
      ".,": 1446,
      "cri": 1447,
      "tect": 1448,
      "uint": 1449,
      "wo": 1450,
      "ers": 1451,
      "ORSTATEMENT": 1452,
      "escri": 1453,
      "ĠFORSTATEMENT": 1454,
      "ther": 1455,
      "Ġcollection": 1456,
      "app": 1457,
      "ember": 1458,
      "ement": 1459,
      "above": 1460,
      "Ġspecific": 1461,
      "ĠWith": 1462,
      "uild": 1463,
      "Array": 1464,
      "imum": 1465,
      "Ġuns": 1466,
      "protect": 1467,
      "Extensions": 1468,
      "protected": 1469,
      "Heading": 1470,
      "Seconds": 1471,
      "document": 1472,
      "ht": 1473,
      "now": 1474,
      "prefix": 1475,
      "Ġoutput": 1476,
      "Ġits": 1477,
      "Ġquantity": 1478,
      "ĠIn": 1479,
      "edException": 1480,
      "edNamespace": 1481,
      "root": 1482,
      "ĠMust": 1483,
      "ĠAddPlural": 1484,
      "asing": 1485,
      "ConvertToOrdinal": 1486,
      "Ġmillions": 1487,
      "StringHumanize": 1488,
      "urned": 1489,
      "ToWords": 1490,
      "abyte": 1491,
      "ĠGetResource": 1492,
      "timeUnit": 1493,
      "OneThousand": 1494,
      "Article": 1495,
      "eler": 1496,
      "groupNumber": 1497,
      "tains": 1498,
      "recognizedWord": 1499,
      "PowerOf": 1500,
      "ifeler": 1501,
      "breviation": 1502,
      "nown": 1503,
      "StringHumanizeExtensions": 1504,
      "IZ": 1505,
      "IAL": 1506,
      "Not": 1507,
      "Node": 1508,
      "Postfix": 1509,
      "Split": 1510,
      "UsingDirective": 1511,
      "has": 1512,
      "next": 1513,
      "pe": 1514,
      "tr": 1515,
      "ĠresourceKey": 1516,
      "EREXPRESSION": 1517,
      "inValue": 1518,
      "ĠSeconds": 1519,
      "ĠPar": 1520,
      "arge": 1521,
      "ĠNe": 1522,
      "ĠNot": 1523,
      "ener": 1524,
      "ĠTh": 1525,
      "ĠMinutes": 1526,
      "ĠMonth": 1527,
      "ITIAL": 1528,
      "OrdinalGender": 1529,
      "OrdinalExceptions": 1530,
      "Ġcon": 1531,
      "usingDirective": 1532,
      "return": 1533,
      "ĠisOrdinal": 1534,
      "pport": 1535,
      "ĠTHROWEXPRESSION": 1536,
      "dayPeriod": 1537,
      "Ġ->": 1538,
      "Ġsequence": 1539,
      "ApplyOrdinalGender": 1540,
      "igned": 1541,
      "Ġunsigned": 1542,
      "IZEREXPRESSION": 1543,
      "ITIALIZEREXPRESSION": 1544,
      "Bits": 1545,
      "ESC": 1546,
      "Eifeler": 1547,
      "Known": 1548,
      "Negative": 1549,
      "Upper": 1550,
      "cess": 1551,
      "een": 1552,
      "hour": 1553,
      "ir": 1554,
      "ken": 1555,
      "ment": 1556,
      "million": 1557,
      "singular": 1558,
      "ted": 1559,
      "ĠKey": 1560,
      "Ġround": 1561,
      "ALESC": 1562,
      "uter": 1563,
      "ĠName": 1564,
      "ĠCount": 1565,
      "000000": 1566,
      "row": 1567,
      "rammaticalNumber": 1568,
      "Token": 1569,
      "Ġnew": 1570,
      "ations": 1571,
      "ationToken": 1572,
      "axValue": 1573,
      "formatter": 1574,
      "acter": 1575,
      "PrefixMap": 1576,
      "placement": 1577,
      "UnderOneThousand": 1578,
      "llationToken": 1579,
      "ancellationToken": 1580,
      "TenMap": 1581,
      "ĠCOALESC": 1582,
      "pha": 1583,
      "PowerOfTenMap": 1584,
      "ĠNeuter": 1585,
      "EifelerRule": 1586,
      "Be": 1587,
      "Feminine": 1588,
      "Gigabytes": 1589,
      "GrammaticalNumber": 1590,
      "Letter": 1591,
      "Million": 1592,
      "No": 1593,
      "Terabytes": 1594,
      "ces": 1595,
      "dec": 1596,
      "new": 1597,
      "sion": 1598,
      "ues": 1599,
      "uary": 1600,
      "ype": 1601,
      "Ġresource": 1602,
      "ĠSt": 1603,
      "all": 1604,
      "Ġtr": 1605,
      "Ġturned": 1606,
      "part": 1607,
      "eds": 1608,
      "ĠMinValue": 1609,
      "ĠMaxValue": 1610,
      "Ġdecimals": 1611,
      "TimeSpan": 1612,
      "exponent": 1613,
      "inputNumber": 1614,
      "Ġms": 1615,
      "vel": 1616,
      "GetEndingForGender": 1617,
      "ortug": 1618,
      "ĠTransform": 1619,
      "Implement": 1620,
      "Ġ1000000000000000": 1621,
      "Ġ1000000000000000000": 1622,
      "Ġorder": 1623,
      "Ġlocale": 1624,
      "Sets": 1625,
      "fullName": 1626,
      "Ġreturns": 1627,
      "Level": 1628,
      "Megabytes": 1629,
      "candidateIndex": 1630,
      "ĠNotImplement": 1631,
      "uese": 1632,
      "ortuguese": 1633,
      "ĠNotImplementedException": 1634,
      "\",": 1635,
      "Gener": 1636,
      "Minute": 1637,
      "NearestFive": 1638,
      "SITION": 1639,
      "eh": 1640,
      "her": 1641,
      "ian": 1642,
      "suffix": 1643,
      "ween": 1644,
      "ind": 1645,
      "ĠSingular": 1646,
      "ĠPow": 1647,
      "ĠPlural": 1648,
      "alpha": 1649,
      "ĠTruncate": 1650,
      "ĠDefault": 1651,
      "Ġdivisor": 1652,
      "Underscore": 1653,
      "etween": 1654,
      "wordPart": 1655,
      "Ġcount": 1656,
      "Ġbetween": 1657,
      "Ġmatch": 1658,
      "ToNearestFive": 1659,
      "ĠToQuantity": 1660,
      "WordsConverter": 1661,
      "ALPATTERNCLAUSE": 1662,
      "ĠContains": 1663,
      "OneHundred": 1664,
      "thousand": 1665,
      "ĠPOSITION": 1666,
      "Transform": 1667,
      "Ġsupport": 1668,
      "GetUnitValue": 1669,
      "convertedNumber": 1670,
      "parsedValue": 1671,
      "lockNot": 1672,
      "ĠPOSITIONALPATTERNCLAUSE": 1673,
      "lockNotation": 1674,
      "Billion": 1675,
      "Builder": 1676,
      "Code": 1677,
      "Empty": 1678,
      "Local": 1679,
      "Less": 1680,
      "Rem": 1681,
      "Type": 1682,
      "bbreviation": 1683,
      "days": 1684,
      "decimals": 1685,
      "ov": 1686,
      "tal": 1687,
      "ero": 1688,
      "ĠSy": 1689,
      "Ġ15": 1690,
      "alid": 1691,
      "enot": 1692,
      "ulong": 1693,
      "PATTERNSWITCHLABEL": 1694,
      "Ġdenot": 1695,
      "iser": 1696,
      "ĠAddHours": 1697,
      "ths": 1698,
      "OrdinalPlural": 1699,
      "OrdinalSingular": 1700,
      "Ġ30": 1701,
      "Parse": 1702,
      "Ġ100000": 1703,
      "Ġprefix": 1704,
      "Ġprecision": 1705,
      "Ġposition": 1706,
      "ToBe": 1707,
      "Ġhundred": 1708,
      "fore": 1709,
      "Formats": 1710,
      "AndUnits": 1711,
      "formatProvider": 1712,
      "ĠOrdinaliz": 1713,
      "process": 1714,
      "Ġconverted": 1715,
      "Async": 1716,
      "items": 1717,
      "IsKnown": 1718,
      "ĠCASEPATTERNSWITCHLABEL": 1719,
      "ThreeDigitSets": 1720,
      "Ġmaximum": 1721,
      "cale": 1722,
      "escription": 1723,
      "ĠParse": 1724,
      "Ġordered": 1725,
      "LessThan": 1726,
      "Ġdenote": 1727,
      "IsKnownToBe": 1728,
      "Analy": 1729,
      "Count": 1730,
      "Masculine": 1731,
      "Pat": 1732,
      "Tri": 1733,
      "Tuple": 1734,
      "bject": 1735,
      "case": 1736,
      "ft": 1737,
      "ho": 1738,
      "iations": 1739,
      "ld": 1740,
      "lag": 1741,
      "millions": 1742,
      "qual": 1743,
      "sis": 1744,
      "wis": 1745,
      "Ġ.": 1746,
      "ĠPascal": 1747,
      "ingNamespace": 1748,
      "LECTION": 1749,
      "ĠApp": 1750,
      "ĠCOL": 1751,
      "Ġvariations": 1752,
      "Ġdist": 1753,
      "onversion": 1754,
      "ĠForm": 1755,
      "ĠcomparisonBase": 1756,
      "Ġset": 1757,
      "Ġabbreviation": 1758,
      "ĠToLower": 1759,
      "ight": 1760,
      "Ġ42": 1761,
      "ussi": 1762,
      "ĠReg": 1763,
      "abyteSymbol": 1764,
      "runcator": 1765,
      "AndSplit": 1766,
      "timeParts": 1767,
      "formats": 1768,
      "ordinalValue": 1769,
      "groupLevel": 1770,
      "Separator": 1771,
      "fullNumber": 1772,
      "matchedNamespace": 1773,
      "Character": 1774,
      "Rounding": 1775,
      "ĠCollectParts": 1776,
      "Ġenum": 1777,
      "Ġsupporting": 1778,
      "lockNotationRounding": 1779,
      "Analysis": 1780,
      "Path": 1781,
      "wise": 1782,
      "ĠAppend": 1783,
      "ĠCOLLECTION": 1784,
      "Ġdistance": 1785,
      "ussian": 1786,
      "Characters": 1787,
      "Ab": 1788,
      "Document": 1789,
      "Enum": 1790,
      "NING": 1791,
      "eeds": 1792,
      "for": 1793,
      "how": 1794,
      "ivi": 1795,
      "multipli": 1796,
      "Ġr": 1797,
      "ĠĠ": 1798,
      "index": 1799,
      "arts": 1800,
      "ardinal": 1801,
      "reat": 1802,
      "Ġtwo": 1803,
      "itle": 1804,
      "ĠDictionary": 1805,
      "esol": 1806,
      "Ġnumbers": 1807,
      "Ġcase": 1808,
      "Str": 1809,
      "ToNumber": 1810,
      "veFor": 1811,
      "umeric": 1812,
      "normalizedMinutes": 1813,
      "illisecond": 1814,
      "ustom": 1815,
      "ĠHas": 1816,
      "articleNextHour": 1817,
      "UnitsOrdinalPrefixes": 1818,
      "Generated": 1819,
      "eedsAnd": 1820,
      "ivided": 1821,
      "multiplier": 1822,
      "esolveFor": 1823,
      "Al": 1824,
      "At": 1825,
      "AHundred": 1826,
      "All": 1827,
      "Fix": 1828,
      "Large": 1829,
      "Month": 1830,
      "Millions": 1831,
      "NITIALIZEREXPRESSION": 1832,
      "Over": 1833,
      "Pro": 1834,
      "Portuguese": 1835,
      "Zero": 1836,
      "eb": 1837,
      "tri": 1838,
      "tric": 1839,
      "up": 1840,
      "Ġar": 1841,
      "Ġap": 1842,
      "ĠQualifiedName": 1843,
      "EXEL": 1844,
      "AThousand": 1845,
      "NTINITIALIZEREXPRESSION": 1846,
      "EMENTINITIALIZEREXPRESSION": 1847,
      "ĠSe": 1848,
      "MPLEXEL": 1849,
      "ĠNormal": 1850,
      "one": 1851,
      "ates": 1852,
      "ules": 1853,
      "med": 1854,
      "hes": 1855,
      "ĠDiagnostic": 1856,
      "ĠMeg": 1857,
      "ĠMillions": 1858,
      "unrecognizedWord": 1859,
      "ĠFunc": 1860,
      "Ordinalize": 1861,
      "Ġchar": 1862,
      "Ġsame": 1863,
      "Ġnormalized": 1864,
      "use": 1865,
      "ĠResolveFor": 1866,
      "Express": 1867,
      "tensAndUnits": 1868,
      "ister": 1869,
      "Ġ10000000": 1870,
      "ĠWeek": 1871,
      "Digits": 1872,
      "ĠTimeUnit": 1873,
      "ĠIsNull": 1874,
      "ompare": 1875,
      "ansfor": 1876,
      "SyntaxRoot": 1877,
      "NumberToWordsConverter": 1878,
      "Ġmetric": 1879,
      "Ġseparator": 1880,
      "ĠCOMPLEXEL": 1881,
      "QuantityAs": 1882,
      "ĠCASESWITCHLABEL": 1883,
      "ashSet": 1884,
      "GetOrdinalEndingForGender": 1885,
      "NumeralFormats": 1886,
      "append": 1887,
      "ĠStarts": 1888,
      "ĠPluralize": 1889,
      "LessThanTen": 1890,
      "ĠCOLLECTIONEXPRESSION": 1891,
      "howQuantityAs": 1892,
      "reater": 1893,
      "Expression": 1894,
      "ĠIsNullOr": 1895,
      "ansformed": 1896,
      "ĠCOMPLEXELEMENTINITIALIZEREXPRESSION": 1897,
      "ĠStartsWith": 1898,
      "18": 1899,
      "?>": 1900,
      "Build": 1901,
      "OON": 1902,
      "Old": 1903,
      "TruncateFrom": 1904,
      "ak": 1905,
      "addAnd": 1906,
      "air": 1907,
      "byte": 1908,
      "collection": 1909,
      "dRoot": 1910,
      "kv": 1911,
      "max": 1912,
      "nextHour": 1913,
      "needsAnd": 1914,
      "size": 1915,
      "short": 1916,
      "ze": 1917,
      "Ġit": 1918,
      "ĠDECLARATION": 1919,
      "DECREMENTEXPRESSION": 1920,
      "ingle": 1921,
      "TYPATTERN": 1922,
      "ĠAnaly": 1923,
      "ĠCurrent": 1924,
      "ĠCreate": 1925,
      "Ġtruncation": 1926,
      "ĠtruncationString": 1927,
      "anuary": 1928,
      "ĠIFormat": 1929,
      "parent": 1930,
      "ĠThousands": 1931,
      "ĠTruncateFrom": 1932,
      "edForm": 1933,
      "ĠMillisecond": 1934,
      "ispl": 1935,
      "isNegative": 1936,
      "OrdinalsMap": 1937,
      "asWhiteSpace": 1938,
      "Ġcom": 1939,
      "Ġconversion": 1940,
      "ole": 1941,
      "via": 1942,
      "ĠToOrdinal": 1943,
      "ĠTotal": 1944,
      "WordsToNumber": 1945,
      "InA": 1946,
      "Speci": 1947,
      "datedRoot": 1948,
      "ushort": 1949,
      "Namesp": 1950,
      "unction": 1951,
      "Ġwh": 1952,
      "Ġusing": 1953,
      "defaultGender": 1954,
      "ĠWH": 1955,
      "DaysInA": 1956,
      "span": 1957,
      "ĠPROPERTYPATTERN": 1958,
      "Textreturn": 1959,
      "Ġformats": 1960,
      "ĠformatProvider": 1961,
      "ĠJanuary": 1962,
      "ĠTryConvert": 1963,
      "SyntaxNode": 1964,
      "Whole": 1965,
      "Try": 1966,
      "sbyte": 1967,
      "IntB": 1968,
      "English": 1969,
      "ĠGetResourceKey": 1970,
      "dayPeriodNextHour": 1971,
      "ĠSingularize": 1972,
      "Remainder": 1973,
      "ĠSyntax": 1974,
      "Trivia": 1975,
      "quals": 1976,
      "ĠAppendFormat": 1977,
      "ussianGrammaticalNumber": 1978,
      "updatedRoot": 1979,
      "ĠResolveForCulture": 1980,
      "OldNamesp": 1981,
      "ĠDECLARATIONPATTERN": 1982,
      "ĠAnalyze": 1983,
      "isplay": 1984,
      "ĠPROPERTYPATTERNCLAUSE": 1985,
      "OldNamespaces": 1986,
      "Default": 1987,
      "Greater": 1988,
      "If": 1989,
      "IEn": 1990,
      "RussianGrammaticalNumber": 1991,
      "Sign": 1992,
      "cul": 1993,
      "ip": 1994,
      "mber": 1995,
      "ores": 1996,
      "provider": 1997,
      "ernal": 1998,
      "ĠSecond": 1999,
      "uture": 2000,
      "rep": 2001,
      "alcul": 2002,
      "ended": 2003,
      "numberOf": 2004,
      "ical": 2005,
      "ĠEquals": 2006,
      "ĠBillions": 2007,
      "Ġtruncate": 2008,
      "Ġthousand": 2009,
      "parated": 2010,
      "Ġinc": 2011,
      "Ġdefault": 2012,
      "ization": 2013,
      "Ġother": 2014,
      "Ġobject": 2015,
      "Ġbytes": 2016,
      "Ġsymbol": 2017,
      "Ġfull": 2018,
      "ĠSWITCHSTATEMENT": 2019,
      "Ġdates": 2020,
      "Ġremainder": 2021,
      "Ġnum": 2022,
      "Ġnext": 2023,
      "ĠToMetric": 2024,
      "pressed": 2025,
      "OnlySpan": 2026,
      "GetTens": 2027,
      "ĠRound": 2028,
      "ĠRegex": 2029,
      "adOnlySpan": 2030,
      "Ġhuman": 2031,
      "Ġ60": 2032,
      "999": 2033,
      "ĠtimeUnit": 2034,
      "Pluralized": 2035,
      "umerable": 2036,
      "lastNumber": 2037,
      "Symbols": 2038,
      "ell": 2039,
      "ĠHours": 2040,
      "Ġexpressed": 2041,
      "recisionHumanize": 2042,
      "Ġundersc": 2043,
      "ĠEnglish": 2044,
      "ĠPOSTDECREMENTEXPRESSION": 2045,
      "converter": 2046,
      "Ġforms": 2047,
      "ĠIndex": 2048,
      "ĠThrow": 2049,
      "cessed": 2050,
      "here": 2051,
      "Localiser": 2052,
      "ĠRegister": 2053,
      "Above": 2054,
      "Processed": 2055,
      "usePrefixMap": 2056,
      "ĠIFormatProvider": 2057,
      "GreaterThan": 2058,
      "IEnumerable": 2059,
      "Ġunderscores": 2060,
      "19": 2061,
      "65": 2062,
      "By": 2063,
      "Bit": 2064,
      "Cardinal": 2065,
      "Found": 2066,
      "Last": 2067,
      "Milliseconds": 2068,
      "bin": 2069,
      "but": 2070,
      "billions": 2071,
      "ck": 2072,
      "diagnostic": 2073,
      "divided": 2074,
      "frozen": 2075,
      "junction": 2076,
      "kip": 2077,
      "ms": 2078,
      "over": 2079,
      "rst": 2080,
      "ser": 2081,
      "Ġfi": 2082,
      "Ġ13": 2083,
      "stem": 2084,
      "ory": 2085,
      "numberAnd": 2086,
      "ĠBytes": 2087,
      "ABLETYPE": 2088,
      "ĠAn": 2089,
      "heck": 2090,
      "ĠDeh": 2091,
      "ĠMilliseconds": 2092,
      "under": 2093,
      "izes": 2094,
      "ĠAddMinutes": 2095,
      "ĠAddSeconds": 2096,
      "ĠFuture": 2097,
      "OrdinalSuffix": 2098,
      "Ġcontext": 2099,
      "Ġcasing": 2100,
      "Ġbillions": 2101,
      "Ġshort": 2102,
      "entence": 2103,
      "Start": 2104,
      "NumberForm": 2105,
      "StringC": 2106,
      "ToString": 2107,
      "presentation": 2108,
      "TensOrdinal": 2109,
      "ĠGetNumberToWordsConverter": 2110,
      "Context": 2111,
      "ĠNULLABLETYPE": 2112,
      "Ġthis": 2113,
      "DigitOrdinal": 2114,
      "iven": 2115,
      "ĠConfig": 2116,
      "CollectPartsUnderOneThousand": 2117,
      "ĠIsWhiteSpace": 2118,
      "ĠIsLetter": 2119,
      "Ġgiven": 2120,
      "Argument": 2121,
      "UnderAThousand": 2122,
      "Ġlocalized": 2123,
      "Ġmeg": 2124,
      "RootMap": 2125,
      "Ġsuch": 2126,
      "hundredRemainder": 2127,
      "Ġone": 2128,
      "nextWord": 2129,
      "transformed": 2130,
      "millionPart": 2131,
      "ĠCOALESCEASSIGNMENTEXPRESSION": 2132,
      "NoMatch": 2133,
      "foreOneHundred": 2134,
      "Attri": 2135,
      "ĠQualifiedNameSyntax": 2136,
      "Ġcombin": 2137,
      "Special": 2138,
      "WholeNumber": 2139,
      "EnglishCulture": 2140,
      "numberAndWord": 2141,
      "ĠConfigure": 2142,
      "Attribut": 2143,
      "\").": 2144,
      "32": 2145,
      "45": 2146,
      "CI": 2147,
      "ECI": 2148,
      "FAU": 2149,
      "Flag": 2150,
      "ILE": 2151,
      "KS": 2152,
      "Kind": 2153,
      "LT": 2154,
      "PECI": 2155,
      "RAN": 2156,
      "TIN": 2157,
      "ail": 2158,
      "age": 2159,
      "dish": 2160,
      "feminine": 2161,
      "lu": 2162,
      "masculine": 2163,
      "ns": 2164,
      "numeric": 2165,
      "ome": 2166,
      "ose": 2167,
      "ue": 2168,
      "Ġ=": 2169,
      "Ġy": 2170,
      "ĠDE": 2171,
      "Ġitem": 2172,
      "Ġ9999": 2173,
      "inUnit": 2174,
      "arsi": 2175,
      "numberValue": 2176,
      "ĠBits": 2177,
      "ang": 2178,
      "ĠTens": 2179,
      "UESTATEMENT": 2180,
      "urdish": 2181,
      "wordBuilder": 2182,
      "isLessThanTen": 2183,
      "ĠCONTIN": 2184,
      "threeDigit": 2185,
      "Ġ365": 2186,
      "ĠDIVIDEASSIGNMENTEXPRESSION": 2187,
      "Numbers": 2188,
      "Ġrest": 2189,
      "Ġletter": 2190,
      "ĠGetFormatter": 2191,
      "Ġweek": 2192,
      "ĠUsingDirective": 2193,
      "Ġspaces": 2194,
      "ĠFromBytes": 2195,
      "ĠFromKilobytes": 2196,
      "ĠFromGigabytes": 2197,
      "ĠFromTerabytes": 2198,
      "ĠFromMegabytes": 2199,
      "ĠNOTPATTERN": 2200,
      "speci": 2201,
      "ForLower": 2202,
      "Ġvalues": 2203,
      "forms": 2204,
      "ĠHoursFrom": 2205,
      "spaceName": 2206,
      "ĠTryParse": 2207,
      "thousandsPart": 2208,
      "ĠARRAYRAN": 2209,
      "Groups": 2210,
      "Numerical": 2211,
      "NullException": 2212,
      "taining": 2213,
      "ĠlastPart": 2214,
      "ReadOnlySpan": 2215,
      "RomanNumeral": 2216,
      "artIndex": 2217,
      "ĠSecondsFrom": 2218,
      "ĠMinutesFrom": 2219,
      "ĠroundToNearestFive": 2220,
      "ĠCOALESCEEXPRESSION": 2221,
      "alphaNumerical": 2222,
      "UnderscoreRegex": 2223,
      "itemsArray": 2224,
      "hoose": 2225,
      "ĠPascalCase": 2226,
      "AnalysisContext": 2227,
      "ĠToOrdinalWords": 2228,
      "ĠWHILE": 2229,
      "IfNull": 2230,
      "ĠfullName": 2231,
      "ĠThrowIfNull": 2232,
      "ArgumentNullException": 2233,
      "Attribute": 2234,
      "FAULT": 2235,
      "KSPECI": 2236,
      "numericValue": 2237,
      "ĠDEFAULT": 2238,
      "ĠCONTINUESTATEMENT": 2239,
      "ĠARRAYRANKSPECI": 2240,
      "ĠWHILESTATEMENT": 2241,
      "ĠARRAYRANKSPECIFIER": 2242,
      "\")": 2243,
      "\".": 2244,
      "23": 2245,
      "Ac": 2246,
      "Casing": 2247,
      "Calcul": 2248,
      "Dual": 2249,
      "Hunder": 2250,
      "ISEXPRESSION": 2251,
      "Mor": 2252,
      "MOR": 2253,
      "NOON": 2254,
      "Pascal": 2255,
      "Rest": 2256,
      "Weeks": 2257,
      "WasWhiteSpace": 2258,
      "be": 2259,
      "description": 2260,
      "eens": 2261,
      "gor": 2262,
      "iant": 2263,
      "impl": 2264,
      "ks": 2265,
      "no": 2266,
      "ning": 2267,
      "port": 2268,
      "ra": 2269,
      "rd": 2270,
      "scale": 2271,
      "truncateFrom": 2272,
      "uan": 2273,
      "yph": 2274,
      "Ġ'": 2275,
      "Ġpar": 2276,
      "ĠHundreds": 2277,
      "ĠKilobytes": 2278,
      "Ġall": 2279,
      "ĠSplit": 2280,
      "Ġ14": 2281,
      "Ġ19": 2282,
      "ĠPrecisionHumanize": 2283,
      "rem": 2284,
      "icks": 2285,
      "ĠEx": 2286,
      "ĠBuild": 2287,
      "uld": 2288,
      "variant": 2289,
      "ĠApply": 2290,
      "ĠAll": 2291,
      "ĠClockNotationRounding": 2292,
      "Ġts": 2293,
      "Ġterabytes": 2294,
      "Ġtruncator": 2295,
      "ital": 2296,
      "itive": 2297,
      "ĠTerabytes": 2298,
      "ĠTicks": 2299,
      "ĠDec": 2300,
      "Ġinst": 2301,
      "ĠGigabytes": 2302,
      "Ġdiagnostic": 2303,
      "etect": 2304,
      "OrDigit": 2305,
      "ĠFact": 2306,
      "OrdinalUnitsMap": 2307,
      "OrdinalTensMap": 2308,
      "Ġcustom": 2309,
      "apital": 2310,
      "rammaticalCase": 2311,
      "Ġscale": 2312,
      "inputIsKnownToBe": 2313,
      "ĠinputIsKnownToBe": 2314,
      "Ġac": 2315,
      "Ġrem": 2316,
      "ToTuple": 2317,
      "Ġno": 2318,
      "iginal": 2319,
      "Input": 2320,
      "DateTimeHumanize": 2321,
      "GetResource": 2322,
      "ĠResource": 2323,
      "Ġhas": 2324,
      "ĠGetUnit": 2325,
      "Exact": 2326,
      "OfThousand": 2327,
      "ithms": 2328,
      "ithuan": 2329,
      "ĠFromBits": 2330,
      "timespan": 2331,
      "gnore": 2332,
      "ĠTimeSpanHumanize": 2333,
      "Ġgigabytes": 2334,
      "hundredsPart": 2335,
      "ĠTHISEXPRESSION": 2336,
      "object": 2337,
      "ĠunrecognizedWord": 2338,
      "pluralFormat": 2339,
      "ilobytes": 2340,
      "Ġtense": 2341,
      "Ġmember": 2342,
      "ĠgrammaticalCase": 2343,
      "Ġreturn": 2344,
      "matchEnding": 2345,
      "roundToNearestFive": 2346,
      "BytesIn": 2347,
      "Representation": 2348,
      "derscored": 2349,
      "Ġkilobytes": 2350,
      "singulars": 2351,
      "ianNumberForm": 2352,
      "suffixLength": 2353,
      "alphaCount": 2354,
      "ĠDefaultHumanize": 2355,
      "ĠOrdinalizer": 2356,
      "ĠOrdinalizers": 2357,
      "CharactersWasWhiteSpace": 2358,
      "Algor": 2359,
      "OverAHundred": 2360,
      "Ġappl": 2361,
      "ĠMegabytes": 2362,
      "ĠIsNullOrWhiteSpace": 2363,
      "ĠCurrentCulture": 2364,
      "Ġtruncated": 2365,
      "Ġinclu": 2366,
      "Ġotherwise": 2367,
      "ByGender": 2368,
      "overTens": 2369,
      "StringComparison": 2370,
      "ĠIsLetterOrDigit": 2371,
      "Ġmegabytes": 2372,
      "specific": 2373,
      "Action": 2374,
      "DualPostfix": 2375,
      "Hunderds": 2376,
      "Morning": 2377,
      "MORNING": 2378,
      "beforeOneHundred": 2379,
      "imple": 2380,
      "ĠDecember": 2381,
      "DateTimeHumanizeAlgor": 2382,
      "ExactOrdinal": 2383,
      "ithuanianNumberForm": 2384,
      "gnoreCase": 2385,
      "DateTimeHumanizeAlgorithms": 2386,
      "),": 2387,
      "22": 2388,
      "25": 2389,
      "?:": 2390,
      "Aw": 2391,
      "AIT": 2392,
      "ClockNotationRounding": 2393,
      "Day": 2394,
      "Gig": 2395,
      "IgnoreCase": 2396,
      "Len": 2397,
      "Loc": 2398,
      "Lak": 2399,
      "LithuanianNumberForm": 2400,
      "Man": 2401,
      "Pair": 2402,
      "Rules": 2403,
      "Short": 2404,
      "Ter": 2405,
      "Vow": 2406,
      "Values": 2407,
      "WAIT": 2408,
      "au": 2409,
      "ait": 2410,
      "ach": 2411,
      "cord": 2412,
      "dic": 2413,
      "dataUnit": 2414,
      "ef": 2415,
      "eve": 2416,
      "fect": 2417,
      "humanized": 2418,
      "ies": 2419,
      "map": 2420,
      "oes": 2421,
      "per": 2422,
      "ty": 2423,
      "upper": 2424,
      "val": 2425,
      "Ġ&": 2426,
      "ĠO": 2427,
      "Ġet": 2428,
      "Ġroot": 2429,
      "ARRAY": 2430,
      "ĠSp": 2431,
      "ĠPast": 2432,
      "ĠNearestFive": 2433,
      "alse": 2434,
      "ors": 2435,
      "INITIALIZEREXPRESSION": 2436,
      "ĠAWAIT": 2437,
      "ĠCan": 2438,
      "ĠCancellationToken": 2439,
      "ĠCompare": 2440,
      "ĠTas": 2441,
      "ĠTitle": 2442,
      "ĠTLocaliser": 2443,
      "hether": 2444,
      "ĠMap": 2445,
      "amp": 2446,
      "Ġindic": 2447,
      "ĠGender": 2448,
      "three": 2449,
      "thod": 2450,
      "ased": 2451,
      "ashes": 2452,
      "rieve": 2453,
      "Ġcapital": 2454,
      "Ġbits": 2455,
      "Ġbased": 2456,
      "Ones": 2457,
      "internal": 2458,
      "Ġreplacement": 2459,
      "ĠToRoman": 2460,
      "Ġli": 2461,
      "Ġ45": 2462,
      "ĠConvertToTuple": 2463,
      "Ġprovider": 2464,
      "GetPart": 2465,
      "GetHundreds": 2466,
      "ocab": 2467,
      "ĠRoman": 2468,
      "ades": 2469,
      "ĠGetOrdinal": 2470,
      "ĠGetSyntaxRoot": 2471,
      "years": 2472,
      "iveLength": 2473,
      "ĠFromRoman": 2474,
      "ToOrdinalOverAHundred": 2475,
      "Ġasync": 2476,
      "owercase": 2477,
      "Ġgroup": 2478,
      "Ġvalid": 2479,
      "ĠOrdinalIgnoreCase": 2480,
      "Ġexponent": 2481,
      "Ġoriginal": 2482,
      "SetConverter": 2483,
      "plurals": 2484,
      "readable": 2485,
      "Ġlocales": 2486,
      "Ġmethod": 2487,
      "Kilobyte": 2488,
      "Ġretrieve": 2489,
      "ĠHashSet": 2490,
      "MetricNumeralFormats": 2491,
      "ĠArgumentException": 2492,
      "Leading": 2493,
      "RegexGenerated": 2494,
      "actory": 2495,
      "ĠCollectOrdinalParts": 2496,
      "ĠmaxUnit": 2497,
      "Ġtextual": 2498,
      "ager": 2499,
      "ĠWithSpace": 2500,
      "Headings": 2501,
      "hasTens": 2502,
      "nextSet": 2503,
      "Ġcontaining": 2504,
      "returnPluralized": 2505,
      "Ġtransform": 2506,
      "Ġtrue": 2507,
      "partGender": 2508,
      "Transforms": 2509,
      "ĠnormalizedMinutes": 2510,
      "sizePart": 2511,
      "TryConvert": 2512,
      "reposition": 2513,
      "ĠIndexOf": 2514,
      "GreaterThanOneHundred": 2515,
      "serted": 2516,
      "ĠConfigureAw": 2517,
      "Calculates": 2518,
      "Ġaccord": 2519,
      "Ġincluding": 2520,
      "Lakh": 2521,
      "Manager": 2522,
      "Vowel": 2523,
      "aucal": 2524,
      "fectiveLength": 2525,
      "Ġetc": 2526,
      "ARRAYCREATIONEXPRESSION": 2527,
      "ĠNearestFiveMinutes": 2528,
      "ĠAWAITEXPRESSION": 2529,
      "ĠTask": 2530,
      "ocabular": 2531,
      "ĠGetSyntaxRootAsync": 2532,
      "ĠConfigureAwait": 2533,
      "Ġaccording": 2534,
      "24": 2535,
      "An": 2536,
      "BIN": 2537,
      "Billions": 2538,
      "Choose": 2539,
      "DING": 2540,
      "Date": 2541,
      "Descri": 2542,
      "Description": 2543,
      "Fi": 2544,
      "Farsi": 2545,
      "Factory": 2546,
      "HashSet": 2547,
      "Kurdish": 2548,
      "LABLE": 2549,
      "More": 2550,
      "Mess": 2551,
      "NUL": 2552,
      "Next": 2553,
      "PPRESS": 2554,
      "Qualified": 2555,
      "Res": 2556,
      "Right": 2557,
      "Simple": 2558,
      "Tw": 2559,
      "Truncate": 2560,
      "Two": 2561,
      "Teens": 2562,
      "WAR": 2563,
      "cto": 2564,
      "cancellationToken": 2565,
      "ches": 2566,
      "dPart": 2567,
      "eft": 2568,
      "ght": 2569,
      "hang": 2570,
      "join": 2571,
      "ke": 2572,
      "les": 2573,
      "mm": 2574,
      "name": 2575,
      "ror": 2576,
      "rdinal": 2577,
      "ruary": 2578,
      "sOfThousand": 2579,
      "ub": 2580,
      "yle": 2581,
      "ÎŁ": 2582,
      "âĨ": 2583,
      "Ġ,": 2584,
      "Ġ:": 2585,
      "Ġ_": 2586,
      "ĠTYPE": 2587,
      "Ġparsed": 2588,
      "ĠZero": 2589,
      "ĠupdatedRoot": 2590,
      "ĠâĨ": 2591,
      "ĠImm": 2592,
      "ALACCESSEXPRESSION": 2593,
      "erval": 2594,
      "error": 2595,
      "ĠSub": 2596,
      "atches": 2597,
      "arch": 2598,
      "utable": 2599,
      "ĠNode": 2600,
      "ĠNov": 2601,
      "MBERBIN": 2602,
      "startIndex": 2603,
      "replacement": 2604,
      "ingTrivia": 2605,
      "enitive": 2606,
      "ich": 2607,
      "ĠByte": 2608,
      "uly": 2609,
      "ĠApri": 2610,
      "ĠAug": 2611,
      "Ġten": 2612,
      "itwise": 2613,
      "edMinutes": 2614,
      "ĠMEMBERBIN": 2615,
      "ĠMay": 2616,
      "ĠMarch": 2617,
      "Ġindex": 2618,
      "ĠGrammaticalCase": 2619,
      "Ġdocument": 2620,
      "Ġdashes": 2621,
      "une": 2622,
      "unrecognized": 2623,
      "isers": 2624,
      "isExactOrdinal": 2625,
      "isGreaterThanOneHundred": 2626,
      "OrMore": 2627,
      "ĠFeb": 2628,
      "OrdinalHundredsMap": 2629,
      "right": 2630,
      "ĠcancellationToken": 2631,
      "Ġcall": 2632,
      "TimeValue": 2633,
      "oldPart": 2634,
      "Ġbillion": 2635,
      "Ġbitwise": 2636,
      "Ġ35": 2637,
      "ĠtoSymbol": 2638,
      "ources": 2639,
      "izeHour": 2640,
      "Ġskip": 2641,
      "Ġfound": 2642,
      "Ġfalse": 2643,
      "ConvertIntB": 2644,
      "OnLast": 2645,
      "NumberWord": 2646,
      "NumberFormat": 2647,
      "NumbersMap": 2648,
      "amel": 2649,
      "ĠToNumber": 2650,
      "ĠToInt": 2651,
      "ĠToUpper": 2652,
      "emp": 2653,
      "emove": 2654,
      "WordsProcessed": 2655,
      "ills": 2656,
      "Ġlowercase": 2657,
      "Ġ40": 2658,
      "ĠConvertImpl": 2659,
      "ĠConvertIntB": 2660,
      "ĠCONDITIONALACCESSEXPRESSION": 2661,
      "ptor": 2662,
      "ptember": 2663,
      "GetUnits": 2664,
      "NameText": 2665,
      "ValueDigits": 2666,
      "uncount": 2667,
      "owest": 2668,
      "ĠRemove": 2669,
      "ĠcultureFormatter": 2670,
      "Ġhyph": 2671,
      "ĠGetRe": 2672,
      "ĠGetLoc": 2673,
      "ĠSUPPRESS": 2674,
      "runcher": 2675,
      "Ġ50": 2676,
      "Ġ55": 2677,
      "OfT": 2678,
      "Formatted": 2679,
      "Ġspace": 2680,
      "Ġspell": 2681,
      "ĠFromMetric": 2682,
      "ĠWhere": 2683,
      "ack": 2684,
      "ĠTimeOnly": 2685,
      "Ġirregular": 2686,
      "ForGrammaticalNumber": 2687,
      "Ġformatter": 2688,
      "umeration": 2689,
      "lastCharactersWasWhiteSpace": 2690,
      "OneForGrammaticalNumber": 2691,
      "separator": 2692,
      "ĠTrimStart": 2693,
      "Diagnostic": 2694,
      "ĠJuly": 2695,
      "ĠJune": 2696,
      "ĠReport": 2697,
      "eld": 2698,
      "Ġunderscored": 2699,
      "ĠReplaceNode": 2700,
      "ishFormatter": 2701,
      "Ġconverter": 2702,
      "ApplyGender": 2703,
      "ApplyRules": 2704,
      "GroupsMap": 2705,
      "Trail": 2706,
      "matchingNamespace": 2707,
      "ĠMetricNumeralFormats": 2708,
      "Left": 2709,
      "Ġeach": 2710,
      "PowersOfThousand": 2711,
      "iff": 2712,
      "Ġenumeration": 2713,
      "MatchingNamespace": 2714,
      "Ġkey": 2715,
      "appended": 2716,
      "ĠWithSyntaxRoot": 2717,
      "hasOrdinal": 2718,
      "argest": 2719,
      "placementName": 2720,
      "EifelerRuleSuffix": 2721,
      "decades": 2722,
      "partToString": 2723,
      "ĠmatchedNamespace": 2724,
      "Transformer": 2725,
      "CodeAnalysis": 2726,
      "EmptyUnits": 2727,
      "TypeOfT": 2728,
      "thsRootMap": 2729,
      "TupleMap": 2730,
      "hould": 2731,
      "ĠPascalize": 2732,
      "NINGEXPRESSION": 2733,
      "Ġrule": 2734,
      "ĠHasValue": 2735,
      "AllProvider": 2736,
      "Ġare": 2737,
      "ĠSelect": 2738,
      "ĠSeptember": 2739,
      "ĠDiagnosticDescri": 2740,
      "parentName": 2741,
      "parentQualified": 2742,
      "WordsToNumberConverter": 2743,
      "Ġwhich": 2744,
      "DaysInAMonth": 2745,
      "SyntaxNodeAnalysisContext": 2746,
      "SyntaxNodeAction": 2747,
      "ĠSyntaxKind": 2748,
      "ĠSyntaxFactory": 2749,
      "ĠAnalyzeQualifiedName": 2750,
      "ĠAnalyzeUsingDirective": 2751,
      "isplayAttribute": 2752,
      "DefaultSeparator": 2753,
      "ĠnextWord": 2754,
      "GetTensValue": 2755,
      "ĠRegisterSyntaxNodeAction": 2756,
      "usePrefixMapForLower": 2757,
      "CardinalNumber": 2758,
      "FoundOnLast": 2759,
      "junctionFormat": 2760,
      "Ġfirst": 2761,
      "heckFor": 2762,
      "ĠDehumanize": 2763,
      "TensOrdinalPrefixes": 2764,
      "transformedInput": 2765,
      "Ġcombination": 2766,
      "WholeNumberValue": 2767,
      "Ġyou": 2768,
      "ĠUsingDirectiveSyntax": 2769,
      "ĠDEFAULTLITERALEXPRESSION": 2770,
      "PascalCase": 2771,
      "objectFormatter": 2772,
      "DayPeriod": 2773,
      "effectiveLength": 2774,
      "perty": 2775,
      "ĠOcto": 2776,
      "Ġindicator": 2777,
      "OnesGroup": 2778,
      "Ġlike": 2779,
      "GetPartByGender": 2780,
      "LeadingTrivia": 2781,
      "DINGEXPRESSION": 2782,
      "Field": 2783,
      "LABLEWAR": 2784,
      "Message": 2785,
      "NULLABLEWAR": 2786,
      "NextPart": 2787,
      "Resources": 2788,
      "SimpleWords": 2789,
      "namespaceName": 2790,
      "rdinalMap": 2791,
      "ÎŁrdinalMap": 2792,
      "ĠâĨĴ": 2793,
      "ĠImmutable": 2794,
      "errorMessage": 2795,
      "ĠNovember": 2796,
      "ĠApril": 2797,
      "ĠAugust": 2798,
      "ĠMEMBERBINDINGEXPRESSION": 2799,
      "unrecognizedNumberWord": 2800,
      "ĠFebruary": 2801,
      "ĠGetReplacementName": 2802,
      "ĠGetLocation": 2803,
      "ĠSUPPRESSNULLABLEWAR": 2804,
      "Ġspelled": 2805,
      "ĠReportDiagnostic": 2806,
      "TrailingTrivia": 2807,
      "PowersOfThousandMap": 2808,
      "ĠDiagnosticDescriptor": 2809,
      "FoundOnLastVowel": 2810,
      "ĠOctober": 2811,
      "ĠImmutableHashSet": 2812,
      "ĠSUPPRESSNULLABLEWARNINGEXPRESSION": 2813,
      "21": 2814,
      "28": 2815,
      "35": 2816,
      ">[]": 2817,
      "App": 2818,
      "ByteSymbol": 2819,
      "Compare": 2820,
      "ENT": 2821,
      "ESI": 2822,
      "FEXPRESSION": 2823,
      "HESI": 2824,
      "ISE": 2825,
      "Option": 2826,
      "OFEXPRESSION": 2827,
      "Preposition": 2828,
      "Title": 2829,
      "Ver": 2830,
      "WISE": 2831,
      "ZED": 2832,
      "abl": 2833,
      "bal": 2834,
      "con": 2835,
      "cent": 2836,
      "fr": 2837,
      "gain": 2838,
      "hen": 2839,
      "ied": 2840,
      "lo": 2841,
      "lob": 2842,
      "mil": 2843,
      "minutes": 2844,
      "months": 2845,
      "power": 2846,
      "pair": 2847,
      "seconds": 2848,
      "single": 2849,
      "tc": 2850,
      "ting": 2851,
      "temp": 2852,
      "valid": 2853,
      "zil": 2854,
      "ĠÛ": 2855,
      "Ġem": 2856,
      "Ġel": 2857,
      "Ġarticle": 2858,
      "Ġuint": 2859,
      "Ġulong": 2860,
      "ĠKilobyte": 2861,
      "erize": 2862,
      "erabyte": 2863,
      "inus": 2864,
      "inserted": 2865,
      "ĠSet": 2866,
      "ĠSentence": 2867,
      "Ġ18": 2868,
      "ĠPortuguese": 2869,
      "ĠPARENT": 2870,
      "attr": 2871,
      "alPart": 2872,
      "ents": 2873,
      "enas": 2874,
      "ĠBit": 2875,
      "ĠBIT": 2876,
      "ĠBra": 2877,
      "ĠValues": 2878,
      "ĠAt": 2879,
      "ĠtruncateFrom": 2880,
      "Ġ21": 2881,
      "Ġ28": 2882,
      "ĠTerabyte": 2883,
      "eded": 2884,
      "ĠDetect": 2885,
      "ĠGig": 2886,
      "ĠdataUnit": 2887,
      "ĠLower": 2888,
      "ĠnumberOf": 2889,
      "ĠFix": 2890,
      "ĠFind": 2891,
      "ĠFlo": 2892,
      "asSingular": 2893,
      "Ġcandidate": 2894,
      "TimeUnits": 2895,
      "Ġbyte": 2896,
      "Ġback": 2897,
      "api": 2898,
      "fies": 2899,
      "Ġsuffix": 2900,
      "Ġsome": 2901,
      "Ġshould": 2902,
      "OnNoMatch": 2903,
      "Ġmillion": 2904,
      "ĠminUnit": 2905,
      "NumberVer": 2906,
      "Ġadd": 2907,
      "Ġnumer": 2908,
      "ĠToF": 2909,
      "ĠwordPart": 2910,
      "InText": 2911,
      "UnitsFeminine": 2912,
      "GetPrefix": 2913,
      "GetThousands": 2914,
      "owed": 2915,
      "ĠReturns": 2916,
      "ĠRight": 2917,
      "adr": 2918,
      "ĠGetTens": 2919,
      "ecifies": 2920,
      "Ġwhere": 2921,
      "Ġwhether": 2922,
      "ĠUtc": 2923,
      "Concat": 2924,
      "timeSpan": 2925,
      "ĠWhen": 2926,
      "ToOrdinalWords": 2927,
      "ordinals": 2928,
      "ceptionNumbers": 2929,
      "action": 2930,
      "ĠtimeSpan": 2931,
      "CollectPartsUnderAThousand": 2932,
      "Ġformatting": 2933,
      "quot": 2934,
      "hundredsText": 2935,
      "ĠIMPLICITARRAYCREATIONEXPRESSION": 2936,
      "ĠusePrefixMap": 2937,
      "lastSpace": 2938,
      "Arrow": 2939,
      "ĠDISCARD": 2940,
      "UnderAHundred": 2941,
      "ĠAbbreviation": 2942,
      "thousandsString": 2943,
      "ĠARRAYINITIALIZEREXPRESSION": 2944,
      "Ġseparated": 2945,
      "KilobyteSymbol": 2946,
      "ResourceManager": 2947,
      "ĠNumberToWords": 2948,
      "digits": 2949,
      "ĠHumanized": 2950,
      "Ġmultiples": 2951,
      "GetUnitGender": 2952,
      "ThreeDigits": 2953,
      "ThreeDigitSetConverter": 2954,
      "MegabyteSymbol": 2955,
      "ThousandsMap": 2956,
      "asherize": 2957,
      "HeadingArrow": 2958,
      "prefixLength": 2959,
      "ĠThis": 2960,
      "hours": 2961,
      "irst": 2962,
      "millionOrMore": 2963,
      "tedLarge": 2964,
      "ĠKeys": 2965,
      "EifelerRuleApply": 2966,
      "LetterCasing": 2967,
      "ĠString": 2968,
      "ehumanized": 2969,
      "Ġprefixed": 2970,
      "CharactersProcessed": 2971,
      "Largest": 2972,
      "ĠMegabyte": 2973,
      "ĠnormalizedHour": 2974,
      "ĠIsNullOrEmpty": 2975,
      "maxUnit": 2976,
      "ĠTotalDays": 2977,
      "Ġwhen": 2978,
      "BitSymbol": 2979,
      "BitField": 2980,
      "ĠAny": 2981,
      "Flags": 2982,
      "threeDigitParts": 2983,
      "alphaNumericalCharactersProcessed": 2984,
      "ĠExceptionNumbers": 2985,
      "Ġremov": 2986,
      "ĠGetUnitGender": 2987,
      "Ġapplied": 2988,
      "beforeOneHundredWord": 2989,
      "GigabyteSymbol": 2990,
      "Pairs": 2991,
      "TerabyteSymbol": 2992,
      "oesEifelerRuleApply": 2993,
      "ĠSpecifies": 2994,
      "ĠMapGet": 2995,
      "HeadingsShort": 2996,
      "ocabulary": 2997,
      "Twos": 2998,
      "hanged": 2999,
      "ĠTYPEOFEXPRESSION": 3000,
      "ĠSubstring": 3001,
      "uncountabl": 3002,
      "Ġhyphens": 3003,
      "Appended": 3004,
      "HESIZED": 3005,
      "Options": 3006,
      "balPairs": 3007,
      "gainst": 3008,
      "lobal": 3009,
      "zilian": 3010,
      "Ġempty": 3011,
      "inusSign": 3012,
      "ĠPARENTHESIZED": 3013,
      "ĠBITWISE": 3014,
      "ĠBrazilian": 3015,
      "ĠGigabyte": 3016,
      "ĠLowerCase": 3017,
      "ĠFloor": 3018,
      "NumberVerbalPairs": 3019,
      "Ġnumeral": 3020,
      "actionalPart": 3021,
      "tedLargeWholeNumberValue": 3022,
      "BitFieldEnum": 3023,
      "ĠExceptionNumbersToWords": 3024,
      "uncountables": 3025,
      "'re": 3026,
      "..": 3027,
      "01": 3028,
      "26": 3029,
      "27": 3030,
      "29": 3031,
      "30": 3032,
      "31": 3033,
      "AF": 3034,
      "Af": 3035,
      "ASE": 3036,
      "Add": 3037,
      "Cac": 3038,
      "Cruncher": 3039,
      "Dec": 3040,
      "Ear": 3041,
      "Ent": 3042,
      "FU": 3043,
      "Global": 3044,
      "Lu": 3045,
      "Max": 3046,
      "Ne": 3047,
      "Now": 3048,
      "Normal": 3049,
      "NCTION": 3050,
      "Object": 3051,
      "Paucal": 3052,
      "Smal": 3053,
      "ShowQuantityAs": 3054,
      "Truncator": 3055,
      "UPL": 3056,
      "ade": 3057,
      "bour": 3058,
      "billion": 3059,
      "cDate": 3060,
      "ead": 3061,
      "fs": 3062,
      "gishFormatter": 3063,
      "minUnit": 3064,
      "mills": 3065,
      "nfi": 3066,
      "nect": 3067,
      "ped": 3068,
      "showQuantityAs": 3069,
      "tent": 3070,
      "ved": 3071,
      "values": 3072,
      "xem": 3073,
      "yles": 3074,
      "Âª": 3075,
      "Âº": 3076,
      "ĠK": 3077,
      "Ġal": 3078,
      "ĠUnit": 3079,
      "ĠWord": 3080,
      "ĠqualifiedName": 3081,
      "ĠparsedValue": 3082,
      "Ġ999": 3083,
      "Ġupper": 3084,
      "ĠLOCALFU": 3085,
      "ution": 3086,
      "utcDate": 3087,
      "ĠNone": 3088,
      "alQu": 3089,
      "ingDays": 3090,
      "ending": 3091,
      "ĠBASE": 3092,
      "ĠASEXPRESSION": 3093,
      "Ġtuple": 3094,
      "Ġ200": 3095,
      "Ġ2000": 3096,
      "ĠTUPL": 3097,
      "edEnding": 3098,
      "very": 3099,
      "ĠDasherize": 3100,
      "TERNOON": 3101,
      "ĠGenitive": 3102,
      "Ġdivided": 3103,
      "izing": 3104,
      "wordSuffix": 3105,
      "ĠFor": 3106,
      "UnitPrefixes": 3107,
      "OrdinalNumber": 3108,
      "asPlural": 3109,
      "ries": 3110,
      "genderSuffix": 3111,
      "resol": 3112,
      "cest": 3113,
      "ceeds": 3114,
      "Gendered": 3115,
      "Ġbuilder": 3116,
      "first": 3117,
      "plac": 3118,
      "stringTransformer": 3119,
      "Ġsize": 3120,
      "enti": 3121,
      "Mapped": 3122,
      "ilo": 3123,
      "ĠinputNumber": 3124,
      "Styles": 3125,
      "StringSplit": 3126,
      "Ġregular": 3127,
      "Ġreplac": 3128,
      "Ġinterval": 3129,
      "lyMorning": 3130,
      "Ġlargest": 3131,
      "InThousands": 3132,
      "Invariant": 3133,
      "Invalid": 3134,
      "UnitsMasculine": 3135,
      "GetOne": 3136,
      "GetArticle": 3137,
      "GetDayPeriod": 3138,
      "HourExpression": 3139,
      "Ġrepresented": 3140,
      "Ġhand": 3141,
      "ĠGetC": 3142,
      "ĠGetWordsToNumberConverter": 3143,
      "chil": 3144,
      "PartsWith": 3145,
      "Ġwas": 3146,
      "Ġwill": 3147,
      "terno": 3148,
      "ĠusingDirective": 3149,
      "ĠUpper": 3150,
      "tensDigit": 3151,
      "Offs": 3152,
      "AndAbove": 3153,
      "Connect": 3154,
      "Content": 3155,
      "Ġbefore": 3156,
      "CollectOrdinal": 3157,
      "formattedLargeWholeNumberValue": 3158,
      "ToOrdinalWordsConverter": 3159,
      "ainingDays": 3160,
      "lean": 3161,
      "HundredsRootMap": 3162,
      "Ġtimes": 3163,
      "ĠtimeParts": 3164,
      "Ġtimespan": 3165,
      "PluralPostfix": 3166,
      "ĠIsUpper": 3167,
      "hundredsString": 3168,
      "Ġ2023": 3169,
      "OneMillion": 3170,
      "OneBillion": 3171,
      "Ġany": 3172,
      "ThousandOrdinalPlural": 3173,
      "ThousandOrdinalSingular": 3174,
      "ThousandAndAbove": 3175,
      "ĠdayPeriod": 3176,
      "Ġexceeds": 3177,
      "HundredRule": 3178,
      "HundredOrdinalPlural": 3179,
      "HundredOrdinalSingular": 3180,
      "ĠReplaceQualifiedName": 3181,
      "ĠReplaceUsingDirective": 3182,
      "property": 3183,
      "ĠARRAYCREATIONEXPRESSION": 3184,
      "Ġnotation": 3185,
      "ecimalP": 3186,
      "quantityStr": 3187,
      "ĠFrozenSet": 3188,
      "Ġsuc": 3189,
      "MetricRepresentation": 3190,
      "ĠDayNumber": 3191,
      "hundredPrefix": 3192,
      "Chars": 3193,
      "Ġsingularizes": 3194,
      "99999999": 3195,
      "revious": 3196,
      "Ġmultiplier": 3197,
      "ĠpluralFormat": 3198,
      "Ġpluralizes": 3199,
      "RoundBillion": 3200,
      "RoundedMinutes": 3201,
      "ositive": 3202,
      "Internal": 3203,
      "breviated": 3204,
      "Ġending": 3205,
      "GetOrdinalEnding": 3206,
      "egativeNumber": 3207,
      "CollectOrdinalPartsUnderAHundred": 3208,
      "ĠcollectionSeparator": 3209,
      "imumTimeUnit": 3210,
      "prefixedForm": 3211,
      "ĠInvariant": 3212,
      "UsingDirectiveSyntax": 3213,
      "ĠParent": 3214,
      "ĠThreeDigit": 3215,
      "MillionOrdinalPlural": 3216,
      "MillionOrdinalSingular": 3217,
      "newPart": 3218,
      "ianCardinalNumber": 3219,
      "suffixFoundOnLastVowel": 3220,
      "thousandPart": 3221,
      "BillionOrdinalPlural": 3222,
      "BillionOrdinalSingular": 3223,
      "CodeFix": 3224,
      "EmptyEnt": 3225,
      "Localisers": 3226,
      "ĠSystem": 3227,
      "MasculineSuffix": 3228,
      "lagValues": 3229,
      "ĠRegEx": 3230,
      "ĠCollectPartsUnderOneThousand": 3231,
      "Ġrate": 3232,
      "Ġrules": 3233,
      "ĠHasFlag": 3234,
      "Ġarray": 3235,
      "Ġappro": 3236,
      "Ġcharacter": 3237,
      "maxMonths": 3238,
      "DaysInAYear": 3239,
      "TryParse": 3240,
      "numberOfWordsProcessed": 3241,
      "ĠobjectFormatter": 3242,
      "GreaterThanMillion": 3243,
      "frozenLocalisers": 3244,
      "Ġfive": 3245,
      "ĠDehumanized": 3246,
      "OrdinalSuffixes": 3247,
      "UnderAThousandPart": 3248,
      "Ġcombining": 3249,
      "feminineSingular": 3250,
      "masculineSuffix": 3251,
      "Ġ999999999999": 3252,
      "ĠTense": 3253,
      "alphaNumericalCount": 3254,
      "Ġinstance": 3255,
      "Ġinstead": 3256,
      "inputIsKnownToBePlural": 3257,
      "inputIsKnownToBeSingular": 3258,
      "ĠinputIsKnownToBePlural": 3259,
      "ĠinputIsKnownToBeSingular": 3260,
      "GetResourceKey": 3261,
      "GetResourceFor": 3262,
      "ĠreturnPluralized": 3263,
      "overTensWord": 3264,
      "overTensPart": 3265,
      "ĠCompareTo": 3266,
      "ĠTitleCase": 3267,
      "Ġtransformers": 3268,
      "LakhsMap": 3269,
      "Ġaccordingly": 3270,
      "ChooseOneForGrammaticalNumber": 3271,
      "Truncates": 3272,
      "TwoDigitOrdinal": 3273,
      "joinAbove": 3274,
      "ĠparsedNumber": 3275,
      "ĠskipSimpleWords": 3276,
      "NumberFormatInfo": 3277,
      "amelCase": 3278,
      "ĠRemoveEmptyEnt": 3279,
      "ĠunderscoredWord": 3280,
      "iffDays": 3281,
      "usePrefixMapForLowerValueDigits": 3282,
      "heckForHundredRule": 3283,
      "ĠDehumanizeTo": 3284,
      "NextPartConverter": 3285,
      "3501": 3286,
      "centenas": 3287,
      "fractionalPart": 3288,
      "ĠSentenceCase": 3289,
      "ĠToFrozen": 3290,
      "owedContent": 3291,
      "adral": 3292,
      "ĠUtcDateTime": 3293,
      "LargestWholeNumber": 3294,
      "AFTERNOON": 3295,
      "Afterno": 3296,
      "Cache": 3297,
      "EarlyMorning": 3298,
      "Globalization": 3299,
      "Luxem": 3300,
      "NormalizeHour": 3301,
      "NCTIONSTATEMENT": 3302,
      "PaucalPostfix": 3303,
      "Small": 3304,
      "bourgishFormatter": 3305,
      "vedKey": 3306,
      "ĠLOCALFUNCTIONSTATEMENT": 3307,
      "alQuadral": 3308,
      "ĠBASEEXPRESSION": 3309,
      "ĠTUPLEEXPRESSION": 3310,
      "resolvedKey": 3311,
      "MappedOrdinalNumber": 3312,
      "StringSplitOptions": 3313,
      "Ġreplaced": 3314,
      "GetOneDigitOrdinal": 3315,
      "ĠUpperCase": 3316,
      "Offset": 3317,
      "Connectors": 3318,
      "ĠReplaceQualifiedNameAsync": 3319,
      "ĠReplaceUsingDirectiveAsync": 3320,
      "ĠInvariantCulture": 3321,
      "ĠRemoveEmptyEntries": 3322,
      "owedContentLength": 3323,
      "Afternoon": 3324,
      "LuxembourgishFormatter": 3325,
      "100": 3326,
      "33": 3327,
      "36": 3328,
      ">>": 3329,
      "?>:": 3330,
      "Against": 3331,
      "Big": 3332,
      "Dash": 3333,
      "Display": 3334,
      "Detect": 3335,
      "EN": 3336,
      "Every": 3337,
      "Fin": 3338,
      "Full": 3339,
      "LAMBDAEXPRESSION": 3340,
      "MinusSign": 3341,
      "Override": 3342,
      "Provi": 3343,
      "PrecisionHumanize": 3344,
      "Positive": 3345,
      "Rear": 3346,
      "Su": 3347,
      "Suf": 3348,
      "Single": 3349,
      "Test": 3350,
      "Valid": 3351,
      "aber": 3352,
      "bus": 3353,
      "ct": 3354,
      "casing": 3355,
      "conversion": 3356,
      "custom": 3357,
      "displayAttribute": 3358,
      "denti": 3359,
      "from": 3360,
      "fort": 3361,
      "flagValues": 3362,
      "gg": 3363,
      "gate": 3364,
      "hal": 3365,
      "hod": 3366,
      "ial": 3367,
      "ide": 3368,
      "ling": 3369,
      "laces": 3370,
      "lowest": 3371,
      "ner": 3372,
      "negativeNumber": 3373,
      "og": 3374,
      "other": 3375,
      "pos": 3376,
      "postfix": 3377,
      "range": 3378,
      "sing": 3379,
      "ses": 3380,
      "same": 3381,
      "sValue": 3382,
      "sIndex": 3383,
      "symbol": 3384,
      "skip": 3385,
      "sentence": 3386,
      "ten": 3387,
      "tuple": 3388,
      "talLength": 3389,
      "truncator": 3390,
      "vent": 3391,
      "void": 3392,
      "wasWhiteSpace": 3393,
      "ystem": 3394,
      "zero": 3395,
      "âĢ": 3396,
      "Ġx": 3397,
      "Ġ{": 3398,
      "Ġver": 3399,
      "ĠUnits": 3400,
      "Ġeg": 3401,
      "ĠOf": 3402,
      "Ġ99": 3403,
      "Ġend": 3404,
      "ĠUnderscore": 3405,
      "ĠUnderscoreRegex": 3406,
      "Ġright": 3407,
      "Ġappended": 3408,
      "ĠparentName": 3409,
      "ĠIdenti": 3410,
      "ATCH": 3411,
      "erName": 3412,
      "erPath": 3413,
      "ĠSort": 3414,
      "ĠPrefix": 3415,
      "ĠPart": 3416,
      "ĠPrep": 3417,
      "ĠPaucal": 3418,
      "ating": 3419,
      "ĠNo": 3420,
      "ĠNull": 3421,
      "ĠNumeric": 3422,
      "stand": 3423,
      "regate": 3424,
      "ony": 3425,
      "ones": 3426,
      "ingSp": 3427,
      "ingChar": 3428,
      "orres": 3429,
      "ĠBatch": 3430,
      "ĠstartIndex": 3431,
      "Ġstyle": 3432,
      "ĠAgg": 3433,
      "ĠChoose": 3434,
      "ĠCATCH": 3435,
      "Ġtri": 3436,
      "itial": 3437,
      "member": 3438,
      "ordSuf": 3439,
      "ĠText": 3440,
      "ĠDel": 3441,
      "ĠDocument": 3442,
      "ĠDisplay": 3443,
      "ĠDoesEifelerRuleApply": 3444,
      "ĠMore": 3445,
      "amount": 3446,
      "ĠGB": 3447,
      "ĠGener": 3448,
      "Ġdec": 3449,
      "Ġdel": 3450,
      "Ġdehumanized": 3451,
      "ĠLast": 3452,
      "ĠLetter": 3453,
      "ĠLeft": 3454,
      "ethod": 3455,
      "ecution": 3456,
      "ĠFirst": 3457,
      "Ġold": 3458,
      "Ġcreate": 3459,
      "Ġclock": 3460,
      "Ġcalcul": 3461,
      "ĠcamelCase": 3462,
      "Ġcorres": 3463,
      "Ġthem": 3464,
      "genderedForm": 3465,
      "dehumanized": 3466,
      "fierName": 3467,
      "Ġ3999": 3468,
      "ĠtotalLength": 3469,
      "strings": 3470,
      "ĠshowQuantityAs": 3471,
      "Ġside": 3472,
      "Ġsystem": 3473,
      "WordParts": 3474,
      "enty": 3475,
      "ension": 3476,
      "Ġfail": 3477,
      "ConvertInternal": 3478,
      "ConvertMappedOrdinalNumber": 3479,
      "Ġmin": 3480,
      "Ġmap": 3481,
      "Ġmatches": 3482,
      "Ġavoid": 3483,
      "Strings": 3484,
      "StringLen": 3485,
      "Ġpast": 3486,
      "ToText": 3487,
      "ToCompare": 3488,
      "ements": 3489,
      "extra": 3490,
      "extension": 3491,
      "Ġleft": 3492,
      "Ġlowest": 3493,
      "InPositive": 3494,
      "[]:": 3495,
      "Ġ49": 3496,
      "UnitsAnd": 3497,
      "UnitsDigit": 3498,
      "UnitsNumberToText": 3499,
      "andom": 3500,
      "GetMillions": 3501,
      "GetGendered": 3502,
      "GetHourExpression": 3503,
      "GetUnderAThousandPart": 3504,
      "GetTwoDigitOrdinal": 3505,
      "ValueFound": 3506,
      "ĠgenderedForm": 3507,
      "egate": 3508,
      "fact": 3509,
      "ĠRussian": 3510,
      "abet": 3511,
      "unitPrefix": 3512,
      "ĠGetD": 3513,
      "ĠGetString": 3514,
      "ĠGetHundreds": 3515,
      "ĠGetPrefix": 3516,
      "ĠGetThousands": 3517,
      "ĠGetFix": 3518,
      "ĠGetSpecial": 3519,
      "ĠGetLeadingTrivia": 3520,
      "ĠGetTrailingTrivia": 3521,
      "Execution": 3522,
      "Ġ56": 3523,
      "ĠUses": 3524,
      "tensPart": 3525,
      "tensDec": 3526,
      "OfTimeUnits": 3527,
      "wordsArray": 3528,
      "ists": 3529,
      "ĠisNegative": 3530,
      "Concurrent": 3531,
      "ConjunctionFormat": 3532,
      "cultureInfo": 3533,
      "ĠFromAb": 3534,
      "ĠFromHeadingArrow": 3535,
      "ĠwordsArray": 3536,
      "CollectThousandAndAbove": 3537,
      "ableConcurrent": 3538,
      "System": 3539,
      "formation": 3540,
      "Ġ63": 3541,
      "Ġthan": 3542,
      "ĠthreeDigit": 3543,
      "ĠWell": 3544,
      "Keys": 3545,
      "acingChar": 3546,
      "Ġ\"{": 3547,
      "left": 3548,
      "ĠMULTIPLYASSIGNMENTEXPRESSION": 3549,
      "ĠSUBTRACTASSIGNMENTEXPRESSION": 3550,
      "Ġ70": 3551,
      "reestand": 3552,
      "resourceString": 3553,
      "ĠIsNamespace": 3554,
      "ĠIsMatch": 3555,
      "ĠIsBitFieldEnum": 3556,
      "ĠIsInvalid": 3557,
      "countEmptyUnits": 3558,
      "ĠYearFrom": 3559,
      "OneUnit": 3560,
      "separated": 3561,
      "Ġvocabulary": 3562,
      "WithSpace": 3563,
      "HundredMap": 3564,
      "pplies": 3565,
      "currentSet": 3566,
      "UnderThousand": 3567,
      "UnderTest": 3568,
      "IndexOf": 3569,
      "ĠtensAndUnits": 3570,
      "ready": 3571,
      "Ġlocaliser": 3572,
      "AsWord": 3573,
      "AsInt": 3574,
      "Ġmeans": 3575,
      "ĠEnableConcurrent": 3576,
      "ĠnamespaceName": 3577,
      "IsLast": 3578,
      "Separated": 3579,
      "fullPath": 3580,
      "Ġreturned": 3581,
      "endArticle": 3582,
      "atedCodeAnalysis": 3583,
      "ĠDayFrom": 3584,
      "phabet": 3585,
      "Ġsingulars": 3586,
      "Ġsingularization": 3587,
      "ponding": 3588,
      "ĠonNoMatch": 3589,
      "GetUnitText": 3590,
      "ThreeDigitOrdinal": 3591,
      "total": 3592,
      "candidateStart": 3593,
      "Ġkv": 3594,
      "ĠWithName": 3595,
      "ĠWithLeadingTrivia": 3596,
      "ĠWithTrailingTrivia": 3597,
      "ĠInitial": 3598,
      "timeUnitTense": 3599,
      "ArticlePrefix": 3600,
      "hasThousand": 3601,
      "nextSpace": 3602,
      "ĠMonthFrom": 3603,
      "Ġcontains": 3604,
      "Ġconvent": 3605,
      "pportedException": 3606,
      "KnownFix": 3607,
      "ĠnewName": 3608,
      "ĠnewQualifiedName": 3609,
      "ĠnewUsingDirective": 3610,
      "ĠnewNameText": 3611,
      "FeminineOrdinalExceptions": 3612,
      "FeminineOnesGroup": 3613,
      "LetterS": 3614,
      "NoRest": 3615,
      "decade": 3616,
      "newName": 3617,
      "newQualifiedName": 3618,
      "newUsingDirective": 3619,
      "newNameText": 3620,
      "ĠresourceString": 3621,
      "allowedContentLength": 3622,
      "Ġtransformed": 3623,
      "Generates": 3624,
      "UnderscoreDash": 3625,
      "ĠcountEmptyUnits": 3626,
      "ĠmatchingNamespace": 3627,
      "ĠParseName": 3628,
      "LessThanThousand": 3629,
      "millionsText": 3630,
      "ĠToLowerInvariant": 3631,
      "AndSplitNe": 3632,
      "ĠAppendArticlePrefix": 3633,
      "ĠHasMatchingNamespace": 3634,
      "GeneratedCodeAnalysis": 3635,
      "Alphabet": 3636,
      "Allow": 3637,
      "AllProvi": 3638,
      "Fixer": 3639,
      "PortugueseUnitsMap": 3640,
      "Zeroes": 3641,
      "ebaber": 3642,
      "AThousandPart": 3643,
      "ĠsameMonth": 3644,
      "ĠWeekFrom": 3645,
      "appendAnd": 3646,
      "ĠWHEN": 3647,
      "ĠTryConvertWordsToNumber": 3648,
      "DefaultHumanize": 3649,
      "numberOfHundreds": 3650,
      "ĠtimeUnitTense": 3651,
      "ĠRegisterCodeFix": 3652,
      "ĠAncest": 3653,
      "ĠConfigureGeneratedCodeAnalysis": 3654,
      "femininePrefix": 3655,
      "masculinePrefix": 3656,
      "Ġ99999": 3657,
      "arsiGroupsMap": 3658,
      "angu": 3659,
      "urdishGroupsMap": 3660,
      "ĠDEFAULTSWITCHLABEL": 3661,
      "Ġparsing": 3662,
      "ĠhasOrdinal": 3663,
      "beforeOneHundredNumber": 3664,
      "Ġcapitalized": 3665,
      "ĠgroupNumber": 3666,
      "ĠgroupLevel": 3667,
      "sizePartUpper": 3668,
      "TryConvertWordsToNumber": 3669,
      "LakhsValue": 3670,
      "Any": 3671,
      "FormattedExpression": 3672,
      "decadesString": 3673,
      "milStr": 3674,
      "tempRoundedMinutes": 3675,
      "Ġelements": 3676,
      "ĠFixAllProvider": 3677,
      "ĠFindMatchingNamespace": 3678,
      "ĠmillionPart": 3679,
      "GetPrefixText": 3680,
      "ConcatWithSpace": 3681,
      "ordinalsUnder": 3682,
      "ĠusePrefixMapForLower": 3683,
      "ĠStringBuilder": 3684,
      "Ġremoved": 3685,
      "AppendedTwos": 3686,
      "ĠPARENTHESIZEDLAMBDAEXPRESSION": 3687,
      "ĠBITWISEANDEXPRESSION": 3688,
      "Adds": 3689,
      "valuesArray": 3690,
      "ĠKebaber": 3691,
      "Ġalready": 3692,
      "Ġhandling": 3693,
      "ĠGetCustom": 3694,
      "ecimalPlaces": 3695,
      "reviousDigit": 3696,
      "breviatedHeading": 3697,
      "ĠToFrozenDictionary": 3698,
      "BigNumber": 3699,
      "DisplayStrings": 3700,
      "Detector": 3701,
      "EveryThreeDigits": 3702,
      "Finite": 3703,
      "Rearrange": 3704,
      "SupportedException": 3705,
      "SingleMinute": 3706,
      "conversionRule": 3707,
      "customMasculineSuffix": 3708,
      "forty": 3709,
      "nerConvert": 3710,
      "sameMonth": 3711,
      "âĢ¦": 3712,
      "Ġversion": 3713,
      "ĠOfType": 3714,
      "ĠIdentifierName": 3715,
      "ĠPrependArticle": 3716,
      "ingSpacingChar": 3717,
      "ĠBatchFixer": 3718,
      "ĠAggregate": 3719,
      "ĠDelegate": 3720,
      "ĠDisplayOneUnit": 3721,
      "amountOfTimeUnits": 3722,
      "ĠGeneratedCodeAnalysis": 3723,
      "Ġdelimiter": 3724,
      "ĠLastIndexOf": 3725,
      "Ġcorresponding": 3726,
      "ToCompareAgainst": 3727,
      "extraZeroes": 3728,
      "UnitsAndTens": 3729,
      "ĠGetFixAllProvider": 3730,
      "ĠGetSpecialCase": 3731,
      "ConjunctionFormatString": 3732,
      "ĠFromAbbreviatedHeading": 3733,
      "ĠWellKnownFix": 3734,
      "reestandingSpacingChar": 3735,
      "ĠIsNamespaceMatch": 3736,
      "AsInteger": 3737,
      "ĠEnableConcurrentExecution": 3738,
      "IsLastSet": 3739,
      "SeparatedWords": 3740,
      "ĠInitialize": 3741,
      "Ġconvention": 3742,
      "UnderscoreDashSeparatedWords": 3743,
      "AndSplitNeeded": 3744,
      "AllProviders": 3745,
      "ĠWHENCLAUSE": 3746,
      "ĠAncestors": 3747,
      "ĠKebaberize": 3748,
      "RearrangeArticle": 3749,
      "ĠPrependArticleSuffix": 3750,
      "ĠGeneratedCodeAnalysisFlags": 3751,
      "ĠWellKnownFixAllProviders": 3752,
      "$\"": 3753,
      "',": 3754,
      ".).": 3755,
      ".\",": 3756,
      "34": 3757,
      "40": 3758,
      "42": 3759,
      "436": 3760,
      "66": 3761,
      "87": 3762,
      ">?": 3763,
      ">>:": 3764,
      ">?:": 3765,
      "Age": 3766,
      "Cap": 3767,
      "Com": 3768,
      "ClockNotation": 3769,
      "Check": 3770,
      "Changed": 3771,
      "Du": 3772,
      "Dic": 3773,
      "Divisor": 3774,
      "Decimal": 3775,
      "DisplayAttribute": 3776,
      "DoesEifelerRuleApply": 3777,
      "Four": 3778,
      "First": 3779,
      "FreestandingSpacingChar": 3780,
      "Ge": 3781,
      "Hand": 3782,
      "Hash": 3783,
      "IFormat": 3784,
      "KAL": 3785,
      "Kilo": 3786,
      "Lim": 3787,
      "Mar": 3788,
      "Med": 3789,
      "Mem": 3790,
      "Mod": 3791,
      "Method": 3792,
      "Nine": 3793,
      "Pol": 3794,
      "Precision": 3795,
      "Pos": 3796,
      "Reg": 3797,
      "Sl": 3798,
      "Spl": 3799,
      "Six": 3800,
      "Some": 3801,
      "Tar": 3802,
      "Till": 3803,
      "Up": 3804,
      "UIC": 3805,
      "Val": 3806,
      "Vocabular": 3807,
      "Week": 3808,
      "ave": 3809,
      "bs": 3810,
      "bit": 3811,
      "cro": 3812,
      "create": 3813,
      "clock": 3814,
      "cardinal": 3815,
      "checkForHundredRule": 3816,
      "dual": 3817,
      "dLen": 3818,
      "diffDays": 3819,
      "decimalPlaces": 3820,
      "eil": 3821,
      "eCode": 3822,
      "ful": 3823,
      "farsiGroupsMap": 3824,
      "ger": 3825,
      "get": 3826,
      "grammaticalCase": 3827,
      "hSl": 3828,
      "ium": 3829,
      "ire": 3830,
      "irec": 3831,
      "kish": 3832,
      "kurdishGroupsMap": 3833,
      "low": 3834,
      "largest": 3835,
      "mous": 3836,
      "masc": 3837,
      "mod": 3838,
      "mport": 3839,
      "minusSign": 3840,
      "nin": 3841,
      "node": 3842,
      "nish": 3843,
      "night": 3844,
      "ots": 3845,
      "ople": 3846,
      "ould": 3847,
      "pr": 3848,
      "pers": 3849,
      "pical": 3850,
      "previousDigit": 3851,
      "rit": 3852,
      "rule": 3853,
      "rules": 3854,
      "random": 3855,
      "sens": 3856,
      "sException": 3857,
      "sSe": 3858,
      "shal": 3859,
      "two": 3860,
      "teens": 3861,
      "valu": 3862,
      "wenty": 3863,
      "xim": 3864,
      "yPar": 3865,
      "zec": 3866,
      "}\"": 3867,
      "ĠÐ": 3868,
      "Ġout": 3869,
      "Ġfix": 3870,
      "Ġunc": 3871,
      "ĠOne": 3872,
      "Ġapp": 3873,
      "Ġitems": 3874,
      "ĠarticleNextHour": 3875,
      "ĠalphaCount": 3876,
      "ĠpartToString": 3877,
      "ĠOnNoMatch": 3878,
      "ĠutcDate": 3879,
      "ĠresolvedKey": 3880,
      "ĠInd": 3881,
      "ĠItal": 3882,
      "ĠITruncator": 3883,
      "era": 3884,
      "erent": 3885,
      "ertain": 3886,
      "inds": 3887,
      "inative": 3888,
      "innish": 3889,
      "ĠSear": 3890,
      "ĠSign": 3891,
      "ĠShowQuantityAs": 3892,
      "ĠSingle": 3893,
      "Ġ16": 3894,
      "Ġ19999": 3895,
      "LOCARRAYCREATIONEXPRESSION": 3896,
      "ĠPol": 3897,
      "ĠPostfix": 3898,
      "ard": 3899,
      "arter": 3900,
      "ACKAL": 3901,
      "ĠNom": 3902,
      "reateTime": 3903,
      "reek": 3904,
      "representation": 3905,
      "onNoMatch": 3906,
      "alence": 3907,
      "alChars": 3908,
      "orrect": 3909,
      "ends": 3910,
      "numberAsWord": 3911,
      "ices": 3912,
      "icsMap": 3913,
      "icates": 3914,
      "ĠEnum": 3915,
      "ĠEifeler": 3916,
      "Ġstand": 3917,
      "Ġstart": 3918,
      "ateNoRest": 3919,
      "ĠVocabulary": 3920,
      "ĠSTACKAL": 3921,
      "ĠCom": 3922,
      "ĠCode": 3923,
      "ĠCollection": 3924,
      "ĠCamel": 3925,
      "ĠCheckFor": 3926,
      "ĠCeil": 3927,
      "Ġtitle": 3928,
      "Ġtera": 3929,
      "dering": 3930,
      "Ġ22": 3931,
      "Ġ25": 3932,
      "outNumberForm": 3933,
      "ĠTur": 3934,
      "ĠType": 3935,
      "ĠTak": 3936,
      "ĠTTar": 3937,
      "Ġstrings": 3938,
      "edLength": 3939,
      "edHours": 3940,
      "ros": 3941,
      "rores": 3942,
      "vert": 3943,
      "verTens": 3944,
      "verse": 3945,
      "ĠMatch": 3946,
      "ĠMatches": 3947,
      "Ġinserted": 3948,
      "Ġinformation": 3949,
      "Ġinsens": 3950,
      "ĠGroup": 3951,
      "ĠGreek": 3952,
      "Ġdes": 3953,
      "Ġdual": 3954,
      "Ġdigit": 3955,
      "Ġdescription": 3956,
      "ĠdLen": 3957,
      "Ġdoes": 3958,
      "ĠdiffDays": 3959,
      "Ġdirec": 3960,
      "underscored": 3961,
      "izations": 3962,
      "eteen": 3963,
      "isPrefix": 3964,
      "isThousand": 3965,
      "OrCon": 3966,
      "OrPreposition": 3967,
      "ĠFinnish": 3968,
      "ĠoverTens": 3969,
      "UnitMap": 3970,
      "UnitByGender": 3971,
      "UnitPreposition": 3972,
      "OrdinalMap": 3973,
      "OrdinalForm": 3974,
      "OrdinalNumbers": 3975,
      "OrdinalOverride": 3976,
      "Ġcardinal": 3977,
      "Ġcheck": 3978,
      "Ġclean": 3979,
      "ĠcheckForHundredRule": 3980,
      "Ġcould": 3981,
      "Ġcertain": 3982,
      "TimePartsWith": 3983,
      "genderedEnding": 3984,
      "ceeded": 3985,
      "ollow": 3986,
      "Ġbs": 3987,
      "Ġbut": 3988,
      "Ġbig": 3989,
      "Ġbuild": 3990,
      "Ġ31": 3991,
      "plex": 3992,
      "places": 3993,
      "Ġtotal": 3994,
      "izeGreaterThanMillion": 3995,
      "Ġsb": 3996,
      "Ġso": 3997,
      "Ġsplit": 3998,
      "Ġsecond": 3999,
      "Ġsix": 4000,
      "Ġsingle": 4001,
      "Ġsentence": 4002,
      "ently": 4003,
      "vial": 4004,
      "Ġfour": 4005,
      "Ġfact": 4006,
      "Ġflag": 4007,
      "Ġfunction": 4008,
      "Ġfinds": 4009,
      "Ġfollow": 4010,
      "inputSign": 4011,
      "ĠdateToCompareAgainst": 4012,
      "Ste": 4013,
      "Style": 4014,
      "Ġmay": 4015,
      "Ġmil": 4016,
      "Ġmonth": 4017,
      "Ġmod": 4018,
      "Ġmight": 4019,
      "Ġmills": 4020,
      "NumberString": 4021,
      "Ġage": 4022,
      "Ġagainst": 4023,
      "StringTransformer": 4024,
      "ĠTheYear": 4025,
      "Ġpro": 4026,
      "Ġpower": 4027,
      "Ġpostfix": 4028,
      "dren": 4029,
      "ToGet": 4030,
      "ToBigNumber": 4031,
      "Ġintell": 4032,
      "ĠnextHour": 4033,
      "Ġnumeric": 4034,
      "ĠneedsAnd": 4035,
      "ĠToObject": 4036,
      "ĠwordSuffix": 4037,
      "ĠwordBuilder": 4038,
      "WordsDic": 4039,
      "bleDivisor": 4040,
      "OnlyNull": 4041,
      "priate": 4042,
      "iga": 4043,
      "igently": 4044,
      "Ġlist": 4045,
      "Ġlog": 4046,
      "Ġlangu": 4047,
      "InNegative": 4048,
      "InMillions": 4049,
      "InBillions": 4050,
      "InnerConvert": 4051,
      "[][]": 4052,
      "UnitsConverter": 4053,
      "UnitsUnder": 4054,
      "userPath": 4055,
      "andles": 4056,
      "DateTimeOffset": 4057,
      "GetIndex": 4058,
      "GetRomanNumeral": 4059,
      "GetDescription": 4060,
      "GetNextPartConverter": 4061,
      "GetLargestWholeNumber": 4062,
      "GetThreeDigitOrdinal": 4063,
      "GetLakhsValue": 4064,
      "GetFormattedExpression": 4065,
      "PartUnderOneThousand": 4066,
      "FromBytes": 4067,
      "FromKilobytes": 4068,
      "FromBits": 4069,
      "FromGigabytes": 4070,
      "FromTerabytes": 4071,
      "FromMegabytes": 4072,
      "FromPascalCase": 4073,
      "FromUnderscoreDashSeparatedWords": 4074,
      "NameForm": 4075,
      "NameBy": 4076,
      "ValuePair": 4077,
      "ĠgenderedEnding": 4078,
      "ularly": 4079,
      "TensUnit": 4080,
      "TensAnd": 4081,
      "TensDigit": 4082,
      "TensGroup": 4083,
      "TensExceptions": 4084,
      "TensNo": 4085,
      "TensOver": 4086,
      "unity": 4087,
      "HumanizeDisplayStrings": 4088,
      "Ġhave": 4089,
      "ĠGetName": 4090,
      "ĠGetValue": 4091,
      "ĠGetInfo": 4092,
      "ĠGetIndex": 4093,
      "ĠGetEndingForGender": 4094,
      "ĠGetArticle": 4095
    },
    "merges": [
      [
        "E",
        "R"
      ],
      [
        "M",
        "E"
      ],
      [
        "O",
        "N"
      ],
      [
        "I",
        "ON"
      ],
      [
        "S",
        "S"
      ],
      [
        "E",
        "SS"
      ],
      [
        "E",
        "X"
      ],
      [
        "P",
        "R"
      ],
      [
        "PR",
        "ESS"
      ],
      [
        "EX",
        "PRESS"
      ],
      [
        "EXPRESS",
        "ION"
      ],
      [
        "A",
        "ME"
      ],
      [
        "N",
        "T"
      ],
      [
        "Ġ",
        "I"
      ],
      [
        "D",
        "E"
      ],
      [
        "N",
        "AME"
      ],
      [
        "A",
        "L"
      ],
      [
        "F",
        "I"
      ],
      [
        "A",
        "T"
      ],
      [
        "NT",
        "I"
      ],
      [
        "FI",
        "ER"
      ],
      [
        "ĠI",
        "DE"
      ],
      [
        "NTI",
        "FIER"
      ],
      [
        "ĠIDE",
        "NTIFIER"
      ],
      [
        "ĠIDENTIFIER",
        "NAME"
      ],
      [
        "T",
        "ER"
      ],
      [
        "A",
        "R"
      ],
      [
        "O",
        "C"
      ],
      [
        "C",
        "L"
      ],
      [
        "E",
        "ME"
      ],
      [
        "e",
        "r"
      ],
      [
        "i",
        "n"
      ],
      [
        "Ġ",
        "S"
      ],
      [
        "Ġ",
        "1"
      ],
      [
        "L",
        "OC"
      ],
      [
        "AT",
        "ION"
      ],
      [
        "AL",
        "EXPRESSION"
      ],
      [
        "I",
        "TER"
      ],
      [
        "ITER",
        "ALEXPRESSION"
      ],
      [
        "Ġ",
        "P"
      ],
      [
        "ĠP",
        "AR"
      ],
      [
        "AME",
        "TER"
      ],
      [
        "ĠPAR",
        "AMETER"
      ],
      [
        "S",
        "T"
      ],
      [
        "a",
        "t"
      ],
      [
        "a",
        "r"
      ],
      [
        "Ġ",
        "LOC"
      ],
      [
        "ĠLOC",
        "AL"
      ],
      [
        "A",
        "C"
      ],
      [
        "P",
        "L"
      ],
      [
        "M",
        "PL"
      ],
      [
        "C",
        "ESS"
      ],
      [
        "AC",
        "CESS"
      ],
      [
        "ACCESS",
        "EXPRESSION"
      ],
      [
        "EME",
        "NT"
      ],
      [
        "I",
        "MPL"
      ],
      [
        "ĠS",
        "IMPL"
      ],
      [
        "0",
        "0"
      ],
      [
        "u",
        "t"
      ],
      [
        "u",
        "m"
      ],
      [
        "Ġ",
        "N"
      ],
      [
        "ATION",
        "EXPRESSION"
      ],
      [
        "M",
        "B"
      ],
      [
        "MB",
        "ER"
      ],
      [
        "EME",
        "MBER"
      ],
      [
        "ĠSIMPL",
        "EMEMBER"
      ],
      [
        "ĠSIMPLEMEMBER",
        "ACCESSEXPRESSION"
      ],
      [
        "AT",
        "EMENT"
      ],
      [
        "ST",
        "ATEMENT"
      ],
      [
        "ĠN",
        "U"
      ],
      [
        "ĠI",
        "N"
      ],
      [
        "V",
        "OC"
      ],
      [
        "ĠIN",
        "VOC"
      ],
      [
        "ĠINVOC",
        "ATIONEXPRESSION"
      ],
      [
        "s",
        "t"
      ],
      [
        "I",
        "CL"
      ],
      [
        "M",
        "ER"
      ],
      [
        "ĠNU",
        "MER"
      ],
      [
        "ICL",
        "ITERALEXPRESSION"
      ],
      [
        "ĠNUMER",
        "ICLITERALEXPRESSION"
      ],
      [
        "b",
        "er"
      ],
      [
        "r",
        "e"
      ],
      [
        "um",
        "ber"
      ],
      [
        "o",
        "n"
      ],
      [
        "a",
        "l"
      ],
      [
        "in",
        "g"
      ],
      [
        "o",
        "r"
      ],
      [
        "e",
        "n"
      ],
      [
        "DE",
        "CL"
      ],
      [
        "DECL",
        "AR"
      ],
      [
        "n",
        "umber"
      ],
      [
        "i",
        "c"
      ],
      [
        "I",
        "N"
      ],
      [
        "S",
        "E"
      ],
      [
        "IN",
        "G"
      ],
      [
        "R",
        "ING"
      ],
      [
        "Ġ",
        "E"
      ],
      [
        "L",
        "ITERALEXPRESSION"
      ],
      [
        "T",
        "Y"
      ],
      [
        "Ġ",
        "NAME"
      ],
      [
        "p",
        "ut"
      ],
      [
        "r",
        "ing"
      ],
      [
        "TY",
        "P"
      ],
      [
        "TYP",
        "E"
      ],
      [
        "Ġ",
        "B"
      ],
      [
        "D",
        "TYPE"
      ],
      [
        "R",
        "E"
      ],
      [
        "ĠNAME",
        "DTYPE"
      ],
      [
        "Ġ",
        "st"
      ],
      [
        "A",
        "U"
      ],
      [
        "CL",
        "AU"
      ],
      [
        "CLAU",
        "SE"
      ],
      [
        "at",
        "e"
      ],
      [
        "T",
        "H"
      ],
      [
        "LOC",
        "K"
      ],
      [
        "ĠB",
        "LOCK"
      ],
      [
        "A",
        "B"
      ],
      [
        "L",
        "E"
      ],
      [
        "Ġ",
        "V"
      ],
      [
        "AB",
        "LE"
      ],
      [
        "u",
        "l"
      ],
      [
        "I",
        "ABLE"
      ],
      [
        "AR",
        "IABLE"
      ],
      [
        "ĠV",
        "ARIABLE"
      ],
      [
        "ĠVARIABLE",
        "DECLAR"
      ],
      [
        "v",
        "ar"
      ],
      [
        "Q",
        "U"
      ],
      [
        "ĠS",
        "T"
      ],
      [
        "ĠST",
        "RING"
      ],
      [
        "Ġ",
        "$"
      ],
      [
        "ĠSTRING",
        "LITERALEXPRESSION"
      ],
      [
        "Ġ",
        "A"
      ],
      [
        "Ġ",
        "C"
      ],
      [
        "Ġ",
        "t"
      ],
      [
        "i",
        "t"
      ],
      [
        "d",
        "er"
      ],
      [
        "AL",
        "S"
      ],
      [
        "QU",
        "ALS"
      ],
      [
        "ĠE",
        "QUALS"
      ],
      [
        "O",
        "D"
      ],
      [
        "Ġ",
        "2"
      ],
      [
        "m",
        "e"
      ],
      [
        "a",
        "n"
      ],
      [
        "or",
        "d"
      ],
      [
        "ĠI",
        "F"
      ],
      [
        "ĠIF",
        "STATEMENT"
      ],
      [
        "o",
        "u"
      ],
      [
        "at",
        "ic"
      ],
      [
        "p",
        "ar"
      ],
      [
        "o",
        "ut"
      ],
      [
        "Ġ",
        "T"
      ],
      [
        "out",
        "put"
      ],
      [
        "Ġst",
        "ring"
      ],
      [
        "e",
        "d"
      ],
      [
        "<",
        "|"
      ],
      [
        "|",
        ">"
      ],
      [
        "b",
        "l"
      ],
      [
        "en",
        "der"
      ],
      [
        "O",
        "L"
      ],
      [
        "Ġ",
        "0"
      ],
      [
        "00",
        "00"
      ],
      [
        "h",
        "e"
      ],
      [
        "r",
        "o"
      ],
      [
        "v",
        "er"
      ],
      [
        "Ġ",
        "D"
      ],
      [
        "ul",
        "t"
      ],
      [
        "O",
        "R"
      ],
      [
        "Ġ",
        "RE"
      ],
      [
        "P",
        "OL"
      ],
      [
        "ER",
        "POL"
      ],
      [
        "NT",
        "ERPOL"
      ],
      [
        "ĠI",
        "NTERPOL"
      ],
      [
        "Ġ",
        "ME"
      ],
      [
        "TH",
        "OD"
      ],
      [
        "ĠME",
        "THOD"
      ],
      [
        "E",
        "L"
      ],
      [
        "TER",
        "N"
      ],
      [
        "AT",
        "TERN"
      ],
      [
        "P",
        "ATTERN"
      ],
      [
        "U",
        "E"
      ],
      [
        "Ġ",
        "var"
      ],
      [
        "t",
        "s"
      ],
      [
        "Ġ",
        "M"
      ],
      [
        "i",
        "me"
      ],
      [
        "a",
        "m"
      ],
      [
        "Ġ",
        "in"
      ],
      [
        "i",
        "on"
      ],
      [
        "U",
        "R"
      ],
      [
        "A",
        "N"
      ],
      [
        "O",
        "W"
      ],
      [
        "R",
        "OW"
      ],
      [
        "N",
        "STATEMENT"
      ],
      [
        "T",
        "UR"
      ],
      [
        "ĠRE",
        "TUR"
      ],
      [
        "ĠRETUR",
        "NSTATEMENT"
      ],
      [
        "Ġ",
        "AR"
      ],
      [
        "p",
        "u"
      ],
      [
        "bl",
        "ic"
      ],
      [
        "pu",
        "blic"
      ],
      [
        "Ġ",
        "G"
      ],
      [
        "Ġ",
        "d"
      ],
      [
        "AT",
        "OR"
      ],
      [
        "ĠVARIABLEDECLAR",
        "ATOR"
      ],
      [
        "ROW",
        "EXPRESSION"
      ],
      [
        "I",
        "T"
      ],
      [
        "ĠVARIABLEDECLAR",
        "ATION"
      ],
      [
        "u",
        "n"
      ],
      [
        "DECLAR",
        "ATION"
      ],
      [
        "V",
        "AL"
      ],
      [
        "ĠEQUALS",
        "VAL"
      ],
      [
        "UE",
        "CLAUSE"
      ],
      [
        "ĠEQUALSVAL",
        "UECLAUSE"
      ],
      [
        "FI",
        "EL"
      ],
      [
        "FIEL",
        "D"
      ],
      [
        "ĠAR",
        "ROWEXPRESSION"
      ],
      [
        "ĠARROWEXPRESSION",
        "CLAUSE"
      ],
      [
        "ĠLOCAL",
        "DECLARATION"
      ],
      [
        "or",
        "m"
      ],
      [
        "ĠLOCALDECLARATION",
        "STATEMENT"
      ],
      [
        "e",
        "s"
      ],
      [
        "on",
        "ver"
      ],
      [
        "in",
        "al"
      ],
      [
        "i",
        "z"
      ],
      [
        "d",
        "d"
      ],
      [
        "Ġ",
        "L"
      ],
      [
        "U",
        "n"
      ],
      [
        "onver",
        "t"
      ],
      [
        "Ġst",
        "atic"
      ],
      [
        "Ġ",
        "number"
      ],
      [
        "e",
        "t"
      ],
      [
        "u",
        "r"
      ],
      [
        "e",
        "c"
      ],
      [
        "w",
        "ord"
      ],
      [
        "G",
        "N"
      ],
      [
        "I",
        "GN"
      ],
      [
        "A",
        "SS"
      ],
      [
        "ME",
        "NT"
      ],
      [
        "IGN",
        "MENT"
      ],
      [
        "ASS",
        "IGNMENT"
      ],
      [
        "ASSIGNMENT",
        "EXPRESSION"
      ],
      [
        "i",
        "s"
      ],
      [
        "TH",
        "AN"
      ],
      [
        "ĠA",
        "dd"
      ],
      [
        "ĠC",
        "ON"
      ],
      [
        "O",
        "r"
      ],
      [
        "d",
        "inal"
      ],
      [
        "ĠE",
        "L"
      ],
      [
        "Ġ",
        "F"
      ],
      [
        "Ġ",
        "o"
      ],
      [
        "par",
        "ts"
      ],
      [
        "Un",
        "it"
      ],
      [
        "t",
        "h"
      ],
      [
        "Or",
        "dinal"
      ],
      [
        "a",
        "s"
      ],
      [
        "r",
        "i"
      ],
      [
        "E",
        "D"
      ],
      [
        "Ġ",
        "c"
      ],
      [
        "AT",
        "ED"
      ],
      [
        "ST",
        "RING"
      ],
      [
        "ĠINTERPOL",
        "ATED"
      ],
      [
        "ĠINTERPOLATED",
        "STRING"
      ],
      [
        "al",
        "u"
      ],
      [
        "Ġt",
        "he"
      ],
      [
        "Ġ",
        "FIELD"
      ],
      [
        "ĠEQUALS",
        "EXPRESSION"
      ],
      [
        "T",
        "ime"
      ],
      [
        "g",
        "ender"
      ],
      [
        "re",
        "s"
      ],
      [
        "alu",
        "e"
      ],
      [
        "c",
        "e"
      ],
      [
        "d",
        "e"
      ],
      [
        "u",
        "re"
      ],
      [
        "ro",
        "m"
      ],
      [
        "G",
        "ender"
      ],
      [
        "d",
        "s"
      ],
      [
        "D",
        "EXPRESSION"
      ],
      [
        "o",
        "l"
      ],
      [
        "a",
        "y"
      ],
      [
        "Ġ",
        "b"
      ],
      [
        "ult",
        "ure"
      ],
      [
        "ĠA",
        "D"
      ],
      [
        "ĠD",
        "I"
      ],
      [
        "U",
        "L"
      ],
      [
        "a",
        "p"
      ],
      [
        "THAN",
        "EXPRESSION"
      ],
      [
        "f",
        "i"
      ],
      [
        "m",
        "atic"
      ],
      [
        "r",
        "am"
      ],
      [
        "matic",
        "al"
      ],
      [
        "ram",
        "matical"
      ],
      [
        "Ġ",
        "3"
      ],
      [
        "p",
        "l"
      ],
      [
        "Ġt",
        "o"
      ],
      [
        "ou",
        "r"
      ],
      [
        "Ġ1",
        "00"
      ],
      [
        "iz",
        "e"
      ],
      [
        "st",
        "ring"
      ],
      [
        "I",
        "DE"
      ],
      [
        "V",
        "IDE"
      ],
      [
        "ĠDI",
        "VIDE"
      ],
      [
        "Ġ",
        "s"
      ],
      [
        "ĠDIVIDE",
        "EXPRESSION"
      ],
      [
        "W",
        "ord"
      ],
      [
        "y",
        "t"
      ],
      [
        "en",
        "t"
      ],
      [
        "C",
        "H"
      ],
      [
        "AT",
        "ER"
      ],
      [
        "EMENT",
        "ACCESSEXPRESSION"
      ],
      [
        "RE",
        "ATER"
      ],
      [
        "ĠG",
        "REATER"
      ],
      [
        "ĠEL",
        "EMENTACCESSEXPRESSION"
      ],
      [
        "W",
        "IT"
      ],
      [
        "WIT",
        "CH"
      ],
      [
        "M",
        "ap"
      ],
      [
        "i",
        "l"
      ],
      [
        "en",
        "s"
      ],
      [
        "P",
        "ar"
      ],
      [
        "rammatical",
        "Gender"
      ],
      [
        "e",
        "x"
      ],
      [
        "v",
        "i"
      ],
      [
        "Ġ",
        "f"
      ],
      [
        "A",
        "NT"
      ],
      [
        "in",
        "put"
      ],
      [
        "ST",
        "ANT"
      ],
      [
        "ĠCON",
        "STANT"
      ],
      [
        "ĠCONSTANT",
        "PATTERN"
      ],
      [
        "OD",
        "UL"
      ],
      [
        "ĠM",
        "ODUL"
      ],
      [
        "ĠMODUL",
        "O"
      ],
      [
        "orm",
        "at"
      ],
      [
        "ĠS",
        "WITCH"
      ],
      [
        "Ġin",
        "put"
      ],
      [
        "n",
        "t"
      ],
      [
        "ĠINTERPOL",
        "ATION"
      ],
      [
        "Ġo",
        "f"
      ],
      [
        "par",
        "am"
      ],
      [
        "C",
        "onvert"
      ],
      [
        "Ġd",
        "ate"
      ],
      [
        "S",
        "t"
      ],
      [
        "O",
        "n"
      ],
      [
        "ĠAD",
        "DEXPRESSION"
      ],
      [
        "Ġ",
        "m"
      ],
      [
        "N",
        "umber"
      ],
      [
        "ate",
        "Time"
      ],
      [
        "in",
        "t"
      ],
      [
        "Ġ",
        "a"
      ],
      [
        "ĠSWITCH",
        "EXPRESSION"
      ],
      [
        "E",
        "ASSIGNMENTEXPRESSION"
      ],
      [
        "Ġ1",
        "0000"
      ],
      [
        "I",
        "C"
      ],
      [
        "St",
        "ring"
      ],
      [
        "ĠT",
        "he"
      ],
      [
        "n",
        "d"
      ],
      [
        "Ġ",
        "p"
      ],
      [
        "ĠSIMPL",
        "EASSIGNMENTEXPRESSION"
      ],
      [
        "ur",
        "n"
      ],
      [
        "ĠGREATER",
        "THANEXPRESSION"
      ],
      [
        "Ġ",
        "re"
      ],
      [
        "Ġ1",
        "0"
      ],
      [
        "d",
        "re"
      ],
      [
        "un",
        "dre"
      ],
      [
        "T",
        "o"
      ],
      [
        "Ġin",
        "t"
      ],
      [
        "e",
        "ar"
      ],
      [
        "a",
        "me"
      ],
      [
        "Ġ",
        "n"
      ],
      [
        "v",
        "alue"
      ],
      [
        "ro",
        "vi"
      ],
      [
        "T",
        "EX"
      ],
      [
        "AR",
        "M"
      ],
      [
        "ĠT",
        "o"
      ],
      [
        "ĠINTERPOLATEDSTRING",
        "TEX"
      ],
      [
        "ĠSWITCHEXPRESSION",
        "ARM"
      ],
      [
        "ĠINTERPOLATEDSTRINGTEX",
        "T"
      ],
      [
        "l",
        "y"
      ],
      [
        "Ġ",
        "word"
      ],
      [
        "e",
        "m"
      ],
      [
        "ay",
        "s"
      ],
      [
        "ĠINTERPOLATEDSTRING",
        "EXPRESSION"
      ],
      [
        "Word",
        "s"
      ],
      [
        "on",
        "g"
      ],
      [
        "at",
        "ion"
      ],
      [
        "bl",
        "e"
      ],
      [
        "ex",
        "t"
      ],
      [
        "urn",
        "s"
      ],
      [
        "g",
        "th"
      ],
      [
        "in",
        "e"
      ],
      [
        "en",
        "gth"
      ],
      [
        "C",
        "T"
      ],
      [
        "ec",
        "t"
      ],
      [
        "p",
        "res"
      ],
      [
        "On",
        "ly"
      ],
      [
        "p",
        "ri"
      ],
      [
        "IT",
        "ION"
      ],
      [
        "i",
        "g"
      ],
      [
        "il",
        "l"
      ],
      [
        "Ġ",
        "l"
      ],
      [
        "G",
        "IC"
      ],
      [
        "O",
        "GIC"
      ],
      [
        "ĠL",
        "OGIC"
      ],
      [
        "ĠLOGIC",
        "AL"
      ],
      [
        "I",
        "n"
      ],
      [
        "v",
        "ate"
      ],
      [
        "um",
        "an"
      ],
      [
        "[",
        "]"
      ],
      [
        "pri",
        "vate"
      ],
      [
        "S",
        "p"
      ],
      [
        "G",
        "rammaticalGender"
      ],
      [
        "Ġ",
        "4"
      ],
      [
        "ĠC",
        "onvert"
      ],
      [
        "D",
        "ITION"
      ],
      [
        "ĠCON",
        "DITION"
      ],
      [
        "d",
        "ate"
      ],
      [
        "ĠCONDITION",
        "ALEXPRESSION"
      ],
      [
        "p",
        "t"
      ],
      [
        "yt",
        "e"
      ],
      [
        "Unit",
        "s"
      ],
      [
        "u",
        "s"
      ],
      [
        "fi",
        "x"
      ],
      [
        "ou",
        "s"
      ],
      [
        "Ġp",
        "rovi"
      ],
      [
        "ĠL",
        "ESS"
      ],
      [
        "v",
        "e"
      ],
      [
        "C",
        "RE"
      ],
      [
        "CRE",
        "ATIONEXPRESSION"
      ],
      [
        "an",
        "d"
      ],
      [
        "D",
        "ateTime"
      ],
      [
        "G",
        "et"
      ],
      [
        "d",
        "ed"
      ],
      [
        "ĠMODULO",
        "EXPRESSION"
      ],
      [
        "iz",
        "ed"
      ],
      [
        "FIELD",
        "S"
      ],
      [
        "Par",
        "t"
      ],
      [
        "F",
        "rom"
      ],
      [
        "ate",
        "Only"
      ],
      [
        "H",
        "our"
      ],
      [
        "B",
        "J"
      ],
      [
        "E",
        "CT"
      ],
      [
        "O",
        "BJ"
      ],
      [
        "ECT",
        "CREATIONEXPRESSION"
      ],
      [
        "OBJ",
        "ECTCREATIONEXPRESSION"
      ],
      [
        "N",
        "ame"
      ],
      [
        "pres",
        "ent"
      ],
      [
        "undre",
        "ds"
      ],
      [
        "Ġ100",
        "0"
      ],
      [
        "V",
        "alue"
      ],
      [
        "o",
        "c"
      ],
      [
        "Ġ",
        "gender"
      ],
      [
        "in",
        "ut"
      ],
      [
        "o",
        "t"
      ],
      [
        "ul",
        "ar"
      ],
      [
        "yt",
        "es"
      ],
      [
        "Ġre",
        "present"
      ],
      [
        "a",
        "ce"
      ],
      [
        "e",
        "g"
      ],
      [
        "f",
        "a"
      ],
      [
        "l",
        "ect"
      ],
      [
        "un",
        "c"
      ],
      [
        "T",
        "ens"
      ],
      [
        "ec",
        "on"
      ],
      [
        "Ġprovi",
        "ded"
      ],
      [
        "re",
        "t"
      ],
      [
        "fa",
        "ult"
      ],
      [
        "o",
        "w"
      ],
      [
        "Ġ",
        "R"
      ],
      [
        "ol",
        "lect"
      ],
      [
        "uman",
        "ize"
      ],
      [
        "O",
        "RE"
      ],
      [
        "a",
        "b"
      ],
      [
        "un",
        "it"
      ],
      [
        "H",
        "umanize"
      ],
      [
        "a",
        "d"
      ],
      [
        "Ġc",
        "ulture"
      ],
      [
        "Ġ",
        "h"
      ],
      [
        "SE",
        "CLAUSE"
      ],
      [
        "ĠG",
        "et"
      ],
      [
        "ec",
        "i"
      ],
      [
        "ĠEL",
        "SECLAUSE"
      ],
      [
        "Ġf",
        "rom"
      ],
      [
        "ill",
        "ion"
      ],
      [
        "Sp",
        "an"
      ],
      [
        "c",
        "h"
      ],
      [
        "F",
        "orm"
      ],
      [
        "ul",
        "l"
      ],
      [
        "ver",
        "ri"
      ],
      [
        "verri",
        "de"
      ],
      [
        "Ġb",
        "o"
      ],
      [
        "ĠLESS",
        "THANEXPRESSION"
      ],
      [
        "Ġo",
        "verride"
      ],
      [
        "Par",
        "ts"
      ],
      [
        "ret",
        "urns"
      ],
      [
        "Ġbo",
        "ol"
      ],
      [
        "Ġ",
        "w"
      ],
      [
        "Ġ10000",
        "0000"
      ],
      [
        "ĠMODULO",
        "ASSIGNMENTEXPRESSION"
      ],
      [
        "ĠS",
        "U"
      ],
      [
        "ĠC",
        "A"
      ],
      [
        "yte",
        "S"
      ],
      [
        "econ",
        "ds"
      ],
      [
        "as",
        "c"
      ],
      [
        "res",
        "ult"
      ],
      [
        "r",
        "unc"
      ],
      [
        "h",
        "ous"
      ],
      [
        "y",
        "ear"
      ],
      [
        "fi",
        "ed"
      ],
      [
        "AN",
        "DEXPRESSION"
      ],
      [
        "ĠSU",
        "B"
      ],
      [
        "E",
        "x"
      ],
      [
        "f",
        "o"
      ],
      [
        "QU",
        "ALEXPRESSION"
      ],
      [
        "THAN",
        "ORE"
      ],
      [
        "THANORE",
        "QUALEXPRESSION"
      ],
      [
        "ĠG",
        "rammaticalGender"
      ],
      [
        "ĠLOGICAL",
        "ANDEXPRESSION"
      ],
      [
        "t",
        "er"
      ],
      [
        "Ġ",
        "us"
      ],
      [
        "AL",
        "SE"
      ],
      [
        "ĠF",
        "ALSE"
      ],
      [
        "ĠFALSE",
        "LITERALEXPRESSION"
      ],
      [
        "l",
        "ong"
      ],
      [
        "ur",
        "al"
      ],
      [
        "as",
        "e"
      ],
      [
        "de",
        "fault"
      ],
      [
        "inut",
        "es"
      ],
      [
        "u",
        "al"
      ],
      [
        "re",
        "c"
      ],
      [
        "ou",
        "ble"
      ],
      [
        "O",
        "T"
      ],
      [
        "on",
        "th"
      ],
      [
        ":",
        "_"
      ],
      [
        "D",
        "ASSIGNMENTEXPRESSION"
      ],
      [
        "re",
        "nt"
      ],
      [
        "ing",
        "ular"
      ],
      [
        "ur",
        "rent"
      ],
      [
        "ĠAD",
        "DASSIGNMENTEXPRESSION"
      ],
      [
        "Ġ",
        "5"
      ],
      [
        "Ġ",
        "U"
      ],
      [
        "Ġ",
        "OBJECTCREATIONEXPRESSION"
      ],
      [
        "o",
        "m"
      ],
      [
        "t",
        "ens"
      ],
      [
        "ig",
        "it"
      ],
      [
        "ou",
        "nt"
      ],
      [
        "O",
        "f"
      ],
      [
        "e",
        "y"
      ],
      [
        "word",
        "s"
      ],
      [
        "In",
        "fo"
      ],
      [
        "Units",
        "Map"
      ],
      [
        "F",
        "ormat"
      ],
      [
        "i",
        "st"
      ],
      [
        "Ġ",
        "is"
      ],
      [
        "our",
        "ce"
      ],
      [
        "it",
        "h"
      ],
      [
        "Time",
        "Unit"
      ],
      [
        "yteS",
        "ize"
      ],
      [
        "e",
        "k"
      ],
      [
        "Ġs",
        "p"
      ],
      [
        "A",
        "nd"
      ],
      [
        "C",
        "on"
      ],
      [
        "e",
        "ek"
      ],
      [
        "i",
        "ve"
      ],
      [
        "in",
        "ine"
      ],
      [
        "ST",
        "EXPRESSION"
      ],
      [
        "ĠL",
        "ength"
      ],
      [
        "Ġ10000",
        "00"
      ],
      [
        "em",
        "inine"
      ],
      [
        "ĠCA",
        "STEXPRESSION"
      ],
      [
        "ul",
        "ine"
      ],
      [
        "asc",
        "uline"
      ],
      [
        "a",
        "st"
      ],
      [
        "c",
        "ulture"
      ],
      [
        "r",
        "ou"
      ],
      [
        "re",
        "fix"
      ],
      [
        "pt",
        "ion"
      ],
      [
        "Ġb",
        "e"
      ],
      [
        "a",
        "x"
      ],
      [
        "ĠF",
        "rom"
      ],
      [
        "Ġword",
        "s"
      ],
      [
        "Ġ",
        "year"
      ],
      [
        "C",
        "ollect"
      ],
      [
        "Ġ",
        "value"
      ],
      [
        "AL",
        "PATTERN"
      ],
      [
        "a",
        "ble"
      ],
      [
        "t",
        "ime"
      ],
      [
        "ĠD",
        "ateTime"
      ],
      [
        "L",
        "L"
      ],
      [
        "ĠNU",
        "LL"
      ],
      [
        "ĠD",
        "ateOnly"
      ],
      [
        "Ġrepresent",
        "ing"
      ],
      [
        "S",
        "y"
      ],
      [
        "Y",
        "ear"
      ],
      [
        "f",
        "ormat"
      ],
      [
        "ĠT",
        "R"
      ],
      [
        "M",
        "at"
      ],
      [
        "an",
        "ds"
      ],
      [
        "UE",
        "LITERALEXPRESSION"
      ],
      [
        "oc",
        "al"
      ],
      [
        "ĠTR",
        "UELITERALEXPRESSION"
      ],
      [
        "Ġ",
        "6"
      ],
      [
        "Ġt",
        "h"
      ],
      [
        "Ġd",
        "ays"
      ],
      [
        "ab",
        "ytes"
      ],
      [
        "onth",
        "s"
      ],
      [
        "Ġsp",
        "eci"
      ],
      [
        "at",
        "or"
      ],
      [
        "ulture",
        "Info"
      ],
      [
        "eek",
        "s"
      ],
      [
        "ĠNULL",
        "LITERALEXPRESSION"
      ],
      [
        "i",
        "pl"
      ],
      [
        "Ġ",
        "W"
      ],
      [
        "ult",
        "ipl"
      ],
      [
        "ĠM",
        "asculine"
      ],
      [
        "To",
        "Ordinal"
      ],
      [
        "(",
        ")"
      ],
      [
        "9",
        "9"
      ],
      [
        "00",
        "0"
      ],
      [
        "ord",
        "inal"
      ],
      [
        "ce",
        "ption"
      ],
      [
        "Ġb",
        "y"
      ],
      [
        "illion",
        "s"
      ],
      [
        "K",
        "ey"
      ],
      [
        "a",
        "c"
      ],
      [
        "b",
        "ol"
      ],
      [
        "m",
        "bol"
      ],
      [
        "Ġd",
        "ouble"
      ],
      [
        "ĠF",
        "eminine"
      ],
      [
        "undre",
        "d"
      ],
      [
        "L",
        "ATION"
      ],
      [
        "Ġ",
        "\""
      ],
      [
        "ĠRE",
        "LATION"
      ],
      [
        "Ġl",
        "ong"
      ],
      [
        "ĠRELATION",
        "ALPATTERN"
      ],
      [
        "D",
        "ays"
      ],
      [
        "D",
        "igit"
      ],
      [
        "ĠT",
        "ime"
      ],
      [
        "ĠGREATER",
        "THANOREQUALEXPRESSION"
      ],
      [
        "a",
        "in"
      ],
      [
        "l",
        "ural"
      ],
      [
        "ĠI",
        "S"
      ],
      [
        "or",
        "t"
      ],
      [
        "Ex",
        "ception"
      ],
      [
        "rou",
        "p"
      ],
      [
        "T",
        "R"
      ],
      [
        "l",
        "e"
      ],
      [
        "PATTERN",
        "EXPRESSION"
      ],
      [
        "orm",
        "al"
      ],
      [
        "ĠIS",
        "PATTERNEXPRESSION"
      ],
      [
        "1",
        "0"
      ],
      [
        "D",
        "ateOnly"
      ],
      [
        "I",
        "PL"
      ],
      [
        "T",
        "IPL"
      ],
      [
        "ĠM",
        "UL"
      ],
      [
        "ĠTo",
        "Words"
      ],
      [
        "TIPL",
        "Y"
      ],
      [
        "ĠMUL",
        "TIPLY"
      ],
      [
        "H",
        "undreds"
      ],
      [
        "S",
        "EXPRESSION"
      ],
      [
        "AC",
        "T"
      ],
      [
        "Ġ100000000",
        "0"
      ],
      [
        "ĠSUB",
        "TR"
      ],
      [
        "ĠSUBTR",
        "ACT"
      ],
      [
        "ĠN",
        "OT"
      ],
      [
        "Ġt",
        "ime"
      ],
      [
        "T",
        "hous"
      ],
      [
        "t",
        "o"
      ],
      [
        "Ġ",
        "7"
      ],
      [
        "Ġ",
        "PR"
      ],
      [
        "ĠMULTIPLY",
        "EXPRESSION"
      ],
      [
        "der",
        "s"
      ],
      [
        "Tens",
        "Map"
      ],
      [
        "ĠSUBTRACT",
        "EXPRESSION"
      ],
      [
        "O",
        "P"
      ],
      [
        "s",
        "p"
      ],
      [
        "Ġ",
        "i"
      ],
      [
        "um",
        "ent"
      ],
      [
        "ĠPR",
        "OP"
      ],
      [
        "ĠPROP",
        "ER"
      ],
      [
        "Ġ",
        "as"
      ],
      [
        "re",
        "e"
      ],
      [
        "pt",
        "y"
      ],
      [
        "E",
        "nd"
      ],
      [
        "T",
        "ext"
      ],
      [
        "P",
        "refix"
      ],
      [
        "res",
        "ource"
      ],
      [
        "C",
        "OL"
      ],
      [
        "F",
        "or"
      ],
      [
        "ĠNAME",
        "COL"
      ],
      [
        "ĠNAMECOL",
        "ON"
      ],
      [
        "E",
        "QUALS"
      ],
      [
        "i",
        "v"
      ],
      [
        "m",
        "pty"
      ],
      [
        "Ġ",
        "unit"
      ],
      [
        "de",
        "x"
      ],
      [
        "Mat",
        "h"
      ],
      [
        "ĠNOT",
        "EQUALS"
      ],
      [
        "ĠNOTEQUALS",
        "EXPRESSION"
      ],
      [
        "ĠC",
        "on"
      ],
      [
        "an",
        "t"
      ],
      [
        "is",
        "Ordinal"
      ],
      [
        "Collect",
        "Parts"
      ],
      [
        "Ġspeci",
        "fied"
      ],
      [
        "M",
        "IN"
      ],
      [
        "N",
        "AR"
      ],
      [
        "U",
        "SEXPRESSION"
      ],
      [
        "Y",
        "MIN"
      ],
      [
        "r",
        "ic"
      ],
      [
        "Ġ",
        "OR"
      ],
      [
        "ĠU",
        "NAR"
      ],
      [
        "YMIN",
        "USEXPRESSION"
      ],
      [
        "ĠOR",
        "PATTERN"
      ],
      [
        "ĠUNAR",
        "YMINUSEXPRESSION"
      ],
      [
        "D",
        "PATTERN"
      ],
      [
        "P",
        "lural"
      ],
      [
        "t",
        "ion"
      ],
      [
        "Ġf",
        "ormat"
      ],
      [
        "Ġn",
        "ull"
      ],
      [
        "s",
        "i"
      ],
      [
        "Ġc",
        "urrent"
      ],
      [
        "ormal",
        "ized"
      ],
      [
        "a",
        "Unit"
      ],
      [
        "g",
        "n"
      ],
      [
        "Ġ",
        "parts"
      ],
      [
        "ĠI",
        "s"
      ],
      [
        "at",
        "aUnit"
      ],
      [
        "ow",
        "er"
      ],
      [
        "ĠTime",
        "Span"
      ],
      [
        "ĠPROPER",
        "TY"
      ],
      [
        "Ġ",
        "g"
      ],
      [
        "um",
        "er"
      ],
      [
        "o",
        "de"
      ],
      [
        "s",
        "ed"
      ],
      [
        "re",
        "ate"
      ],
      [
        "ĠB",
        "yteSize"
      ],
      [
        "c",
        "ount"
      ],
      [
        "q",
        "u"
      ],
      [
        "it",
        "y"
      ],
      [
        "Ġrepresent",
        "ation"
      ],
      [
        "runc",
        "ate"
      ],
      [
        "S",
        "ingular"
      ],
      [
        "h",
        "undreds"
      ],
      [
        "i",
        "fied"
      ],
      [
        "o",
        "re"
      ],
      [
        "p",
        "p"
      ],
      [
        "ĠI",
        "MPL"
      ],
      [
        "ĠC",
        "ultureInfo"
      ],
      [
        "ĠT",
        "r"
      ],
      [
        "IC",
        "IT"
      ],
      [
        "ĠTo",
        "String"
      ],
      [
        "ual",
        "ified"
      ],
      [
        "ĠIMPL",
        "ICIT"
      ],
      [
        "C",
        "ase"
      ],
      [
        "S",
        "C"
      ],
      [
        "m",
        "pl"
      ],
      [
        "Ġ",
        "ordinal"
      ],
      [
        "number",
        "String"
      ],
      [
        "ĠL",
        "ist"
      ],
      [
        "pl",
        "ace"
      ],
      [
        "ant",
        "ity"
      ],
      [
        "u",
        "il"
      ],
      [
        "Ġ",
        "Year"
      ],
      [
        "ar",
        "y"
      ],
      [
        "is",
        "or"
      ],
      [
        "Ġus",
        "e"
      ],
      [
        "ultipl",
        "i"
      ],
      [
        "iv",
        "isor"
      ],
      [
        "g",
        "e"
      ],
      [
        "l",
        "ast"
      ],
      [
        "u",
        "f"
      ],
      [
        "Ġ2",
        "0"
      ],
      [
        "On",
        "e"
      ],
      [
        "ad",
        "ing"
      ],
      [
        "om",
        "par"
      ],
      [
        "H",
        "AR"
      ],
      [
        "s",
        "e"
      ],
      [
        "TER",
        "LITERALEXPRESSION"
      ],
      [
        "AC",
        "TERLITERALEXPRESSION"
      ],
      [
        "ĠC",
        "HAR"
      ],
      [
        "an",
        "s"
      ],
      [
        "et",
        "ric"
      ],
      [
        "ĠIMPLICIT",
        "OBJECTCREATIONEXPRESSION"
      ],
      [
        "ĠCHAR",
        "ACTERLITERALEXPRESSION"
      ],
      [
        "i",
        "d"
      ],
      [
        "o",
        "st"
      ],
      [
        "Ġ",
        "v"
      ],
      [
        "ĠE",
        "mpty"
      ],
      [
        "ualified",
        "Name"
      ],
      [
        "uf",
        "fix"
      ],
      [
        "L",
        "ength"
      ],
      [
        "Ġ",
        "8"
      ],
      [
        "Ġ",
        "an"
      ],
      [
        "n",
        "ormalized"
      ],
      [
        "Ġ",
        "TH"
      ],
      [
        "ĠT",
        "ri"
      ],
      [
        "ill",
        "is"
      ],
      [
        "Ġh",
        "our"
      ],
      [
        "Thous",
        "and"
      ],
      [
        "ĠTri",
        "m"
      ],
      [
        "D",
        "i"
      ],
      [
        "f",
        "orm"
      ],
      [
        "o",
        "b"
      ],
      [
        "Ġ",
        "EXPRESSION"
      ],
      [
        "EL",
        "EMENT"
      ],
      [
        "ĠEXPRESSION",
        "ELEMENT"
      ],
      [
        "T",
        "h"
      ],
      [
        "it",
        "s"
      ],
      [
        "ĠAdd",
        "Days"
      ],
      [
        "Ġm",
        "inutes"
      ],
      [
        "Format",
        "ter"
      ],
      [
        "I",
        "mpl"
      ],
      [
        "th",
        "ous"
      ],
      [
        "Ġs",
        "econds"
      ],
      [
        "Sy",
        "mbol"
      ],
      [
        ">",
        ":"
      ],
      [
        "A",
        "r"
      ],
      [
        "c",
        "at"
      ],
      [
        "Ġ",
        "J"
      ],
      [
        "rovi",
        "der"
      ],
      [
        "ĠR",
        "e"
      ],
      [
        "runc",
        "ation"
      ],
      [
        "ĠSUB",
        "PATTERN"
      ],
      [
        "Ġus",
        "ed"
      ],
      [
        "e",
        "l"
      ],
      [
        "nt",
        "ax"
      ],
      [
        "Ġw",
        "eeks"
      ],
      [
        "Ġ100000000",
        "0000"
      ],
      [
        "B",
        "yteSize"
      ],
      [
        "Ġ",
        "Hour"
      ],
      [
        "ul",
        "e"
      ],
      [
        "ou",
        "nd"
      ],
      [
        "Ġd",
        "ay"
      ],
      [
        "fi",
        "g"
      ],
      [
        "Ġhour",
        "s"
      ],
      [
        "C",
        "reate"
      ],
      [
        "M",
        "inutes"
      ],
      [
        "i",
        "m"
      ],
      [
        "Ġ",
        "Ordinal"
      ],
      [
        "ĠP",
        "O"
      ],
      [
        "at",
        "ch"
      ],
      [
        "Sp",
        "ace"
      ],
      [
        "ĠConvert",
        "ToOrdinal"
      ],
      [
        "eg",
        "er"
      ],
      [
        "rec",
        "t"
      ],
      [
        "to",
        "Words"
      ],
      [
        "End",
        "ing"
      ],
      [
        "W",
        "ith"
      ],
      [
        "Ġ",
        "and"
      ],
      [
        "ch",
        "ar"
      ],
      [
        "Create",
        "s"
      ],
      [
        "t",
        "ic"
      ],
      [
        "t",
        "ext"
      ],
      [
        "ing",
        "Di"
      ],
      [
        "sp",
        "ace"
      ],
      [
        "resource",
        "Key"
      ],
      [
        "rect",
        "ive"
      ],
      [
        "ingDi",
        "rective"
      ],
      [
        "Ġ",
        "("
      ],
      [
        "Ġ",
        "ex"
      ],
      [
        "dd",
        "And"
      ],
      [
        "is",
        "ion"
      ],
      [
        "Word",
        "Form"
      ],
      [
        "Ġint",
        "eger"
      ],
      [
        "rec",
        "ision"
      ],
      [
        "ain",
        "der"
      ],
      [
        "H",
        "undred"
      ],
      [
        "p",
        "pl"
      ],
      [
        "Ġ",
        "9"
      ],
      [
        "Ġ",
        "or"
      ],
      [
        "Ġ",
        "un"
      ],
      [
        "Un",
        "count"
      ],
      [
        "is",
        "on"
      ],
      [
        "Convert",
        "er"
      ],
      [
        "CT",
        "ION"
      ],
      [
        "ĠLESS",
        "THANOREQUALEXPRESSION"
      ],
      [
        "ompar",
        "ison"
      ],
      [
        "Uncount",
        "able"
      ],
      [
        "S",
        "et"
      ],
      [
        "z",
        "en"
      ],
      [
        "ĠA",
        "s"
      ],
      [
        "ro",
        "zen"
      ],
      [
        "et",
        "urns"
      ],
      [
        "ĠDI",
        "SC"
      ],
      [
        "pl",
        "ural"
      ],
      [
        "Ġword",
        "Form"
      ],
      [
        "Hundreds",
        "Map"
      ],
      [
        "tic",
        "le"
      ],
      [
        "ĠDISC",
        "AR"
      ],
      [
        "c",
        "urrent"
      ],
      [
        "d",
        "ivisor"
      ],
      [
        "n",
        "um"
      ],
      [
        "Ġ",
        "Humanize"
      ],
      [
        "ic",
        "tion"
      ],
      [
        "Un",
        "der"
      ],
      [
        "ĠAdd",
        "Uncountable"
      ],
      [
        "Ġf",
        "or"
      ],
      [
        "In",
        "dex"
      ],
      [
        "ĠCon",
        "cat"
      ],
      [
        "ĠAs",
        "Span"
      ],
      [
        "iction",
        "ary"
      ],
      [
        "A",
        "Y"
      ],
      [
        "N",
        "OT"
      ],
      [
        "R",
        "ule"
      ],
      [
        "R",
        "AY"
      ],
      [
        "OR",
        "EXPRESSION"
      ],
      [
        "ĠLOGICAL",
        "NOT"
      ],
      [
        "uman",
        "ized"
      ],
      [
        "ĠTr",
        "y"
      ],
      [
        "illis",
        "econds"
      ],
      [
        "ĠRe",
        "place"
      ],
      [
        "ĠLOGICALNOT",
        "EXPRESSION"
      ],
      [
        "P",
        "rovider"
      ],
      [
        "g",
        "roup"
      ],
      [
        "ĠD",
        "ays"
      ],
      [
        "Con",
        "si"
      ],
      [
        "ppl",
        "y"
      ],
      [
        "Consi",
        "ders"
      ],
      [
        "'",
        "s"
      ],
      [
        "C",
        "ulture"
      ],
      [
        "E",
        "EXPRESSION"
      ],
      [
        "o",
        "d"
      ],
      [
        "o",
        "id"
      ],
      [
        "p",
        "ro"
      ],
      [
        "ĠA",
        "b"
      ],
      [
        "es",
        "ource"
      ],
      [
        "Ġnumber",
        "String"
      ],
      [
        "il",
        "ob"
      ],
      [
        "ĠLOGICAL",
        "OREXPRESSION"
      ],
      [
        "inut",
        "e"
      ],
      [
        "uil",
        "der"
      ],
      [
        "normalized",
        "Hour"
      ],
      [
        "runcation",
        "String"
      ],
      [
        "fig",
        "ur"
      ],
      [
        "R",
        "eturns"
      ],
      [
        "Ġ1",
        "2"
      ],
      [
        "Ġt",
        "ens"
      ],
      [
        "is",
        "h"
      ],
      [
        "Ġc",
        "onvert"
      ],
      [
        "Con",
        "figur"
      ],
      [
        "Sy",
        "ntax"
      ],
      [
        "ree",
        "Digit"
      ],
      [
        "ĠDISCAR",
        "DPATTERN"
      ],
      [
        "Configur",
        "ator"
      ],
      [
        "d",
        "ing"
      ],
      [
        "d",
        "ay"
      ],
      [
        "l",
        "ocal"
      ],
      [
        "m",
        "al"
      ],
      [
        "Ġ",
        "-"
      ],
      [
        "ĠI",
        "f"
      ],
      [
        "re",
        "ad"
      ],
      [
        "Number",
        "To"
      ],
      [
        "Ġl",
        "ocal"
      ],
      [
        "oc",
        "ument"
      ],
      [
        "ans",
        "form"
      ],
      [
        "B",
        "ase"
      ],
      [
        "h",
        "ar"
      ],
      [
        "Ġv",
        "oid"
      ],
      [
        "omparison",
        "Base"
      ],
      [
        "1",
        "1"
      ],
      [
        "A",
        "s"
      ],
      [
        "S",
        "uffix"
      ],
      [
        "W",
        "h"
      ],
      [
        "e",
        "st"
      ],
      [
        "g",
        "ument"
      ],
      [
        "u",
        "st"
      ],
      [
        "ext",
        "Hour"
      ],
      [
        "unit",
        "s"
      ],
      [
        "thous",
        "ands"
      ],
      [
        "h",
        "ort"
      ],
      [
        "o",
        "ve"
      ],
      [
        "Ġ",
        "me"
      ],
      [
        "on",
        "text"
      ],
      [
        "ĠAR",
        "RAY"
      ],
      [
        "es",
        "s"
      ],
      [
        "Ġn",
        "ot"
      ],
      [
        "C",
        "R"
      ],
      [
        "g",
        "ular"
      ],
      [
        "l",
        "l"
      ],
      [
        "m",
        "ainder"
      ],
      [
        "o",
        "in"
      ],
      [
        "Ġ",
        "result"
      ],
      [
        "EMENT",
        "EXPRESSION"
      ],
      [
        "ĠE",
        "n"
      ],
      [
        "it",
        "em"
      ],
      [
        "Ġs",
        "e"
      ],
      [
        "Ġa",
        "ddAnd"
      ],
      [
        "pres",
        "s"
      ],
      [
        "eg",
        "ex"
      ],
      [
        "eci",
        "mal"
      ],
      [
        "ĠFrom",
        "DateTime"
      ],
      [
        "Ġg",
        "rammatical"
      ],
      [
        "ĠAb",
        "s"
      ],
      [
        "CR",
        "EMENTEXPRESSION"
      ],
      [
        "A",
        "pply"
      ],
      [
        "d",
        "ouble"
      ],
      [
        "e",
        "fault"
      ],
      [
        "y",
        "mbol"
      ],
      [
        "an",
        "ce"
      ],
      [
        "Ġn",
        "ame"
      ],
      [
        "Name",
        "space"
      ],
      [
        "I",
        "s"
      ],
      [
        "K",
        "ilob"
      ],
      [
        "M",
        "onths"
      ],
      [
        "R",
        "esource"
      ],
      [
        "S",
        "e"
      ],
      [
        "n",
        "al"
      ],
      [
        "o",
        "s"
      ],
      [
        "For",
        "Gender"
      ],
      [
        "Ġunit",
        "s"
      ],
      [
        "ĠPO",
        "ST"
      ],
      [
        "1",
        "2"
      ],
      [
        "A",
        "EXPRESSION"
      ],
      [
        "A",
        "MB"
      ],
      [
        "D",
        "AEXPRESSION"
      ],
      [
        "G",
        "roup"
      ],
      [
        "N",
        "umer"
      ],
      [
        "R",
        "o"
      ],
      [
        "a",
        "gn"
      ],
      [
        "c",
        "onvert"
      ],
      [
        "e",
        "w"
      ],
      [
        "ĠN",
        "umber"
      ],
      [
        "he",
        "ading"
      ],
      [
        "Ġint",
        "o"
      ],
      [
        "hous",
        "ands"
      ],
      [
        "ders",
        "c"
      ],
      [
        "qu",
        "antity"
      ],
      [
        "runcate",
        "From"
      ],
      [
        "ost",
        "ic"
      ],
      [
        "AMB",
        "DAEXPRESSION"
      ],
      [
        "agn",
        "ostic"
      ],
      [
        "C",
        "onver"
      ],
      [
        "Q",
        "u"
      ],
      [
        "T",
        "en"
      ],
      [
        "f",
        "ull"
      ],
      [
        "r",
        "re"
      ],
      [
        "s",
        "From"
      ],
      [
        "ĠF",
        "ormat"
      ],
      [
        "Ġre",
        "t"
      ],
      [
        "ollect",
        "ion"
      ],
      [
        "Ġw",
        "ith"
      ],
      [
        "ĠW",
        "eeks"
      ],
      [
        "Ending",
        "ForGender"
      ],
      [
        "Conver",
        "ts"
      ],
      [
        "rre",
        "gular"
      ],
      [
        "1",
        "3"
      ],
      [
        "D",
        "ataUnit"
      ],
      [
        "D",
        "ictionary"
      ],
      [
        "T",
        "r"
      ],
      [
        "q",
        "ualifiedName"
      ],
      [
        "en",
        "d"
      ],
      [
        "en",
        "ce"
      ],
      [
        "ĠF",
        "rozen"
      ],
      [
        "pl",
        "e"
      ],
      [
        "Ġi",
        "f"
      ],
      [
        "last",
        "Part"
      ],
      [
        "Ro",
        "ot"
      ],
      [
        "S",
        "I"
      ],
      [
        "d",
        "igit"
      ],
      [
        "l",
        "ength"
      ],
      [
        "r",
        "t"
      ],
      [
        "t",
        "runcationString"
      ],
      [
        "Ġ",
        "vi"
      ],
      [
        "Ġ",
        "WordForm"
      ],
      [
        "er",
        "abytes"
      ],
      [
        "ĠSIMPL",
        "EL"
      ],
      [
        "ate",
        "d"
      ],
      [
        "ĠA",
        "r"
      ],
      [
        "it",
        "e"
      ],
      [
        "par",
        "ator"
      ],
      [
        "ROW",
        "STATEMENT"
      ],
      [
        "ig",
        "n"
      ],
      [
        "ig",
        "abytes"
      ],
      [
        "ĠU",
        "I"
      ],
      [
        "Ġyear",
        "s"
      ],
      [
        "Ġth",
        "read"
      ],
      [
        "ĠTH",
        "ROWSTATEMENT"
      ],
      [
        "ĠJ",
        "oin"
      ],
      [
        "ecimal",
        "s"
      ],
      [
        "rt",
        "ual"
      ],
      [
        "Ġvi",
        "rtual"
      ],
      [
        "ĠSIMPLEL",
        "AMBDAEXPRESSION"
      ],
      [
        "1",
        "5"
      ],
      [
        "G",
        "EEXPRESSION"
      ],
      [
        "N",
        "ull"
      ],
      [
        "f",
        "ic"
      ],
      [
        "m",
        "atch"
      ],
      [
        "t",
        "ain"
      ],
      [
        "Ġ",
        "H"
      ],
      [
        "re",
        "st"
      ],
      [
        "ĠV",
        "alue"
      ],
      [
        "an",
        "ge"
      ],
      [
        "ĠM",
        "etric"
      ],
      [
        "AN",
        "GEEXPRESSION"
      ],
      [
        "Ġs",
        "u"
      ],
      [
        "Convert",
        "Impl"
      ],
      [
        "ĠR",
        "ANGEEXPRESSION"
      ],
      [
        "1",
        "4"
      ],
      [
        "L",
        "AB"
      ],
      [
        "M",
        "etric"
      ],
      [
        "S",
        "WITCH"
      ],
      [
        "i",
        "date"
      ],
      [
        "SE",
        "CTION"
      ],
      [
        "ĠC",
        "O"
      ],
      [
        "ĠD",
        "ay"
      ],
      [
        "ĠAdd",
        "Months"
      ],
      [
        "ĠSWITCH",
        "SECTION"
      ],
      [
        "Ġm",
        "onths"
      ],
      [
        "Ġm",
        "ultipl"
      ],
      [
        "Ġl",
        "ast"
      ],
      [
        "om",
        "an"
      ],
      [
        "Qu",
        "antity"
      ],
      [
        "ĠAr",
        "gument"
      ],
      [
        "LAB",
        "EL"
      ],
      [
        "SWITCH",
        "LABEL"
      ],
      [
        "C",
        "ultureInfo"
      ],
      [
        "K",
        "STATEMENT"
      ],
      [
        "L",
        "e"
      ],
      [
        "N",
        "DPATTERN"
      ],
      [
        "c",
        "ontext"
      ],
      [
        "h",
        "undred"
      ],
      [
        "i",
        "agnostic"
      ],
      [
        "u",
        "ple"
      ],
      [
        "ĠA",
        "NDPATTERN"
      ],
      [
        "ĠD",
        "ate"
      ],
      [
        "Ordinal",
        "Parts"
      ],
      [
        "Ġre",
        "ad"
      ],
      [
        "Ġh",
        "undreds"
      ],
      [
        "ĠFrozen",
        "Dictionary"
      ],
      [
        "Ġread",
        "able"
      ],
      [
        "A",
        "KSTATEMENT"
      ],
      [
        "C",
        "har"
      ],
      [
        "I",
        "rregular"
      ],
      [
        "P",
        "er"
      ],
      [
        "T",
        "he"
      ],
      [
        "i",
        "od"
      ],
      [
        "p",
        "h"
      ],
      [
        "s",
        "Map"
      ],
      [
        "Ġ",
        "DECLAR"
      ],
      [
        "ĠB",
        "RE"
      ],
      [
        "et",
        "ter"
      ],
      [
        "word",
        "Form"
      ],
      [
        "ĠAdd",
        "Year"
      ],
      [
        "pl",
        "it"
      ],
      [
        "Ġs",
        "ingular"
      ],
      [
        "and",
        "idate"
      ],
      [
        "rou",
        "nd"
      ],
      [
        "99",
        "99"
      ],
      [
        "Prefix",
        "es"
      ],
      [
        "pp",
        "er"
      ],
      [
        "NumberTo",
        "Text"
      ],
      [
        "Wh",
        "ite"
      ],
      [
        "Per",
        "iod"
      ],
      [
        "ĠDECLAR",
        "ATIONEXPRESSION"
      ],
      [
        "ĠBRE",
        "AKSTATEMENT"
      ],
      [
        "ĠAddYear",
        "s"
      ],
      [
        "White",
        "Space"
      ],
      [
        "C",
        "UR"
      ],
      [
        "E",
        "PATTERN"
      ],
      [
        "Q",
        "ualifiedName"
      ],
      [
        "R",
        "egex"
      ],
      [
        "R",
        "ange"
      ],
      [
        "V",
        "EPATTERN"
      ],
      [
        "o",
        "gn"
      ],
      [
        "p",
        "on"
      ],
      [
        "s",
        "ingDirective"
      ],
      [
        "Ġ",
        "on"
      ],
      [
        "re",
        "vi"
      ],
      [
        "re",
        "mainder"
      ],
      [
        "al",
        "Length"
      ],
      [
        "it",
        "er"
      ],
      [
        "ĠRE",
        "CUR"
      ],
      [
        "Ġm",
        "ultipli"
      ],
      [
        "Ġl",
        "ength"
      ],
      [
        "Get",
        "Unit"
      ],
      [
        "Hour",
        "s"
      ],
      [
        "ĠCA",
        "SE"
      ],
      [
        "rec",
        "ogn"
      ],
      [
        "ac",
        "t"
      ],
      [
        "Th",
        "reeDigit"
      ],
      [
        "im",
        "iter"
      ],
      [
        "SI",
        "VEPATTERN"
      ],
      [
        "ĠRECUR",
        "SIVEPATTERN"
      ],
      [
        "recogn",
        "ized"
      ],
      [
        "B",
        "ytes"
      ],
      [
        "D",
        "EX"
      ],
      [
        "N",
        "extHour"
      ],
      [
        "c",
        "omparisonBase"
      ],
      [
        "m",
        "on"
      ],
      [
        "Ġ",
        "e"
      ],
      [
        "Ġ",
        "plural"
      ],
      [
        "ar",
        "ticle"
      ],
      [
        "ĠIN",
        "DEX"
      ],
      [
        "IN",
        "CREMENTEXPRESSION"
      ],
      [
        "ĠC",
        "ulture"
      ],
      [
        "ĠAdd",
        "Irregular"
      ],
      [
        "Ġm",
        "illiseconds"
      ],
      [
        "econ",
        "d"
      ],
      [
        "Ġth",
        "ree"
      ],
      [
        "ĠTrim",
        "End"
      ],
      [
        "ĠINDEX",
        "EXPRESSION"
      ],
      [
        ")",
        "."
      ],
      [
        "2",
        "0"
      ],
      [
        "H",
        "STATEMENT"
      ],
      [
        "L",
        "ist"
      ],
      [
        "L",
        "ower"
      ],
      [
        "M",
        "eg"
      ],
      [
        "P",
        "ower"
      ],
      [
        "R",
        "e"
      ],
      [
        "R",
        "ound"
      ],
      [
        "i",
        "f"
      ],
      [
        "t",
        "ot"
      ],
      [
        "Ġ",
        "heading"
      ],
      [
        "AC",
        "HSTATEMENT"
      ],
      [
        "ĠC",
        "ollect"
      ],
      [
        "ĠD",
        "ataUnit"
      ],
      [
        "ĠM",
        "onths"
      ],
      [
        "ĠM",
        "inute"
      ],
      [
        "ĠAdd",
        "Singular"
      ],
      [
        "ĠF",
        "ORE"
      ],
      [
        "Ġm",
        "ax"
      ],
      [
        "Ġh",
        "umanized"
      ],
      [
        "tens",
        "e"
      ],
      [
        "to",
        "Symbol"
      ],
      [
        "ĠYear",
        "sFrom"
      ],
      [
        "ost",
        "fix"
      ],
      [
        "Th",
        "an"
      ],
      [
        "Ġex",
        "press"
      ],
      [
        "ĠDays",
        "From"
      ],
      [
        "nal",
        "y"
      ],
      [
        "os",
        "it"
      ],
      [
        "ĠPOST",
        "INCREMENTEXPRESSION"
      ],
      [
        "ĠWeeks",
        "From"
      ],
      [
        "ĠDataUnit",
        "Humanize"
      ],
      [
        "ĠMonths",
        "From"
      ],
      [
        "ĠFORE",
        "ACHSTATEMENT"
      ],
      [
        "O",
        "ut"
      ],
      [
        "b",
        "uilder"
      ],
      [
        "l",
        "imiter"
      ],
      [
        "o",
        "f"
      ],
      [
        "r",
        "ay"
      ],
      [
        "s",
        "b"
      ],
      [
        "at",
        "ive"
      ],
      [
        "Ġt",
        "ext"
      ],
      [
        "de",
        "limiter"
      ],
      [
        "ds",
        "With"
      ],
      [
        "Ġto",
        "Words"
      ],
      [
        "Ġf",
        "orm"
      ],
      [
        "Units",
        "Ordinal"
      ],
      [
        "Of",
        "Range"
      ],
      [
        "ac",
        "es"
      ],
      [
        "Thous",
        "ands"
      ],
      [
        "ĠEn",
        "dsWith"
      ],
      [
        "Ġname",
        "of"
      ],
      [
        "Kilob",
        "ytes"
      ],
      [
        "convert",
        "ed"
      ],
      [
        "dersc",
        "ore"
      ],
      [
        "pon",
        "ent"
      ],
      [
        "mon",
        "ey"
      ],
      [
        "Out",
        "OfRange"
      ],
      [
        "I",
        "nt"
      ],
      [
        "M",
        "ultipli"
      ],
      [
        "R",
        "oman"
      ],
      [
        "b",
        "revi"
      ],
      [
        "c",
        "andidate"
      ],
      [
        "u",
        "g"
      ],
      [
        "Ġ",
        "en"
      ],
      [
        "Ġ1",
        "1"
      ],
      [
        "number",
        "money"
      ],
      [
        "Ġt",
        "housands"
      ],
      [
        "par",
        "sed"
      ],
      [
        "Ġc",
        "ode"
      ],
      [
        "alu",
        "es"
      ],
      [
        "Time",
        "Only"
      ],
      [
        "Ġm",
        "ore"
      ],
      [
        "ear",
        "est"
      ],
      [
        "Ġprovi",
        "ding"
      ],
      [
        "Ġw",
        "ay"
      ],
      [
        "yteS",
        "ymbol"
      ],
      [
        "Mat",
        "ch"
      ],
      [
        "ĠOrdinal",
        "ize"
      ],
      [
        "ĠTry",
        "Get"
      ],
      [
        "Ġmultipl",
        "y"
      ],
      [
        "ĠArgument",
        "OutOfRange"
      ],
      [
        "Ġmultipli",
        "ed"
      ],
      [
        "Multipli",
        "es"
      ],
      [
        "ĠArgumentOutOfRange",
        "Exception"
      ],
      [
        "1",
        "6"
      ],
      [
        "F",
        "ive"
      ],
      [
        "T",
        "urns"
      ],
      [
        "a",
        "g"
      ],
      [
        "l",
        "oc"
      ],
      [
        "Ġ",
        "k"
      ],
      [
        "ar",
        "t"
      ],
      [
        "ĠN",
        "ow"
      ],
      [
        "ion",
        "s"
      ],
      [
        "as",
        "h"
      ],
      [
        "as",
        "sed"
      ],
      [
        "Ġp",
        "assed"
      ],
      [
        "Ġn",
        "th"
      ],
      [
        "Get",
        "Ordinal"
      ],
      [
        "eg",
        "ative"
      ],
      [
        "asc",
        "al"
      ],
      [
        "hous",
        "and"
      ],
      [
        "Collect",
        "OrdinalParts"
      ],
      [
        "Exception",
        "s"
      ],
      [
        "Ġordinal",
        "ized"
      ],
      [
        "Ġday",
        "Number"
      ],
      [
        "day",
        "Number"
      ],
      [
        "Numer",
        "al"
      ],
      [
        "ĠDate",
        "Humanize"
      ],
      [
        "tot",
        "alLength"
      ],
      [
        "earest",
        "Five"
      ],
      [
        "loc",
        "k"
      ],
      [
        "1",
        "7"
      ],
      [
        "E",
        "n"
      ],
      [
        "c",
        "al"
      ],
      [
        "e",
        "ading"
      ],
      [
        "g",
        "l"
      ],
      [
        "i",
        "x"
      ],
      [
        "j",
        "ect"
      ],
      [
        "n",
        "c"
      ],
      [
        "p",
        "recision"
      ],
      [
        "y",
        "nc"
      ],
      [
        "Tens",
        "e"
      ],
      [
        "Ex",
        "tens"
      ],
      [
        "culture",
        "Formatter"
      ],
      [
        "Ġth",
        "at"
      ],
      [
        "qu",
        "ence"
      ],
      [
        "ĠARRAY",
        "TYPE"
      ],
      [
        "osit",
        "ion"
      ],
      [
        "ĠTryGet",
        "Value"
      ],
      [
        "gl",
        "ish"
      ],
      [
        ".",
        ","
      ],
      [
        "c",
        "ri"
      ],
      [
        "t",
        "ect"
      ],
      [
        "u",
        "int"
      ],
      [
        "w",
        "o"
      ],
      [
        "er",
        "s"
      ],
      [
        "OR",
        "STATEMENT"
      ],
      [
        "es",
        "cri"
      ],
      [
        "ĠF",
        "ORSTATEMENT"
      ],
      [
        "th",
        "er"
      ],
      [
        "Ġc",
        "ollection"
      ],
      [
        "ap",
        "p"
      ],
      [
        "em",
        "ber"
      ],
      [
        "em",
        "ent"
      ],
      [
        "ab",
        "ove"
      ],
      [
        "Ġspeci",
        "fic"
      ],
      [
        "ĠW",
        "ith"
      ],
      [
        "uil",
        "d"
      ],
      [
        "Ar",
        "ray"
      ],
      [
        "im",
        "um"
      ],
      [
        "Ġun",
        "s"
      ],
      [
        "pro",
        "tect"
      ],
      [
        "Extens",
        "ions"
      ],
      [
        "protect",
        "ed"
      ],
      [
        "H",
        "eading"
      ],
      [
        "S",
        "econds"
      ],
      [
        "d",
        "ocument"
      ],
      [
        "h",
        "t"
      ],
      [
        "n",
        "ow"
      ],
      [
        "p",
        "refix"
      ],
      [
        "Ġ",
        "output"
      ],
      [
        "Ġ",
        "its"
      ],
      [
        "Ġ",
        "quantity"
      ],
      [
        "ĠI",
        "n"
      ],
      [
        "ed",
        "Exception"
      ],
      [
        "ed",
        "Namespace"
      ],
      [
        "ro",
        "ot"
      ],
      [
        "ĠM",
        "ust"
      ],
      [
        "ĠAdd",
        "Plural"
      ],
      [
        "as",
        "ing"
      ],
      [
        "Convert",
        "ToOrdinal"
      ],
      [
        "Ġm",
        "illions"
      ],
      [
        "String",
        "Humanize"
      ],
      [
        "urn",
        "ed"
      ],
      [
        "To",
        "Words"
      ],
      [
        "ab",
        "yte"
      ],
      [
        "ĠGet",
        "Resource"
      ],
      [
        "time",
        "Unit"
      ],
      [
        "One",
        "Thousand"
      ],
      [
        "Ar",
        "ticle"
      ],
      [
        "el",
        "er"
      ],
      [
        "group",
        "Number"
      ],
      [
        "tain",
        "s"
      ],
      [
        "recognized",
        "Word"
      ],
      [
        "Power",
        "Of"
      ],
      [
        "if",
        "eler"
      ],
      [
        "brevi",
        "ation"
      ],
      [
        "now",
        "n"
      ],
      [
        "StringHumanize",
        "Extensions"
      ],
      [
        "I",
        "Z"
      ],
      [
        "I",
        "AL"
      ],
      [
        "N",
        "ot"
      ],
      [
        "N",
        "ode"
      ],
      [
        "P",
        "ostfix"
      ],
      [
        "S",
        "plit"
      ],
      [
        "U",
        "singDirective"
      ],
      [
        "h",
        "as"
      ],
      [
        "n",
        "ext"
      ],
      [
        "p",
        "e"
      ],
      [
        "t",
        "r"
      ],
      [
        "Ġ",
        "resourceKey"
      ],
      [
        "ER",
        "EXPRESSION"
      ],
      [
        "in",
        "Value"
      ],
      [
        "ĠS",
        "econds"
      ],
      [
        "ĠP",
        "ar"
      ],
      [
        "ar",
        "ge"
      ],
      [
        "ĠN",
        "e"
      ],
      [
        "ĠN",
        "ot"
      ],
      [
        "en",
        "er"
      ],
      [
        "ĠT",
        "h"
      ],
      [
        "ĠM",
        "inutes"
      ],
      [
        "ĠM",
        "onth"
      ],
      [
        "IT",
        "IAL"
      ],
      [
        "Ordinal",
        "Gender"
      ],
      [
        "Ordinal",
        "Exceptions"
      ],
      [
        "Ġc",
        "on"
      ],
      [
        "us",
        "ingDirective"
      ],
      [
        "ret",
        "urn"
      ],
      [
        "Ġis",
        "Ordinal"
      ],
      [
        "pp",
        "ort"
      ],
      [
        "ĠTH",
        "ROWEXPRESSION"
      ],
      [
        "day",
        "Period"
      ],
      [
        "Ġ-",
        ">"
      ],
      [
        "Ġse",
        "quence"
      ],
      [
        "Apply",
        "OrdinalGender"
      ],
      [
        "ign",
        "ed"
      ],
      [
        "Ġuns",
        "igned"
      ],
      [
        "IZ",
        "EREXPRESSION"
      ],
      [
        "ITIAL",
        "IZEREXPRESSION"
      ],
      [
        "B",
        "its"
      ],
      [
        "E",
        "SC"
      ],
      [
        "E",
        "ifeler"
      ],
      [
        "K",
        "nown"
      ],
      [
        "N",
        "egative"
      ],
      [
        "U",
        "pper"
      ],
      [
        "c",
        "ess"
      ],
      [
        "e",
        "en"
      ],
      [
        "h",
        "our"
      ],
      [
        "i",
        "r"
      ],
      [
        "k",
        "en"
      ],
      [
        "m",
        "ent"
      ],
      [
        "m",
        "illion"
      ],
      [
        "s",
        "ingular"
      ],
      [
        "t",
        "ed"
      ],
      [
        "Ġ",
        "Key"
      ],
      [
        "Ġ",
        "round"
      ],
      [
        "AL",
        "ESC"
      ],
      [
        "ut",
        "er"
      ],
      [
        "ĠN",
        "ame"
      ],
      [
        "ĠC",
        "ount"
      ],
      [
        "0000",
        "00"
      ],
      [
        "ro",
        "w"
      ],
      [
        "rammatical",
        "Number"
      ],
      [
        "To",
        "ken"
      ],
      [
        "Ġn",
        "ew"
      ],
      [
        "ation",
        "s"
      ],
      [
        "ation",
        "Token"
      ],
      [
        "ax",
        "Value"
      ],
      [
        "format",
        "ter"
      ],
      [
        "ac",
        "ter"
      ],
      [
        "Prefix",
        "Map"
      ],
      [
        "place",
        "ment"
      ],
      [
        "Under",
        "OneThousand"
      ],
      [
        "ll",
        "ationToken"
      ],
      [
        "ance",
        "llationToken"
      ],
      [
        "Ten",
        "Map"
      ],
      [
        "ĠCO",
        "ALESC"
      ],
      [
        "ph",
        "a"
      ],
      [
        "PowerOf",
        "TenMap"
      ],
      [
        "ĠNe",
        "uter"
      ],
      [
        "Eifeler",
        "Rule"
      ],
      [
        "B",
        "e"
      ],
      [
        "F",
        "eminine"
      ],
      [
        "G",
        "igabytes"
      ],
      [
        "G",
        "rammaticalNumber"
      ],
      [
        "L",
        "etter"
      ],
      [
        "M",
        "illion"
      ],
      [
        "N",
        "o"
      ],
      [
        "T",
        "erabytes"
      ],
      [
        "c",
        "es"
      ],
      [
        "d",
        "ec"
      ],
      [
        "n",
        "ew"
      ],
      [
        "s",
        "ion"
      ],
      [
        "u",
        "es"
      ],
      [
        "u",
        "ary"
      ],
      [
        "y",
        "pe"
      ],
      [
        "Ġ",
        "resource"
      ],
      [
        "ĠS",
        "t"
      ],
      [
        "al",
        "l"
      ],
      [
        "Ġt",
        "r"
      ],
      [
        "Ġt",
        "urned"
      ],
      [
        "par",
        "t"
      ],
      [
        "ed",
        "s"
      ],
      [
        "ĠM",
        "inValue"
      ],
      [
        "ĠM",
        "axValue"
      ],
      [
        "Ġd",
        "ecimals"
      ],
      [
        "Time",
        "Span"
      ],
      [
        "ex",
        "ponent"
      ],
      [
        "input",
        "Number"
      ],
      [
        "Ġm",
        "s"
      ],
      [
        "ve",
        "l"
      ],
      [
        "Get",
        "EndingForGender"
      ],
      [
        "ort",
        "ug"
      ],
      [
        "ĠTr",
        "ansform"
      ],
      [
        "Impl",
        "ement"
      ],
      [
        "Ġ1000000000000",
        "000"
      ],
      [
        "Ġ1000000000000",
        "000000"
      ],
      [
        "Ġor",
        "der"
      ],
      [
        "Ġlocal",
        "e"
      ],
      [
        "Se",
        "ts"
      ],
      [
        "full",
        "Name"
      ],
      [
        "Ġret",
        "urns"
      ],
      [
        "Le",
        "vel"
      ],
      [
        "Meg",
        "abytes"
      ],
      [
        "candidate",
        "Index"
      ],
      [
        "ĠNot",
        "Implement"
      ],
      [
        "ues",
        "e"
      ],
      [
        "ortug",
        "uese"
      ],
      [
        "ĠNotImplement",
        "edException"
      ],
      [
        "\"",
        ","
      ],
      [
        "G",
        "ener"
      ],
      [
        "M",
        "inute"
      ],
      [
        "N",
        "earestFive"
      ],
      [
        "S",
        "ITION"
      ],
      [
        "e",
        "h"
      ],
      [
        "h",
        "er"
      ],
      [
        "i",
        "an"
      ],
      [
        "s",
        "uffix"
      ],
      [
        "w",
        "een"
      ],
      [
        "in",
        "d"
      ],
      [
        "ĠS",
        "ingular"
      ],
      [
        "ĠP",
        "ow"
      ],
      [
        "ĠP",
        "lural"
      ],
      [
        "al",
        "pha"
      ],
      [
        "ĠT",
        "runcate"
      ],
      [
        "ĠD",
        "efault"
      ],
      [
        "Ġd",
        "ivisor"
      ],
      [
        "Un",
        "derscore"
      ],
      [
        "et",
        "ween"
      ],
      [
        "word",
        "Part"
      ],
      [
        "Ġc",
        "ount"
      ],
      [
        "Ġb",
        "etween"
      ],
      [
        "Ġm",
        "atch"
      ],
      [
        "To",
        "NearestFive"
      ],
      [
        "ĠTo",
        "Quantity"
      ],
      [
        "Words",
        "Converter"
      ],
      [
        "ALPATTERN",
        "CLAUSE"
      ],
      [
        "ĠCon",
        "tains"
      ],
      [
        "One",
        "Hundred"
      ],
      [
        "thous",
        "and"
      ],
      [
        "ĠPO",
        "SITION"
      ],
      [
        "Tr",
        "ansform"
      ],
      [
        "Ġsu",
        "pport"
      ],
      [
        "GetUnit",
        "Value"
      ],
      [
        "converted",
        "Number"
      ],
      [
        "parsed",
        "Value"
      ],
      [
        "lock",
        "Not"
      ],
      [
        "ĠPOSITION",
        "ALPATTERNCLAUSE"
      ],
      [
        "lockNot",
        "ation"
      ],
      [
        "B",
        "illion"
      ],
      [
        "B",
        "uilder"
      ],
      [
        "C",
        "ode"
      ],
      [
        "E",
        "mpty"
      ],
      [
        "L",
        "ocal"
      ],
      [
        "L",
        "ess"
      ],
      [
        "R",
        "em"
      ],
      [
        "T",
        "ype"
      ],
      [
        "b",
        "breviation"
      ],
      [
        "d",
        "ays"
      ],
      [
        "d",
        "ecimals"
      ],
      [
        "o",
        "v"
      ],
      [
        "t",
        "al"
      ],
      [
        "er",
        "o"
      ],
      [
        "ĠS",
        "y"
      ],
      [
        "Ġ1",
        "5"
      ],
      [
        "al",
        "id"
      ],
      [
        "en",
        "ot"
      ],
      [
        "ul",
        "ong"
      ],
      [
        "PATTERN",
        "SWITCHLABEL"
      ],
      [
        "Ġd",
        "enot"
      ],
      [
        "is",
        "er"
      ],
      [
        "ĠAdd",
        "Hours"
      ],
      [
        "th",
        "s"
      ],
      [
        "Ordinal",
        "Plural"
      ],
      [
        "Ordinal",
        "Singular"
      ],
      [
        "Ġ3",
        "0"
      ],
      [
        "Par",
        "se"
      ],
      [
        "Ġ10000",
        "0"
      ],
      [
        "Ġp",
        "refix"
      ],
      [
        "Ġp",
        "recision"
      ],
      [
        "Ġp",
        "osition"
      ],
      [
        "To",
        "Be"
      ],
      [
        "Ġh",
        "undred"
      ],
      [
        "fo",
        "re"
      ],
      [
        "Format",
        "s"
      ],
      [
        "And",
        "Units"
      ],
      [
        "format",
        "Provider"
      ],
      [
        "ĠOrdinal",
        "iz"
      ],
      [
        "pro",
        "cess"
      ],
      [
        "Ġconvert",
        "ed"
      ],
      [
        "As",
        "ync"
      ],
      [
        "item",
        "s"
      ],
      [
        "Is",
        "Known"
      ],
      [
        "ĠCASE",
        "PATTERNSWITCHLABEL"
      ],
      [
        "ThreeDigit",
        "Sets"
      ],
      [
        "Ġmax",
        "imum"
      ],
      [
        "cal",
        "e"
      ],
      [
        "escri",
        "ption"
      ],
      [
        "ĠPar",
        "se"
      ],
      [
        "Ġorder",
        "ed"
      ],
      [
        "Less",
        "Than"
      ],
      [
        "Ġdenot",
        "e"
      ],
      [
        "IsKnown",
        "ToBe"
      ],
      [
        "A",
        "naly"
      ],
      [
        "C",
        "ount"
      ],
      [
        "M",
        "asculine"
      ],
      [
        "P",
        "at"
      ],
      [
        "T",
        "ri"
      ],
      [
        "T",
        "uple"
      ],
      [
        "b",
        "ject"
      ],
      [
        "c",
        "ase"
      ],
      [
        "f",
        "t"
      ],
      [
        "h",
        "o"
      ],
      [
        "i",
        "ations"
      ],
      [
        "l",
        "d"
      ],
      [
        "l",
        "ag"
      ],
      [
        "m",
        "illions"
      ],
      [
        "q",
        "ual"
      ],
      [
        "s",
        "is"
      ],
      [
        "w",
        "is"
      ],
      [
        "Ġ",
        "."
      ],
      [
        "ĠP",
        "ascal"
      ],
      [
        "ing",
        "Namespace"
      ],
      [
        "LE",
        "CTION"
      ],
      [
        "ĠA",
        "pp"
      ],
      [
        "ĠC",
        "OL"
      ],
      [
        "Ġvar",
        "iations"
      ],
      [
        "Ġd",
        "ist"
      ],
      [
        "onver",
        "sion"
      ],
      [
        "ĠF",
        "orm"
      ],
      [
        "Ġc",
        "omparisonBase"
      ],
      [
        "Ġs",
        "et"
      ],
      [
        "Ġa",
        "bbreviation"
      ],
      [
        "ĠTo",
        "Lower"
      ],
      [
        "ig",
        "ht"
      ],
      [
        "Ġ4",
        "2"
      ],
      [
        "us",
        "si"
      ],
      [
        "ĠR",
        "eg"
      ],
      [
        "ab",
        "yteSymbol"
      ],
      [
        "runc",
        "ator"
      ],
      [
        "And",
        "Split"
      ],
      [
        "time",
        "Parts"
      ],
      [
        "format",
        "s"
      ],
      [
        "ordinal",
        "Value"
      ],
      [
        "group",
        "Level"
      ],
      [
        "Se",
        "parator"
      ],
      [
        "full",
        "Number"
      ],
      [
        "match",
        "edNamespace"
      ],
      [
        "Char",
        "acter"
      ],
      [
        "Round",
        "ing"
      ],
      [
        "ĠCollect",
        "Parts"
      ],
      [
        "Ġen",
        "um"
      ],
      [
        "Ġsupport",
        "ing"
      ],
      [
        "lockNotation",
        "Rounding"
      ],
      [
        "Analy",
        "sis"
      ],
      [
        "Pat",
        "h"
      ],
      [
        "wis",
        "e"
      ],
      [
        "ĠApp",
        "end"
      ],
      [
        "ĠCOL",
        "LECTION"
      ],
      [
        "Ġdist",
        "ance"
      ],
      [
        "ussi",
        "an"
      ],
      [
        "Character",
        "s"
      ],
      [
        "A",
        "b"
      ],
      [
        "D",
        "ocument"
      ],
      [
        "E",
        "num"
      ],
      [
        "N",
        "ING"
      ],
      [
        "e",
        "eds"
      ],
      [
        "f",
        "or"
      ],
      [
        "h",
        "ow"
      ],
      [
        "i",
        "vi"
      ],
      [
        "m",
        "ultipli"
      ],
      [
        "Ġ",
        "r"
      ],
      [
        "Ġ",
        "Ġ"
      ],
      [
        "in",
        "dex"
      ],
      [
        "ar",
        "ts"
      ],
      [
        "ar",
        "dinal"
      ],
      [
        "re",
        "at"
      ],
      [
        "Ġt",
        "wo"
      ],
      [
        "it",
        "le"
      ],
      [
        "ĠD",
        "ictionary"
      ],
      [
        "es",
        "ol"
      ],
      [
        "Ġnumber",
        "s"
      ],
      [
        "Ġc",
        "ase"
      ],
      [
        "St",
        "r"
      ],
      [
        "To",
        "Number"
      ],
      [
        "ve",
        "For"
      ],
      [
        "umer",
        "ic"
      ],
      [
        "normalized",
        "Minutes"
      ],
      [
        "illis",
        "econd"
      ],
      [
        "ust",
        "om"
      ],
      [
        "ĠH",
        "as"
      ],
      [
        "article",
        "NextHour"
      ],
      [
        "UnitsOrdinal",
        "Prefixes"
      ],
      [
        "Gener",
        "ated"
      ],
      [
        "eeds",
        "And"
      ],
      [
        "ivi",
        "ded"
      ],
      [
        "multipli",
        "er"
      ],
      [
        "esol",
        "veFor"
      ],
      [
        "A",
        "l"
      ],
      [
        "A",
        "t"
      ],
      [
        "A",
        "Hundred"
      ],
      [
        "A",
        "ll"
      ],
      [
        "F",
        "ix"
      ],
      [
        "L",
        "arge"
      ],
      [
        "M",
        "onth"
      ],
      [
        "M",
        "illions"
      ],
      [
        "N",
        "ITIALIZEREXPRESSION"
      ],
      [
        "O",
        "ver"
      ],
      [
        "P",
        "ro"
      ],
      [
        "P",
        "ortuguese"
      ],
      [
        "Z",
        "ero"
      ],
      [
        "e",
        "b"
      ],
      [
        "t",
        "ri"
      ],
      [
        "t",
        "ric"
      ],
      [
        "u",
        "p"
      ],
      [
        "Ġ",
        "ar"
      ],
      [
        "Ġ",
        "ap"
      ],
      [
        "Ġ",
        "QualifiedName"
      ],
      [
        "EX",
        "EL"
      ],
      [
        "AT",
        "housand"
      ],
      [
        "NTI",
        "NITIALIZEREXPRESSION"
      ],
      [
        "EME",
        "NTINITIALIZEREXPRESSION"
      ],
      [
        "ĠS",
        "e"
      ],
      [
        "MPL",
        "EXEL"
      ],
      [
        "ĠN",
        "ormal"
      ],
      [
        "on",
        "e"
      ],
      [
        "ate",
        "s"
      ],
      [
        "ul",
        "es"
      ],
      [
        "me",
        "d"
      ],
      [
        "he",
        "s"
      ],
      [
        "ĠD",
        "iagnostic"
      ],
      [
        "ĠM",
        "eg"
      ],
      [
        "ĠM",
        "illions"
      ],
      [
        "un",
        "recognizedWord"
      ],
      [
        "ĠF",
        "unc"
      ],
      [
        "Ordinal",
        "ize"
      ],
      [
        "Ġc",
        "har"
      ],
      [
        "Ġs",
        "ame"
      ],
      [
        "Ġn",
        "ormalized"
      ],
      [
        "us",
        "e"
      ],
      [
        "ĠR",
        "esolveFor"
      ],
      [
        "Ex",
        "press"
      ],
      [
        "tens",
        "AndUnits"
      ],
      [
        "ist",
        "er"
      ],
      [
        "Ġ1000000",
        "0"
      ],
      [
        "ĠW",
        "eek"
      ],
      [
        "Digit",
        "s"
      ],
      [
        "ĠTime",
        "Unit"
      ],
      [
        "ĠIs",
        "Null"
      ],
      [
        "ompar",
        "e"
      ],
      [
        "ans",
        "for"
      ],
      [
        "Syntax",
        "Root"
      ],
      [
        "NumberTo",
        "WordsConverter"
      ],
      [
        "Ġme",
        "tric"
      ],
      [
        "Ġse",
        "parator"
      ],
      [
        "ĠCO",
        "MPLEXEL"
      ],
      [
        "Quantity",
        "As"
      ],
      [
        "ĠCASE",
        "SWITCHLABEL"
      ],
      [
        "ash",
        "Set"
      ],
      [
        "GetOrdinal",
        "EndingForGender"
      ],
      [
        "Numeral",
        "Formats"
      ],
      [
        "app",
        "end"
      ],
      [
        "ĠSt",
        "arts"
      ],
      [
        "ĠPlural",
        "ize"
      ],
      [
        "LessThan",
        "Ten"
      ],
      [
        "ĠCOLLECTION",
        "EXPRESSION"
      ],
      [
        "how",
        "QuantityAs"
      ],
      [
        "reat",
        "er"
      ],
      [
        "Express",
        "ion"
      ],
      [
        "ĠIsNull",
        "Or"
      ],
      [
        "ansfor",
        "med"
      ],
      [
        "ĠCOMPLEXEL",
        "EMENTINITIALIZEREXPRESSION"
      ],
      [
        "ĠStarts",
        "With"
      ],
      [
        "1",
        "8"
      ],
      [
        "?",
        ">"
      ],
      [
        "B",
        "uild"
      ],
      [
        "O",
        "ON"
      ],
      [
        "O",
        "ld"
      ],
      [
        "T",
        "runcateFrom"
      ],
      [
        "a",
        "k"
      ],
      [
        "a",
        "ddAnd"
      ],
      [
        "a",
        "ir"
      ],
      [
        "b",
        "yte"
      ],
      [
        "c",
        "ollection"
      ],
      [
        "d",
        "Root"
      ],
      [
        "k",
        "v"
      ],
      [
        "m",
        "ax"
      ],
      [
        "n",
        "extHour"
      ],
      [
        "n",
        "eedsAnd"
      ],
      [
        "s",
        "ize"
      ],
      [
        "s",
        "hort"
      ],
      [
        "z",
        "e"
      ],
      [
        "Ġ",
        "it"
      ],
      [
        "Ġ",
        "DECLARATION"
      ],
      [
        "DE",
        "CREMENTEXPRESSION"
      ],
      [
        "ing",
        "le"
      ],
      [
        "TYP",
        "ATTERN"
      ],
      [
        "ĠA",
        "naly"
      ],
      [
        "ĠC",
        "urrent"
      ],
      [
        "ĠC",
        "reate"
      ],
      [
        "Ġt",
        "runcation"
      ],
      [
        "Ġt",
        "runcationString"
      ],
      [
        "an",
        "uary"
      ],
      [
        "ĠIF",
        "ormat"
      ],
      [
        "par",
        "ent"
      ],
      [
        "ĠT",
        "housands"
      ],
      [
        "ĠT",
        "runcateFrom"
      ],
      [
        "ed",
        "Form"
      ],
      [
        "ĠM",
        "illisecond"
      ],
      [
        "is",
        "pl"
      ],
      [
        "is",
        "Negative"
      ],
      [
        "Ordinal",
        "sMap"
      ],
      [
        "as",
        "WhiteSpace"
      ],
      [
        "Ġc",
        "om"
      ],
      [
        "Ġc",
        "onversion"
      ],
      [
        "ol",
        "e"
      ],
      [
        "vi",
        "a"
      ],
      [
        "ĠTo",
        "Ordinal"
      ],
      [
        "ĠTo",
        "tal"
      ],
      [
        "Words",
        "ToNumber"
      ],
      [
        "In",
        "A"
      ],
      [
        "Sp",
        "eci"
      ],
      [
        "date",
        "dRoot"
      ],
      [
        "us",
        "hort"
      ],
      [
        "Name",
        "sp"
      ],
      [
        "unc",
        "tion"
      ],
      [
        "Ġw",
        "h"
      ],
      [
        "Ġus",
        "ing"
      ],
      [
        "default",
        "Gender"
      ],
      [
        "ĠW",
        "H"
      ],
      [
        "Days",
        "InA"
      ],
      [
        "sp",
        "an"
      ],
      [
        "ĠPROPER",
        "TYPATTERN"
      ],
      [
        "Text",
        "return"
      ],
      [
        "Ġformat",
        "s"
      ],
      [
        "Ġformat",
        "Provider"
      ],
      [
        "ĠJ",
        "anuary"
      ],
      [
        "ĠTry",
        "Convert"
      ],
      [
        "Syntax",
        "Node"
      ],
      [
        "Wh",
        "ole"
      ],
      [
        "Tr",
        "y"
      ],
      [
        "sb",
        "yte"
      ],
      [
        "Int",
        "B"
      ],
      [
        "En",
        "glish"
      ],
      [
        "ĠGetResource",
        "Key"
      ],
      [
        "dayPeriod",
        "NextHour"
      ],
      [
        "ĠSingular",
        "ize"
      ],
      [
        "Rem",
        "ainder"
      ],
      [
        "ĠSy",
        "ntax"
      ],
      [
        "Tri",
        "via"
      ],
      [
        "qual",
        "s"
      ],
      [
        "ĠAppend",
        "Format"
      ],
      [
        "ussian",
        "GrammaticalNumber"
      ],
      [
        "up",
        "datedRoot"
      ],
      [
        "ĠResolveFor",
        "Culture"
      ],
      [
        "Old",
        "Namesp"
      ],
      [
        "ĠDECLARATION",
        "PATTERN"
      ],
      [
        "ĠAnaly",
        "ze"
      ],
      [
        "ispl",
        "ay"
      ],
      [
        "ĠPROPERTYPATTERN",
        "CLAUSE"
      ],
      [
        "OldNamesp",
        "aces"
      ],
      [
        "D",
        "efault"
      ],
      [
        "G",
        "reater"
      ],
      [
        "I",
        "f"
      ],
      [
        "I",
        "En"
      ],
      [
        "R",
        "ussianGrammaticalNumber"
      ],
      [
        "S",
        "ign"
      ],
      [
        "c",
        "ul"
      ],
      [
        "i",
        "p"
      ],
      [
        "m",
        "ber"
      ],
      [
        "o",
        "res"
      ],
      [
        "p",
        "rovider"
      ],
      [
        "er",
        "nal"
      ],
      [
        "ĠS",
        "econd"
      ],
      [
        "ut",
        "ure"
      ],
      [
        "re",
        "p"
      ],
      [
        "al",
        "cul"
      ],
      [
        "en",
        "ded"
      ],
      [
        "number",
        "Of"
      ],
      [
        "ic",
        "al"
      ],
      [
        "ĠE",
        "quals"
      ],
      [
        "ĠB",
        "illions"
      ],
      [
        "Ġt",
        "runcate"
      ],
      [
        "Ġt",
        "housand"
      ],
      [
        "par",
        "ated"
      ],
      [
        "Ġin",
        "c"
      ],
      [
        "Ġd",
        "efault"
      ],
      [
        "iz",
        "ation"
      ],
      [
        "Ġo",
        "ther"
      ],
      [
        "Ġo",
        "bject"
      ],
      [
        "Ġb",
        "ytes"
      ],
      [
        "Ġs",
        "ymbol"
      ],
      [
        "Ġf",
        "ull"
      ],
      [
        "ĠSWITCH",
        "STATEMENT"
      ],
      [
        "Ġdate",
        "s"
      ],
      [
        "Ġre",
        "mainder"
      ],
      [
        "Ġn",
        "um"
      ],
      [
        "Ġn",
        "ext"
      ],
      [
        "ĠTo",
        "Metric"
      ],
      [
        "pres",
        "sed"
      ],
      [
        "Only",
        "Span"
      ],
      [
        "Get",
        "Tens"
      ],
      [
        "ĠR",
        "ound"
      ],
      [
        "ĠR",
        "egex"
      ],
      [
        "ad",
        "OnlySpan"
      ],
      [
        "Ġh",
        "uman"
      ],
      [
        "Ġ6",
        "0"
      ],
      [
        "99",
        "9"
      ],
      [
        "Ġtime",
        "Unit"
      ],
      [
        "Plural",
        "ized"
      ],
      [
        "umer",
        "able"
      ],
      [
        "last",
        "Number"
      ],
      [
        "Symbol",
        "s"
      ],
      [
        "el",
        "l"
      ],
      [
        "ĠHour",
        "s"
      ],
      [
        "Ġex",
        "pressed"
      ],
      [
        "recision",
        "Humanize"
      ],
      [
        "Ġun",
        "dersc"
      ],
      [
        "ĠEn",
        "glish"
      ],
      [
        "ĠPOST",
        "DECREMENTEXPRESSION"
      ],
      [
        "convert",
        "er"
      ],
      [
        "Ġform",
        "s"
      ],
      [
        "ĠIn",
        "dex"
      ],
      [
        "ĠTh",
        "row"
      ],
      [
        "ces",
        "sed"
      ],
      [
        "her",
        "e"
      ],
      [
        "Local",
        "iser"
      ],
      [
        "ĠReg",
        "ister"
      ],
      [
        "Ab",
        "ove"
      ],
      [
        "Pro",
        "cessed"
      ],
      [
        "use",
        "PrefixMap"
      ],
      [
        "ĠIFormat",
        "Provider"
      ],
      [
        "Greater",
        "Than"
      ],
      [
        "IEn",
        "umerable"
      ],
      [
        "Ġundersc",
        "ores"
      ],
      [
        "1",
        "9"
      ],
      [
        "6",
        "5"
      ],
      [
        "B",
        "y"
      ],
      [
        "B",
        "it"
      ],
      [
        "C",
        "ardinal"
      ],
      [
        "F",
        "ound"
      ],
      [
        "L",
        "ast"
      ],
      [
        "M",
        "illiseconds"
      ],
      [
        "b",
        "in"
      ],
      [
        "b",
        "ut"
      ],
      [
        "b",
        "illions"
      ],
      [
        "c",
        "k"
      ],
      [
        "d",
        "iagnostic"
      ],
      [
        "d",
        "ivided"
      ],
      [
        "f",
        "rozen"
      ],
      [
        "j",
        "unction"
      ],
      [
        "k",
        "ip"
      ],
      [
        "m",
        "s"
      ],
      [
        "o",
        "ver"
      ],
      [
        "r",
        "st"
      ],
      [
        "s",
        "er"
      ],
      [
        "Ġ",
        "fi"
      ],
      [
        "Ġ1",
        "3"
      ],
      [
        "st",
        "em"
      ],
      [
        "or",
        "y"
      ],
      [
        "number",
        "And"
      ],
      [
        "ĠB",
        "ytes"
      ],
      [
        "ABLE",
        "TYPE"
      ],
      [
        "ĠA",
        "n"
      ],
      [
        "he",
        "ck"
      ],
      [
        "ĠD",
        "eh"
      ],
      [
        "ĠM",
        "illiseconds"
      ],
      [
        "un",
        "der"
      ],
      [
        "iz",
        "es"
      ],
      [
        "ĠAdd",
        "Minutes"
      ],
      [
        "ĠAdd",
        "Seconds"
      ],
      [
        "ĠF",
        "uture"
      ],
      [
        "Ordinal",
        "Suffix"
      ],
      [
        "Ġc",
        "ontext"
      ],
      [
        "Ġc",
        "asing"
      ],
      [
        "Ġb",
        "illions"
      ],
      [
        "Ġs",
        "hort"
      ],
      [
        "ent",
        "ence"
      ],
      [
        "St",
        "art"
      ],
      [
        "Number",
        "Form"
      ],
      [
        "String",
        "C"
      ],
      [
        "To",
        "String"
      ],
      [
        "present",
        "ation"
      ],
      [
        "Tens",
        "Ordinal"
      ],
      [
        "ĠGet",
        "NumberToWordsConverter"
      ],
      [
        "Con",
        "text"
      ],
      [
        "ĠNULL",
        "ABLETYPE"
      ],
      [
        "Ġth",
        "is"
      ],
      [
        "Digit",
        "Ordinal"
      ],
      [
        "iv",
        "en"
      ],
      [
        "ĠCon",
        "fig"
      ],
      [
        "CollectParts",
        "UnderOneThousand"
      ],
      [
        "ĠIs",
        "WhiteSpace"
      ],
      [
        "ĠIs",
        "Letter"
      ],
      [
        "Ġg",
        "iven"
      ],
      [
        "Ar",
        "gument"
      ],
      [
        "Under",
        "AThousand"
      ],
      [
        "Ġlocal",
        "ized"
      ],
      [
        "Ġme",
        "g"
      ],
      [
        "Root",
        "Map"
      ],
      [
        "Ġsu",
        "ch"
      ],
      [
        "hundred",
        "Remainder"
      ],
      [
        "Ġon",
        "e"
      ],
      [
        "next",
        "Word"
      ],
      [
        "tr",
        "ansformed"
      ],
      [
        "million",
        "Part"
      ],
      [
        "ĠCOALESC",
        "EASSIGNMENTEXPRESSION"
      ],
      [
        "No",
        "Match"
      ],
      [
        "fore",
        "OneHundred"
      ],
      [
        "At",
        "tri"
      ],
      [
        "ĠQualifiedName",
        "Syntax"
      ],
      [
        "Ġcom",
        "bin"
      ],
      [
        "Speci",
        "al"
      ],
      [
        "Whole",
        "Number"
      ],
      [
        "English",
        "Culture"
      ],
      [
        "numberAnd",
        "Word"
      ],
      [
        "ĠConfig",
        "ure"
      ],
      [
        "Attri",
        "but"
      ],
      [
        "\"",
        ")."
      ],
      [
        "3",
        "2"
      ],
      [
        "4",
        "5"
      ],
      [
        "C",
        "I"
      ],
      [
        "E",
        "CI"
      ],
      [
        "F",
        "AU"
      ],
      [
        "F",
        "lag"
      ],
      [
        "I",
        "LE"
      ],
      [
        "K",
        "S"
      ],
      [
        "K",
        "ind"
      ],
      [
        "L",
        "T"
      ],
      [
        "P",
        "ECI"
      ],
      [
        "R",
        "AN"
      ],
      [
        "T",
        "IN"
      ],
      [
        "a",
        "il"
      ],
      [
        "a",
        "ge"
      ],
      [
        "d",
        "ish"
      ],
      [
        "f",
        "eminine"
      ],
      [
        "l",
        "u"
      ],
      [
        "m",
        "asculine"
      ],
      [
        "n",
        "s"
      ],
      [
        "n",
        "umeric"
      ],
      [
        "o",
        "me"
      ],
      [
        "o",
        "se"
      ],
      [
        "u",
        "e"
      ],
      [
        "Ġ",
        "="
      ],
      [
        "Ġ",
        "y"
      ],
      [
        "Ġ",
        "DE"
      ],
      [
        "Ġ",
        "item"
      ],
      [
        "Ġ",
        "9999"
      ],
      [
        "in",
        "Unit"
      ],
      [
        "ar",
        "si"
      ],
      [
        "number",
        "Value"
      ],
      [
        "ĠB",
        "its"
      ],
      [
        "an",
        "g"
      ],
      [
        "ĠT",
        "ens"
      ],
      [
        "UE",
        "STATEMENT"
      ],
      [
        "ur",
        "dish"
      ],
      [
        "word",
        "Builder"
      ],
      [
        "is",
        "LessThanTen"
      ],
      [
        "ĠCON",
        "TIN"
      ],
      [
        "th",
        "reeDigit"
      ],
      [
        "Ġ3",
        "65"
      ],
      [
        "ĠDIVIDE",
        "ASSIGNMENTEXPRESSION"
      ],
      [
        "Number",
        "s"
      ],
      [
        "Ġre",
        "st"
      ],
      [
        "Ġl",
        "etter"
      ],
      [
        "ĠGet",
        "Formatter"
      ],
      [
        "Ġw",
        "eek"
      ],
      [
        "ĠU",
        "singDirective"
      ],
      [
        "Ġsp",
        "aces"
      ],
      [
        "ĠFrom",
        "Bytes"
      ],
      [
        "ĠFrom",
        "Kilobytes"
      ],
      [
        "ĠFrom",
        "Gigabytes"
      ],
      [
        "ĠFrom",
        "Terabytes"
      ],
      [
        "ĠFrom",
        "Megabytes"
      ],
      [
        "ĠNOT",
        "PATTERN"
      ],
      [
        "sp",
        "eci"
      ],
      [
        "For",
        "Lower"
      ],
      [
        "Ġv",
        "alues"
      ],
      [
        "form",
        "s"
      ],
      [
        "ĠHour",
        "sFrom"
      ],
      [
        "space",
        "Name"
      ],
      [
        "ĠTry",
        "Parse"
      ],
      [
        "thousands",
        "Part"
      ],
      [
        "ĠARRAY",
        "RAN"
      ],
      [
        "Group",
        "s"
      ],
      [
        "Numer",
        "ical"
      ],
      [
        "Null",
        "Exception"
      ],
      [
        "tain",
        "ing"
      ],
      [
        "Ġlast",
        "Part"
      ],
      [
        "Re",
        "adOnlySpan"
      ],
      [
        "Roman",
        "Numeral"
      ],
      [
        "art",
        "Index"
      ],
      [
        "ĠSeconds",
        "From"
      ],
      [
        "ĠMinutes",
        "From"
      ],
      [
        "Ġround",
        "ToNearestFive"
      ],
      [
        "ĠCOALESC",
        "EEXPRESSION"
      ],
      [
        "alpha",
        "Numerical"
      ],
      [
        "Underscore",
        "Regex"
      ],
      [
        "items",
        "Array"
      ],
      [
        "ho",
        "ose"
      ],
      [
        "ĠPascal",
        "Case"
      ],
      [
        "Analysis",
        "Context"
      ],
      [
        "ĠToOrdinal",
        "Words"
      ],
      [
        "ĠWH",
        "ILE"
      ],
      [
        "If",
        "Null"
      ],
      [
        "Ġfull",
        "Name"
      ],
      [
        "ĠThrow",
        "IfNull"
      ],
      [
        "Argument",
        "NullException"
      ],
      [
        "Attribut",
        "e"
      ],
      [
        "FAU",
        "LT"
      ],
      [
        "KS",
        "PECI"
      ],
      [
        "numeric",
        "Value"
      ],
      [
        "ĠDE",
        "FAULT"
      ],
      [
        "ĠCONTIN",
        "UESTATEMENT"
      ],
      [
        "ĠARRAYRAN",
        "KSPECI"
      ],
      [
        "ĠWHILE",
        "STATEMENT"
      ],
      [
        "ĠARRAYRANKSPECI",
        "FIER"
      ],
      [
        "\"",
        ")"
      ],
      [
        "\"",
        "."
      ],
      [
        "2",
        "3"
      ],
      [
        "A",
        "c"
      ],
      [
        "C",
        "asing"
      ],
      [
        "C",
        "alcul"
      ],
      [
        "D",
        "ual"
      ],
      [
        "H",
        "under"
      ],
      [
        "I",
        "SEXPRESSION"
      ],
      [
        "M",
        "or"
      ],
      [
        "M",
        "OR"
      ],
      [
        "N",
        "OON"
      ],
      [
        "P",
        "ascal"
      ],
      [
        "R",
        "est"
      ],
      [
        "W",
        "eeks"
      ],
      [
        "W",
        "asWhiteSpace"
      ],
      [
        "b",
        "e"
      ],
      [
        "d",
        "escription"
      ],
      [
        "e",
        "ens"
      ],
      [
        "g",
        "or"
      ],
      [
        "i",
        "ant"
      ],
      [
        "i",
        "mpl"
      ],
      [
        "k",
        "s"
      ],
      [
        "n",
        "o"
      ],
      [
        "n",
        "ing"
      ],
      [
        "p",
        "ort"
      ],
      [
        "r",
        "a"
      ],
      [
        "r",
        "d"
      ],
      [
        "s",
        "cale"
      ],
      [
        "t",
        "runcateFrom"
      ],
      [
        "u",
        "an"
      ],
      [
        "y",
        "ph"
      ],
      [
        "Ġ",
        "'"
      ],
      [
        "Ġ",
        "par"
      ],
      [
        "Ġ",
        "Hundreds"
      ],
      [
        "Ġ",
        "Kilobytes"
      ],
      [
        "Ġ",
        "all"
      ],
      [
        "ĠS",
        "plit"
      ],
      [
        "Ġ1",
        "4"
      ],
      [
        "Ġ1",
        "9"
      ],
      [
        "ĠP",
        "recisionHumanize"
      ],
      [
        "re",
        "m"
      ],
      [
        "ic",
        "ks"
      ],
      [
        "ĠE",
        "x"
      ],
      [
        "ĠB",
        "uild"
      ],
      [
        "ul",
        "d"
      ],
      [
        "var",
        "iant"
      ],
      [
        "ĠA",
        "pply"
      ],
      [
        "ĠA",
        "ll"
      ],
      [
        "ĠC",
        "lockNotationRounding"
      ],
      [
        "Ġt",
        "s"
      ],
      [
        "Ġt",
        "erabytes"
      ],
      [
        "Ġt",
        "runcator"
      ],
      [
        "it",
        "al"
      ],
      [
        "it",
        "ive"
      ],
      [
        "ĠT",
        "erabytes"
      ],
      [
        "ĠT",
        "icks"
      ],
      [
        "ĠD",
        "ec"
      ],
      [
        "Ġin",
        "st"
      ],
      [
        "ĠG",
        "igabytes"
      ],
      [
        "Ġd",
        "iagnostic"
      ],
      [
        "et",
        "ect"
      ],
      [
        "Or",
        "Digit"
      ],
      [
        "ĠF",
        "act"
      ],
      [
        "Ordinal",
        "UnitsMap"
      ],
      [
        "Ordinal",
        "TensMap"
      ],
      [
        "Ġc",
        "ustom"
      ],
      [
        "ap",
        "ital"
      ],
      [
        "rammatical",
        "Case"
      ],
      [
        "Ġs",
        "cale"
      ],
      [
        "input",
        "IsKnownToBe"
      ],
      [
        "Ġinput",
        "IsKnownToBe"
      ],
      [
        "Ġa",
        "c"
      ],
      [
        "Ġre",
        "m"
      ],
      [
        "To",
        "Tuple"
      ],
      [
        "Ġn",
        "o"
      ],
      [
        "ig",
        "inal"
      ],
      [
        "In",
        "put"
      ],
      [
        "DateTime",
        "Humanize"
      ],
      [
        "Get",
        "Resource"
      ],
      [
        "ĠR",
        "esource"
      ],
      [
        "Ġh",
        "as"
      ],
      [
        "ĠGet",
        "Unit"
      ],
      [
        "Ex",
        "act"
      ],
      [
        "Of",
        "Thousand"
      ],
      [
[...]
