{
  "version": "1.0",
  "truncation": null,
  "padding": null,
  "added_tokens": [
    {
      "id": 0,
      "content": "<|pad|>",
      "single_word": false,
      "lstrip": false,
      "rstrip": false,
      "normalized": false,
      "special": true
    },
    {
      "id": 1,
      "content": "<|unk|>",
      "single_word": false,
      "lstrip": false,
      "rstrip": false,
      "normalized": false,
      "special": true
    },
    {
      "id": 2,
      "content": "<|bos|>",
      "single_word": false,
      "lstrip": false,
      "rstrip": false,
      "normalized": false,
      "special": true
    },
    {
      "id": 3,
      "content": "<|eos|>",
      "single_word": false,
      "lstrip": false,
      "rstrip": false,
      "normalized": false,
      "special": true
    },
    {
      "id": 4,
      "content": "<|output|>",
      "single_word": false,
      "lstrip": false,
      "rstrip": false,
      "normalized": false,
      "special": true
    },
    {
      "id": 5,
      "content": "FIELD:$0",
      "single_word": false,
      "lstrip": false,
      "rstrip": false,
      "normalized": false,
      "special": true
    },
    {
      "id": 6,
      "content": "FIELD:$1",
      "single_word": false,
      "lstrip": false,
      "rstrip": false,
      "normalized": false,
      "special": true
    },
    {
      "id": 7,
      "content": "FIELD:$10",
      "single_word": false,
      "lstrip": false,
      "rstrip": false,
      "normalized": false,
      "special": true
    },
    {
      "id": 8,
      "content": "FIELD:$11",
      "single_word": false,
      "lstrip": false,
      "rstrip": false,
      "normalized": false,
      "special": true
    },
    {
      "id": 9,
      "content": "FIELD:$12",
      "single_word": false,
      "lstrip": false,
      "rstrip": false,
      "normalized": false,
      "special": true
    },
    {
      "id": 10,
      "content": "FIELD:$13",
      "single_word": false,
      "lstrip": false,
      "rstrip": false,
      "normalized": false,
      "special": true
    },
    {
      "id": 11,
      "content": "FIELD:$14",
      "single_word": false,
      "lstrip": false,
      "rstrip": false,
      "normalized": false,
      "special": true
    },
    {
      "id": 12,
      "content": "FIELD:$15",
      "single_word": false,
      "lstrip": false,
      "rstrip": false,
      "normalized": false,
      "special": true
    },
    {
      "id": 13,
      "content": "FIELD:$16",
      "single_word": false,
      "lstrip": false,
      "rstrip": false,
      "normalized": false,
      "special": true
    },
    {
      "id": 14,
      "content": "FIELD:$17",
      "single_word": false,
      "lstrip": false,
      "rstrip": false,
      "normalized": false,
      "special": true
    },
    {
      "id": 15,
      "content": "FIELD:$18",
      "single_word": false,
      "lstrip": false,
      "rstrip": false,
      "normalized": false,
      "special": true
    },
    {
      "id": 16,
      "content": "FIELD:$19",
      "single_word": false,
      "lstrip": false,
      "rstrip": false,
      "normalized": false,
      "special": true
    },
    {
      "id": 17,
      "content": "FIELD:$2",
      "single_word": false,
      "lstrip": false,
      "rstrip": false,
      "normalized": false,
      "special": true
    },
    {
      "id": 18,
      "content": "FIELD:$20",
      "single_word": false,
      "lstrip": false,
      "rstrip": false,
      "normalized": false,
      "special": true
    },
    {
      "id": 19,
      "content": "FIELD:$21",
      "single_word": false,
      "lstrip": false,
      "rstrip": false,
      "normalized": false,
      "special": true
    },
    {
      "id": 20,
      "content": "FIELD:$22",
      "single_word": false,
      "lstrip": false,
      "rstrip": false,
      "normalized": false,
      "special": true
    },
    {
      "id": 21,
      "content": "FIELD:$23",
      "single_word": false,
      "lstrip": false,
      "rstrip": false,
      "normalized": false,
      "special": true
    },
    {
      "id": 22,
      "content": "FIELD:$24",
      "single_word": false,
      "lstrip": false,
      "rstrip": false,
      "normalized": false,
      "special": true
    },
    {
      "id": 23,
      "content": "FIELD:$25",
      "single_word": false,
      "lstrip": false,
      "rstrip": false,
      "normalized": false,
      "special": true
    },
    {
      "id": 24,
      "content": "FIELD:$26",
      "single_word": false,
      "lstrip": false,
      "rstrip": false,
      "normalized": false,
      "special": true
    },
    {
      "id": 25,
      "content": "FIELD:$27",
      "single_word": false,
      "lstrip": false,
      "rstrip": false,
      "normalized": false,
      "special": true
    },
    {
      "id": 26,
      "content": "FIELD:$28",
      "single_word": false,
      "lstrip": false,
      "rstrip": false,
      "normalized": false,
      "special": true
    },
    {
      "id": 27,
      "content": "FIELD:$29",
      "single_word": false,
      "lstrip": false,
      "rstrip": false,
      "normalized": false,
      "special": true
    },
    {
      "id": 28,
      "content": "FIELD:$3",
      "single_word": false,
      "lstrip": false,
      "rstrip": false,
      "normalized": false,
      "special": true
    },
    {
      "id": 29,
      "content": "FIELD:$30",
      "single_word": false,
      "lstrip": false,
      "rstrip": false,
      "normalized": false,
      "special": true
    },
    {
      "id": 30,
      "content": "FIELD:$31",
      "single_word": false,
      "lstrip": false,
      "rstrip": false,
      "normalized": false,
      "special": true
    },
    {
      "id": 31,
      "content": "FIELD:$32",
      "single_word": false,
      "lstrip": false,
      "rstrip": false,
      "normalized": false,
      "special": true
    },
    {
      "id": 32,
      "content": "FIELD:$4",
      "single_word": false,
      "lstrip": false,
      "rstrip": false,
      "normalized": false,
      "special": true
    },
    {
      "id": 33,
      "content": "FIELD:$5",
      "single_word": false,
      "lstrip": false,
      "rstrip": false,
      "normalized": false,
      "special": true
    },
    {
      "id": 34,
      "content": "FIELD:$6",
      "single_word": false,
      "lstrip": false,
      "rstrip": false,
      "normalized": false,
      "special": true
    },
    {
      "id": 35,
      "content": "FIELD:$7",
      "single_word": false,
      "lstrip": false,
      "rstrip": false,
      "normalized": false,
      "special": true
    },
    {
      "id": 36,
      "content": "FIELD:$8",
      "single_word": false,
      "lstrip": false,
      "rstrip": false,
      "normalized": false,
      "special": true
    },
    {
      "id": 37,
      "content": "FIELD:$9",
      "single_word": false,
      "lstrip": false,
      "rstrip": false,
      "normalized": false,
      "special": true
    },
    {
      "id": 38,
      "content": "LOCAL:$0",
      "single_word": false,
      "lstrip": false,
      "rstrip": false,
      "normalized": false,
      "special": true
    },
    {
      "id": 39,
      "content": "LOCAL:$1",
      "single_word": false,
      "lstrip": false,
      "rstrip": false,
      "normalized": false,
      "special": true
    },
    {
      "id": 40,
      "content": "LOCAL:$10",
      "single_word": false,
      "lstrip": false,
      "rstrip": false,
      "normalized": false,
      "special": true
    },
    {
      "id": 41,
      "content": "LOCAL:$11",
      "single_word": false,
      "lstrip": false,
      "rstrip": false,
      "normalized": false,
      "special": true
    },
    {
      "id": 42,
      "content": "LOCAL:$12",
      "single_word": false,
      "lstrip": false,
      "rstrip": false,
      "normalized": false,
      "special": true
    },
    {
      "id": 43,
      "content": "LOCAL:$13",
      "single_word": false,
      "lstrip": false,
      "rstrip": false,
      "normalized": false,
      "special": true
    },
    {
      "id": 44,
      "content": "LOCAL:$14",
      "single_word": false,
      "lstrip": false,
      "rstrip": false,
      "normalized": false,
      "special": true
    },
    {
      "id": 45,
      "content": "LOCAL:$15",
      "single_word": false,
      "lstrip": false,
      "rstrip": false,
      "normalized": false,
      "special": true
    },
    {
      "id": 46,
      "content": "LOCAL:$16",
      "single_word": false,
      "lstrip": false,
      "rstrip": false,
      "normalized": false,
      "special": true
    },
    {
      "id": 47,
      "content": "LOCAL:$17",
      "single_word": false,
      "lstrip": false,
      "rstrip": false,
      "normalized": false,
      "special": true
    },
    {
      "id": 48,
      "content": "LOCAL:$18",
      "single_word": false,
      "lstrip": false,
      "rstrip": false,
      "normalized": false,
      "special": true
    },
    {
      "id": 49,
      "content": "LOCAL:$19",
      "single_word": false,
      "lstrip": false,
      "rstrip": false,
      "normalized": false,
      "special": true
    },
    {
      "id": 50,
      "content": "LOCAL:$2",
      "single_word": false,
      "lstrip": false,
      "rstrip": false,
      "normalized": false,
      "special": true
    },
    {
      "id": 51,
      "content": "LOCAL:$20",
      "single_word": false,
      "lstrip": false,
      "rstrip": false,
      "normalized": false,
      "special": true
    },
    {
      "id": 52,
      "content": "LOCAL:$21",
      "single_word": false,
      "lstrip": false,
      "rstrip": false,
      "normalized": false,
      "special": true
    },
    {
      "id": 53,
      "content": "LOCAL:$22",
      "single_word": false,
      "lstrip": false,
      "rstrip": false,
      "normalized": false,
      "special": true
    },
    {
      "id": 54,
      "content": "LOCAL:$23",
      "single_word": false,
      "lstrip": false,
      "rstrip": false,
      "normalized": false,
      "special": true
    },
    {
      "id": 55,
      "content": "LOCAL:$24",
      "single_word": false,
      "lstrip": false,
      "rstrip": false,
      "normalized": false,
      "special": true
    },
    {
      "id": 56,
      "content": "LOCAL:$25",
      "single_word": false,
      "lstrip": false,
      "rstrip": false,
      "normalized": false,
      "special": true
    },
    {
      "id": 57,
      "content": "LOCAL:$26",
      "single_word": false,
      "lstrip": false,
      "rstrip": false,
      "normalized": false,
      "special": true
    },
    {
      "id": 58,
      "content": "LOCAL:$27",
      "single_word": false,
      "lstrip": false,
      "rstrip": false,
      "normalized": false,
      "special": true
    },
    {
      "id": 59,
      "content": "LOCAL:$28",
      "single_word": false,
      "lstrip": false,
      "rstrip": false,
      "normalized": false,
      "special": true
    },
    {
      "id": 60,
      "content": "LOCAL:$29",
      "single_word": false,
      "lstrip": false,
      "rstrip": false,
      "normalized": false,
      "special": true
    },
    {
      "id": 61,
      "content": "LOCAL:$3",
      "single_word": false,
      "lstrip": false,
      "rstrip": false,
      "normalized": false,
      "special": true
    },
    {
      "id": 62,
      "content": "LOCAL:$30",
      "single_word": false,
      "lstrip": false,
      "rstrip": false,
      "normalized": false,
      "special": true
    },
    {
      "id": 63,
      "content": "LOCAL:$31",
      "single_word": false,
      "lstrip": false,
      "rstrip": false,
      "normalized": false,
      "special": true
    },
    {
      "id": 64,
      "content": "LOCAL:$32",
      "single_word": false,
      "lstrip": false,
      "rstrip": false,
      "normalized": false,
      "special": true
    },
    {
      "id": 65,
      "content": "LOCAL:$33",
      "single_word": false,
      "lstrip": false,
      "rstrip": false,
      "normalized": false,
      "special": true
    },
    {
      "id": 66,
      "content": "LOCAL:$34",
      "single_word": false,
      "lstrip": false,
      "rstrip": false,
      "normalized": false,
      "special": true
    },
    {
      "id": 67,
      "content": "LOCAL:$35",
      "single_word": false,
      "lstrip": false,
      "rstrip": false,
      "normalized": false,
      "special": true
    },
    {
      "id": 68,
      "content": "LOCAL:$36",
      "single_word": false,
      "lstrip": false,
      "rstrip": false,
      "normalized": false,
      "special": true
    },
    {
      "id": 69,
      "content": "LOCAL:$37",
      "single_word": false,
      "lstrip": false,
      "rstrip": false,
      "normalized": false,
      "special": true
    },
    {
      "id": 70,
      "content": "LOCAL:$38",
      "single_word": false,
      "lstrip": false,
      "rstrip": false,
      "normalized": false,
      "special": true
    },
    {
      "id": 71,
      "content": "LOCAL:$39",
      "single_word": false,
      "lstrip": false,
      "rstrip": false,
      "normalized": false,
      "special": true
    },
    {
      "id": 72,
      "content": "LOCAL:$4",
      "single_word": false,
      "lstrip": false,
      "rstrip": false,
      "normalized": false,
      "special": true
    },
    {
      "id": 73,
      "content": "LOCAL:$40",
      "single_word": false,
      "lstrip": false,
      "rstrip": false,
      "normalized": false,
      "special": true
    },
    {
      "id": 74,
      "content": "LOCAL:$41",
      "single_word": false,
      "lstrip": false,
      "rstrip": false,
      "normalized": false,
      "special": true
    },
    {
      "id": 75,
      "content": "LOCAL:$42",
      "single_word": false,
      "lstrip": false,
      "rstrip": false,
      "normalized": false,
      "special": true
    },
    {
      "id": 76,
      "content": "LOCAL:$5",
      "single_word": false,
      "lstrip": false,
      "rstrip": false,
      "normalized": false,
      "special": true
    },
    {
      "id": 77,
      "content": "LOCAL:$6",
      "single_word": false,
      "lstrip": false,
      "rstrip": false,
      "normalized": false,
      "special": true
    },
    {
      "id": 78,
      "content": "LOCAL:$7",
      "single_word": false,
      "lstrip": false,
      "rstrip": false,
      "normalized": false,
      "special": true
    },
    {
      "id": 79,
      "content": "LOCAL:$8",
      "single_word": false,
      "lstrip": false,
      "rstrip": false,
      "normalized": false,
      "special": true
    },
    {
      "id": 80,
      "content": "LOCAL:$9",
      "single_word": false,
      "lstrip": false,
      "rstrip": false,
      "normalized": false,
      "special": true
    },
    {
      "id": 81,
      "content": "METHOD:$0",
      "single_word": false,
      "lstrip": false,
      "rstrip": false,
      "normalized": false,
      "special": true
    },
    {
      "id": 82,
      "content": "METHOD:$1",
      "single_word": false,
      "lstrip": false,
      "rstrip": false,
      "normalized": false,
      "special": true
    },
    {
      "id": 83,
      "content": "METHOD:$10",
      "single_word": false,
      "lstrip": false,
      "rstrip": false,
      "normalized": false,
      "special": true
    },
    {
      "id": 84,
      "content": "METHOD:$11",
      "single_word": false,
      "lstrip": false,
      "rstrip": false,
      "normalized": false,
      "special": true
    },
    {
      "id": 85,
      "content": "METHOD:$12",
      "single_word": false,
      "lstrip": false,
      "rstrip": false,
      "normalized": false,
      "special": true
    },
    {
      "id": 86,
      "content": "METHOD:$13",
      "single_word": false,
      "lstrip": false,
      "rstrip": false,
      "normalized": false,
      "special": true
    },
    {
      "id": 87,
      "content": "METHOD:$14",
      "single_word": false,
      "lstrip": false,
      "rstrip": false,
      "normalized": false,
      "special": true
    },
    {
      "id": 88,
      "content": "METHOD:$15",
      "single_word": false,
      "lstrip": false,
      "rstrip": false,
      "normalized": false,
      "special": true
    },
    {
      "id": 89,
      "content": "METHOD:$16",
      "single_word": false,
      "lstrip": false,
      "rstrip": false,
      "normalized": false,
      "special": true
    },
    {
      "id": 90,
      "content": "METHOD:$17",
      "single_word": false,
      "lstrip": false,
      "rstrip": false,
      "normalized": false,
      "special": true
    },
    {
      "id": 91,
      "content": "METHOD:$18",
      "single_word": false,
      "lstrip": false,
      "rstrip": false,
      "normalized": false,
      "special": true
    },
    {
      "id": 92,
      "content": "METHOD:$19",
      "single_word": false,
      "lstrip": false,
      "rstrip": false,
      "normalized": false,
      "special": true
    },
    {
      "id": 93,
      "content": "METHOD:$2",
      "single_word": false,
      "lstrip": false,
      "rstrip": false,
      "normalized": false,
      "special": true
    },
    {
      "id": 94,
      "content": "METHOD:$20",
      "single_word": false,
      "lstrip": false,
      "rstrip": false,
      "normalized": false,
      "special": true
    },
    {
      "id": 95,
      "content": "METHOD:$21",
      "single_word": false,
      "lstrip": false,
      "rstrip": false,
      "normalized": false,
      "special": true
    },
    {
      "id": 96,
      "content": "METHOD:$22",
      "single_word": false,
      "lstrip": false,
      "rstrip": false,
      "normalized": false,
      "special": true
    },
    {
      "id": 97,
      "content": "METHOD:$23",
      "single_word": false,
      "lstrip": false,
      "rstrip": false,
      "normalized": false,
      "special": true
    },
    {
      "id": 98,
      "content": "METHOD:$24",
      "single_word": false,
      "lstrip": false,
      "rstrip": false,
      "normalized": false,
      "special": true
    },
    {
      "id": 99,
      "content": "METHOD:$25",
      "single_word": false,
      "lstrip": false,
      "rstrip": false,
      "normalized": false,
      "special": true
    },
    {
      "id": 100,
      "content": "METHOD:$26",
      "single_word": false,
      "lstrip": false,
      "rstrip": false,
      "normalized": false,
      "special": true
    },
    {
      "id": 101,
      "content": "METHOD:$27",
      "single_word": false,
      "lstrip": false,
      "rstrip": false,
      "normalized": false,
      "special": true
    },
    {
      "id": 102,
      "content": "METHOD:$3",
      "single_word": false,
      "lstrip": false,
      "rstrip": false,
      "normalized": false,
      "special": true
    },
    {
      "id": 103,
      "content": "METHOD:$4",
      "single_word": false,
      "lstrip": false,
      "rstrip": false,
      "normalized": false,
      "special": true
    },
    {
      "id": 104,
      "content": "METHOD:$5",
      "single_word": false,
      "lstrip": false,
      "rstrip": false,
      "normalized": false,
      "special": true
    },
    {
      "id": 105,
      "content": "METHOD:$6",
      "single_word": false,
      "lstrip": false,
      "rstrip": false,
      "normalized": false,
      "special": true
    },
    {
      "id": 106,
      "content": "METHOD:$7",
      "single_word": false,
      "lstrip": false,
      "rstrip": false,
      "normalized": false,
      "special": true
    },
    {
      "id": 107,
      "content": "METHOD:$8",
      "single_word": false,
      "lstrip": false,
      "rstrip": false,
      "normalized": false,
      "special": true
    },
    {
      "id": 108,
      "content": "METHOD:$9",
      "single_word": false,
      "lstrip": false,
      "rstrip": false,
      "normalized": false,
      "special": true
    },
    {
      "id": 109,
      "content": "NAMEDTYPE:$0",
      "single_word": false,
      "lstrip": false,
      "rstrip": false,
      "normalized": false,
      "special": true
    },
    {
      "id": 110,
      "content": "NAMEDTYPE:$1",
      "single_word": false,
      "lstrip": false,
      "rstrip": false,
      "normalized": false,
      "special": true
    },
    {
      "id": 111,
      "content": "NAMEDTYPE:$10",
      "single_word": false,
      "lstrip": false,
      "rstrip": false,
      "normalized": false,
      "special": true
    },
    {
      "id": 112,
      "content": "NAMEDTYPE:$11",
      "single_word": false,
      "lstrip": false,
      "rstrip": false,
      "normalized": false,
      "special": true
    },
    {
      "id": 113,
      "content": "NAMEDTYPE:$12",
      "single_word": false,
      "lstrip": false,
      "rstrip": false,
      "normalized": false,
      "special": true
    },
    {
      "id": 114,
      "content": "NAMEDTYPE:$13",
      "single_word": false,
      "lstrip": false,
      "rstrip": false,
      "normalized": false,
      "special": true
    },
    {
      "id": 115,
      "content": "NAMEDTYPE:$14",
      "single_word": false,
      "lstrip": false,
      "rstrip": false,
      "normalized": false,
      "special": true
    },
    {
      "id": 116,
      "content": "NAMEDTYPE:$15",
      "single_word": false,
      "lstrip": false,
      "rstrip": false,
      "normalized": false,
      "special": true
    },
    {
      "id": 117,
      "content": "NAMEDTYPE:$16",
      "single_word": false,
      "lstrip": false,
      "rstrip": false,
      "normalized": false,
      "special": true
    },
    {
      "id": 118,
      "content": "NAMEDTYPE:$17",
      "single_word": false,
      "lstrip": false,
      "rstrip": false,
      "normalized": false,
      "special": true
    },
    {
      "id": 119,
      "content": "NAMEDTYPE:$18",
      "single_word": false,
      "lstrip": false,
      "rstrip": false,
      "normalized": false,
      "special": true
    },
    {
      "id": 120,
      "content": "NAMEDTYPE:$19",
      "single_word": false,
      "lstrip": false,
      "rstrip": false,
      "normalized": false,
      "special": true
    },
    {
      "id": 121,
      "content": "NAMEDTYPE:$2",
      "single_word": false,
      "lstrip": false,
      "rstrip": false,
      "normalized": false,
      "special": true
    },
    {
      "id": 122,
      "content": "NAMEDTYPE:$3",
      "single_word": false,
      "lstrip": false,
      "rstrip": false,
      "normalized": false,
      "special": true
    },
    {
      "id": 123,
      "content": "NAMEDTYPE:$4",
      "single_word": false,
      "lstrip": false,
      "rstrip": false,
      "normalized": false,
      "special": true
    },
    {
      "id": 124,
      "content": "NAMEDTYPE:$5",
      "single_word": false,
      "lstrip": false,
      "rstrip": false,
      "normalized": false,
      "special": true
    },
    {
      "id": 125,
      "content": "NAMEDTYPE:$6",
      "single_word": false,
      "lstrip": false,
      "rstrip": false,
      "normalized": false,
      "special": true
    },
    {
      "id": 126,
      "content": "NAMEDTYPE:$7",
      "single_word": false,
      "lstrip": false,
      "rstrip": false,
      "normalized": false,
      "special": true
    },
    {
      "id": 127,
      "content": "NAMEDTYPE:$8",
      "single_word": false,
      "lstrip": false,
      "rstrip": false,
      "normalized": false,
      "special": true
    },
    {
      "id": 128,
      "content": "NAMEDTYPE:$9",
      "single_word": false,
      "lstrip": false,
      "rstrip": false,
      "normalized": false,
      "special": true
    },
    {
      "id": 129,
      "content": "PARAMETER:$0",
      "single_word": false,
      "lstrip": false,
      "rstrip": false,
      "normalized": false,
      "special": true
    },
    {
      "id": 130,
      "content": "PARAMETER:$1",
      "single_word": false,
      "lstrip": false,
      "rstrip": false,
      "normalized": false,
      "special": true
    },
    {
      "id": 131,
      "content": "PARAMETER:$10",
      "single_word": false,
      "lstrip": false,
      "rstrip": false,
      "normalized": false,
      "special": true
    },
    {
      "id": 132,
      "content": "PARAMETER:$11",
      "single_word": false,
      "lstrip": false,
      "rstrip": false,
      "normalized": false,
      "special": true
    },
    {
      "id": 133,
      "content": "PARAMETER:$12",
      "single_word": false,
      "lstrip": false,
      "rstrip": false,
      "normalized": false,
      "special": true
    },
    {
      "id": 134,
      "content": "PARAMETER:$13",
      "single_word": false,
      "lstrip": false,
      "rstrip": false,
      "normalized": false,
      "special": true
    },
    {
      "id": 135,
      "content": "PARAMETER:$2",
      "single_word": false,
      "lstrip": false,
      "rstrip": false,
      "normalized": false,
      "special": true
    },
    {
      "id": 136,
      "content": "PARAMETER:$3",
      "single_word": false,
      "lstrip": false,
      "rstrip": false,
      "normalized": false,
      "special": true
    },
    {
      "id": 137,
      "content": "PARAMETER:$4",
      "single_word": false,
      "lstrip": false,
      "rstrip": false,
      "normalized": false,
      "special": true
    },
    {
      "id": 138,
      "content": "PARAMETER:$5",
      "single_word": false,
      "lstrip": false,
      "rstrip": false,
      "normalized": false,
      "special": true
    },
    {
      "id": 139,
      "content": "PARAMETER:$6",
      "single_word": false,
      "lstrip": false,
      "rstrip": false,
      "normalized": false,
      "special": true
    },
    {
      "id": 140,
      "content": "PARAMETER:$7",
      "single_word": false,
      "lstrip": false,
      "rstrip": false,
      "normalized": false,
      "special": true
    },
    {
      "id": 141,
      "content": "PARAMETER:$8",
      "single_word": false,
      "lstrip": false,
      "rstrip": false,
      "normalized": false,
      "special": true
    },
    {
      "id": 142,
      "content": "PARAMETER:$9",
      "single_word": false,
      "lstrip": false,
      "rstrip": false,
      "normalized": false,
      "special": true
    },
    {
      "id": 143,
      "content": "PROPERTY:$0",
      "single_word": false,
      "lstrip": false,
      "rstrip": false,
      "normalized": false,
      "special": true
    },
    {
      "id": 144,
      "content": "PROPERTY:$1",
      "single_word": false,
      "lstrip": false,
      "rstrip": false,
      "normalized": false,
      "special": true
    },
    {
      "id": 145,
      "content": "PROPERTY:$10",
      "single_word": false,
      "lstrip": false,
      "rstrip": false,
      "normalized": false,
      "special": true
    },
    {
      "id": 146,
      "content": "PROPERTY:$11",
      "single_word": false,
      "lstrip": false,
      "rstrip": false,
      "normalized": false,
      "special": true
    },
    {
      "id": 147,
      "content": "PROPERTY:$12",
      "single_word": false,
      "lstrip": false,
      "rstrip": false,
      "normalized": false,
      "special": true
    },
    {
      "id": 148,
      "content": "PROPERTY:$13",
      "single_word": false,
      "lstrip": false,
      "rstrip": false,
      "normalized": false,
      "special": true
    },
    {
      "id": 149,
      "content": "PROPERTY:$14",
      "single_word": false,
      "lstrip": false,
      "rstrip": false,
      "normalized": false,
      "special": true
    },
    {
      "id": 150,
      "content": "PROPERTY:$2",
      "single_word": false,
      "lstrip": false,
      "rstrip": false,
      "normalized": false,
      "special": true
    },
    {
      "id": 151,
      "content": "PROPERTY:$3",
      "single_word": false,
      "lstrip": false,
      "rstrip": false,
      "normalized": false,
      "special": true
    },
    {
      "id": 152,
      "content": "PROPERTY:$4",
      "single_word": false,
      "lstrip": false,
      "rstrip": false,
      "normalized": false,
      "special": true
    },
    {
      "id": 153,
      "content": "PROPERTY:$5",
      "single_word": false,
      "lstrip": false,
      "rstrip": false,
      "normalized": false,
      "special": true
    },
    {
      "id": 154,
      "content": "PROPERTY:$6",
      "single_word": false,
      "lstrip": false,
      "rstrip": false,
      "normalized": false,
      "special": true
    },
    {
      "id": 155,
      "content": "PROPERTY:$7",
      "single_word": false,
      "lstrip": false,
      "rstrip": false,
      "normalized": false,
      "special": true
    },
    {
      "id": 156,
      "content": "PROPERTY:$8",
      "single_word": false,
      "lstrip": false,
      "rstrip": false,
      "normalized": false,
      "special": true
    },
    {
      "id": 157,
      "content": "PROPERTY:$9",
      "single_word": false,
      "lstrip": false,
      "rstrip": false,
      "normalized": false,
      "special": true
    }
  ],
  "normalizer": null,
  "pre_tokenizer": {
    "type": "ByteLevel",
    "add_prefix_space": false,
    "trim_offsets": true,
    "use_regex": true
  },
  "post_processor": null,
  "decoder": {
    "type": "ByteLevel",
    "add_prefix_space": true,
    "trim_offsets": true,
    "use_regex": true
  },
  "model": {
    "type": "BPE",
    "dropout": null,
    "unk_token": "<|unk|>",
    "continuing_subword_prefix": null,
    "end_of_word_suffix": null,
    "fuse_unk": false,
    "byte_fallback": false,
    "ignore_merges": false,
    "vocab": {
      "<|pad|>": 0,
      "<|unk|>": 1,
      "<|bos|>": 2,
      "<|eos|>": 3,
      "<|output|>": 4,
      "FIELD:$0": 5,
      "FIELD:$1": 6,
      "FIELD:$10": 7,
      "FIELD:$11": 8,
      "FIELD:$12": 9,
      "FIELD:$13": 10,
      "FIELD:$14": 11,
      "FIELD:$15": 12,
      "FIELD:$16": 13,
      "FIELD:$17": 14,
      "FIELD:$18": 15,
      "FIELD:$19": 16,
      "FIELD:$2": 17,
      "FIELD:$20": 18,
      "FIELD:$21": 19,
      "FIELD:$22": 20,
      "FIELD:$23": 21,
      "FIELD:$24": 22,
      "FIELD:$25": 23,
      "FIELD:$26": 24,
      "FIELD:$27": 25,
      "FIELD:$28": 26,
      "FIELD:$29": 27,
      "FIELD:$3": 28,
      "FIELD:$30": 29,
      "FIELD:$31": 30,
      "FIELD:$32": 31,
      "FIELD:$4": 32,
      "FIELD:$5": 33,
      "FIELD:$6": 34,
      "FIELD:$7": 35,
      "FIELD:$8": 36,
      "FIELD:$9": 37,
      "LOCAL:$0": 38,
      "LOCAL:$1": 39,
      "LOCAL:$10": 40,
      "LOCAL:$11": 41,
      "LOCAL:$12": 42,
      "LOCAL:$13": 43,
      "LOCAL:$14": 44,
      "LOCAL:$15": 45,
      "LOCAL:$16": 46,
      "LOCAL:$17": 47,
      "LOCAL:$18": 48,
      "LOCAL:$19": 49,
      "LOCAL:$2": 50,
      "LOCAL:$20": 51,
      "LOCAL:$21": 52,
      "LOCAL:$22": 53,
      "LOCAL:$23": 54,
      "LOCAL:$24": 55,
      "LOCAL:$25": 56,
      "LOCAL:$26": 57,
      "LOCAL:$27": 58,
      "LOCAL:$28": 59,
      "LOCAL:$29": 60,
      "LOCAL:$3": 61,
      "LOCAL:$30": 62,
      "LOCAL:$31": 63,
      "LOCAL:$32": 64,
      "LOCAL:$33": 65,
      "LOCAL:$34": 66,
      "LOCAL:$35": 67,
      "LOCAL:$36": 68,
      "LOCAL:$37": 69,
      "LOCAL:$38": 70,
      "LOCAL:$39": 71,
      "LOCAL:$4": 72,
      "LOCAL:$40": 73,
      "LOCAL:$41": 74,
      "LOCAL:$42": 75,
      "LOCAL:$5": 76,
      "LOCAL:$6": 77,
      "LOCAL:$7": 78,
      "LOCAL:$8": 79,
      "LOCAL:$9": 80,
      "METHOD:$0": 81,
      "METHOD:$1": 82,
      "METHOD:$10": 83,
      "METHOD:$11": 84,
      "METHOD:$12": 85,
      "METHOD:$13": 86,
      "METHOD:$14": 87,
      "METHOD:$15": 88,
      "METHOD:$16": 89,
      "METHOD:$17": 90,
      "METHOD:$18": 91,
      "METHOD:$19": 92,
      "METHOD:$2": 93,
      "METHOD:$20": 94,
      "METHOD:$21": 95,
      "METHOD:$22": 96,
      "METHOD:$23": 97,
      "METHOD:$24": 98,
      "METHOD:$25": 99,
      "METHOD:$26": 100,
      "METHOD:$27": 101,
      "METHOD:$3": 102,
      "METHOD:$4": 103,
      "METHOD:$5": 104,
      "METHOD:$6": 105,
      "METHOD:$7": 106,
      "METHOD:$8": 107,
      "METHOD:$9": 108,
      "NAMEDTYPE:$0": 109,
      "NAMEDTYPE:$1": 110,
      "NAMEDTYPE:$10": 111,
      "NAMEDTYPE:$11": 112,
      "NAMEDTYPE:$12": 113,
      "NAMEDTYPE:$13": 114,
      "NAMEDTYPE:$14": 115,
      "NAMEDTYPE:$15": 116,
      "NAMEDTYPE:$16": 117,
      "NAMEDTYPE:$17": 118,
      "NAMEDTYPE:$18": 119,
      "NAMEDTYPE:$19": 120,
      "NAMEDTYPE:$2": 121,
      "NAMEDTYPE:$3": 122,
      "NAMEDTYPE:$4": 123,
      "NAMEDTYPE:$5": 124,
      "NAMEDTYPE:$6": 125,
      "NAMEDTYPE:$7": 126,
      "NAMEDTYPE:$8": 127,
      "NAMEDTYPE:$9": 128,
      "PARAMETER:$0": 129,
      "PARAMETER:$1": 130,
      "PARAMETER:$10": 131,
      "PARAMETER:$11": 132,
      "PARAMETER:$12": 133,
      "PARAMETER:$13": 134,
      "PARAMETER:$2": 135,
      "PARAMETER:$3": 136,
      "PARAMETER:$4": 137,
      "PARAMETER:$5": 138,
      "PARAMETER:$6": 139,
      "PARAMETER:$7": 140,
      "PARAMETER:$8": 141,
      "PARAMETER:$9": 142,
      "PROPERTY:$0": 143,
      "PROPERTY:$1": 144,
      "PROPERTY:$10": 145,
      "PROPERTY:$11": 146,
      "PROPERTY:$12": 147,
      "PROPERTY:$13": 148,
      "PROPERTY:$14": 149,
      "PROPERTY:$2": 150,
      "PROPERTY:$3": 151,
      "PROPERTY:$4": 152,
      "PROPERTY:$5": 153,
      "PROPERTY:$6": 154,
      "PROPERTY:$7": 155,
      "PROPERTY:$8": 156,
      "PROPERTY:$9": 157,
      "!": 158,
      "\"": 159,
      "$": 160,
      "%": 161,
      "'": 162,
      "(": 163,
      ")": 164,
      "*": 165,
      "+": 166,
      ",": 167,
      "-": 168,
      ".": 169,
      "/": 170,
      "0": 171,
      "1": 172,
      "2": 173,
      "3": 174,
      "4": 175,
      "5": 176,
      "6": 177,
      "7": 178,
      "8": 179,
      "9": 180,
      ":": 181,
      ";": 182,
      "<": 183,
      "=": 184,
      ">": 185,
      "?": 186,
      "@": 187,
      "A": 188,
      "B": 189,
      "C": 190,
      "D": 191,
      "E": 192,
      "F": 193,
      "G": 194,
      "H": 195,
      "I": 196,
      "J": 197,
      "K": 198,
      "L": 199,
      "M": 200,
      "N": 201,
      "O": 202,
      "P": 203,
      "Q": 204,
      "R": 205,
      "S": 206,
      "T": 207,
      "U": 208,
      "V": 209,
      "W": 210,
      "X": 211,
      "Y": 212,
      "Z": 213,
      "[": 214,
      "\\": 215,
      "]": 216,
      "_": 217,
      "`": 218,
      "a": 219,
      "b": 220,
      "c": 221,
      "d": 222,
      "e": 223,
      "f": 224,
      "g": 225,
      "h": 226,
      "i": 227,
      "j": 228,
      "k": 229,
      "l": 230,
      "m": 231,
      "n": 232,
      "o": 233,
      "p": 234,
      "q": 235,
      "r": 236,
      "s": 237,
      "t": 238,
      "u": 239,
      "v": 240,
      "w": 241,
      "x": 242,
      "y": 243,
      "z": 244,
      "{": 245,
      "|": 246,
      "}": 247,
      "Ā": 248,
      "Ċ": 249,
      "č": 250,
      "Ġ": 251,
      "ġ": 252,
      "ME": 253,
      "ON": 254,
      "ER": 255,
      "ION": 256,
      "SS": 257,
      "ESS": 258,
      "PR": 259,
      "EX": 260,
      "PRESS": 261,
      "EXPRESS": 262,
      "EXPRESSION": 263,
      "ĠI": 264,
      "AME": 265,
      "NT": 266,
      "DE": 267,
      "NAME": 268,
      "AT": 269,
      "FI": 270,
      "IFI": 271,
      "IFIER": 272,
      "ĠIDE": 273,
      "NTIFIER": 274,
      "ĠIDENTIFIER": 275,
      "ĠIDENTIFIERNAME": 276,
      "AL": 277,
      ":$": 278,
      "AR": 279,
      "OC": 280,
      "LE": 281,
      "ĠS": 282,
      "ATION": 283,
      "TER": 284,
      "PLE": 285,
      "IM": 286,
      "ĠSIM": 287,
      "ĠSIMPLE": 288,
      "AC": 289,
      "LOC": 290,
      "MB": 291,
      "CESS": 292,
      "ACCESS": 293,
      "ACCESSEXPRESSION": 294,
      "CL": 295,
      "MEMB": 296,
      "MEMBER": 297,
      "ĠSIMPLEMEMBER": 298,
      "ĠSIMPLEMEMBERACCESSEXPRESSION": 299,
      "ĠLOC": 300,
      "ĠLOCAL": 301,
      "ATIONEXPRESSION": 302,
      "on": 303,
      "in": 304,
      "ĠP": 305,
      "Ġ1": 306,
      "ĠIN": 307,
      "ĠINV": 308,
      "OCATIONEXPRESSION": 309,
      "ĠINVOCATIONEXPRESSION": 310,
      "er": 311,
      "MENT": 312,
      "ti": 313,
      "ĠPAR": 314,
      "AMETER": 315,
      "ĠPARAMETER": 316,
      "re": 317,
      "ST": 318,
      "DECL": 319,
      "DECLAR": 320,
      "ATE": 321,
      "STATE": 322,
      "STATEMENT": 323,
      "ĠE": 324,
      "ar": 325,
      "AB": 326,
      "ALEXPRESSION": 327,
      "ĠV": 328,
      "ABLE": 329,
      "ITER": 330,
      "ITERALEXPRESSION": 331,
      "en": 332,
      "TY": 333,
      "IABLE": 334,
      "ARIABLE": 335,
      "DECLARATION": 336,
      "th": 337,
      "ĠVARIABLE": 338,
      "SE": 339,
      "tion": 340,
      "ĠC": 341,
      "ut": 342,
      "Ġs": 343,
      "at": 344,
      "an": 345,
      "ĠN": 346,
      "al": 347,
      "TYP": 348,
      "RI": 349,
      "AU": 350,
      "AUSE": 351,
      "CLAUSE": 352,
      "or": 353,
      "am": 354,
      "TYPE": 355,
      "QU": 356,
      "ing": 357,
      "QUAL": 358,
      "QUALS": 359,
      "Ġv": 360,
      "ĠB": 361,
      "le": 362,
      "ĠNAME": 363,
      "OR": 364,
      "ĠT": 365,
      "LITERALEXPRESSION": 366,
      "ĠA": 367,
      "LOCK": 368,
      "ĠBLOCK": 369,
      "ic": 370,
      "DTYPE": 371,
      "ĠEQUALS": 372,
      "ĠNAMEDTYPE": 373,
      "ty": 374,
      "RE": 375,
      "ame": 376,
      "pe": 377,
      "Ġc": 378,
      "NG": 379,
      "as": 380,
      "ĠNU": 381,
      "Ġth": 382,
      "UE": 383,
      "Ġin": 384,
      "ct": 385,
      "res": 386,
      "si": 387,
      "tr": 388,
      "Ġ0": 389,
      "EL": 390,
      "ATOR": 391,
      "DECLARATOR": 392,
      "Ġ2": 393,
      "ĠVARIABLEDECLARATOR": 394,
      "ĠVARIABLEDECLARATION": 395,
      "ro": 396,
      "ELD": 397,
      "VAL": 398,
      "ĠEQUALSVAL": 399,
      "UECLAUSE": 400,
      "ĠEQUALSVALUECLAUSE": 401,
      "FIELD": 402,
      "Ġvar": 403,
      "out": 404,
      "ed": 405,
      "RING": 406,
      "TH": 407,
      "ĠLOCALDECLARATION": 408,
      "ĠLOCALDECLARATIONSTATEMENT": 409,
      "ĠL": 410,
      "ub": 411,
      "ype": 412,
      "sion": 413,
      "pp": 414,
      "et": 415,
      "ce": 416,
      "ATTER": 417,
      "ATTERN": 418,
      "ĠF": 419,
      "is": 420,
      "de": 421,
      "lic": 422,
      "Ex": 423,
      "put": 424,
      "ue": 425,
      "te": 426,
      "ou": 427,
      "PATTERN": 428,
      "output": 429,
      "<|": 430,
      "|>": 431,
      "OD": 432,
      "Ġthe": 433,
      "Ġn": 434,
      "METH": 435,
      "METHOD": 436,
      "ĠMETHOD": 437,
      "Type": 438,
      "pres": 439,
      "pression": 440,
      "ĠFIELD": 441,
      "alue": 442,
      "ta": 443,
      "TC": 444,
      "MENTEXPRESSION": 445,
      "MERI": 446,
      "CLITERALEXPRESSION": 447,
      "ĠNUMERI": 448,
      "ĠNUMERICLITERALEXPRESSION": 449,
      "Ġan": 450,
      "OL": 451,
      "ate": 452,
      "il": 453,
      "ri": 454,
      "TRING": 455,
      "Ġ$": 456,
      "ĠSTRING": 457,
      "ĠSTRINGLITERALEXPRESSION": 458,
      "ublic": 459,
      "public": 460,
      "ĠO": 461,
      "ĠIF": 462,
      "ĠIFSTATEMENT": 463,
      "tring": 464,
      "ĠG": 465,
      "ul": 466,
      "to": 467,
      "IG": 468,
      "IGN": 469,
      "tity": 470,
      "ey": 471,
      "ASS": 472,
      "Ġw": 473,
      "IGNMENTEXPRESSION": 474,
      "ASSIGNMENTEXPRESSION": 475,
      "ARR": 476,
      "ent": 477,
      "ĠARR": 478,
      "LL": 479,
      "ation": 480,
      "ol": 481,
      "Expression": 482,
      "Ġb": 483,
      "IC": 484,
      "ĠRE": 485,
      "EC": 486,
      "ĠSIMPLEASSIGNMENTEXPRESSION": 487,
      "UR": 488,
      "Ġre": 489,
      "OW": 490,
      "per": 491,
      "Ġto": 492,
      "ter": 493,
      "ĠPR": 494,
      "ly": 495,
      "Ġd": 496,
      "NTER": 497,
      "BJ": 498,
      "BJEC": 499,
      "der": 500,
      "es": 501,
      "NTERP": 502,
      "GIC": 503,
      "OGIC": 504,
      "ĠLOGIC": 505,
      "ĠLOGICAL": 506,
      "ĠINTERP": 507,
      "ĠINTERPOL": 508,
      "ĠNULL": 509,
      "ntity": 510,
      "NSTATEMENT": 511,
      "TUR": 512,
      "TURNSTATEMENT": 513,
      "Ġa": 514,
      "OP": 515,
      "ĠPROP": 516,
      "ĠPROPER": 517,
      "AN": 518,
      "ode": 519,
      "ĠGet": 520,
      "OWEXPRESSION": 521,
      "REATIONEXPRESSION": 522,
      "ĠRETURNSTATEMENT": 523,
      "ĠCo": 524,
      "xt": 525,
      "ĠD": 526,
      "ĠCON": 527,
      "In": 528,
      "mp": 529,
      "ith": 530,
      "um": 531,
      "Ġu": 532,
      "TCREATIONEXPRESSION": 533,
      "BJECTCREATIONEXPRESSION": 534,
      "Ġf": 535,
      "ase": 536,
      "Value": 537,
      "end": 538,
      "Ġ3": 539,
      "OT": 540,
      "ab": 541,
      "je": 542,
      "Key": 543,
      "ĠNULLLITERALEXPRESSION": 544,
      "Ġe": 545,
      "Ġo": 546,
      "ĠARROWEXPRESSION": 547,
      "ĠARROWEXPRESSIONCLAUSE": 548,
      "ĠPROPERTY": 549,
      "ĠOBJECTCREATIONEXPRESSION": 550,
      "ction": 551,
      "Re": 552,
      "ĠApp": 553,
      "IT": 554,
      "Ġp": 555,
      "ult": 556,
      "ĠAppend": 557,
      "LEMENT": 558,
      "DEXPRESSION": 559,
      "tic": 560,
      "Ġi": 561,
      "ĠEntity": 562,
      "mo": 563,
      "se": 564,
      "able": 565,
      "ot": 566,
      "ĠM": 567,
      "id": 568,
      "ption": 569,
      "Ġwith": 570,
      "ĠW": 571,
      "Ġthat": 572,
      "roper": 573,
      "ig": 574,
      "Ġm": 575,
      "Ġk": 576,
      "ject": 577,
      "ur": 578,
      "ĠEQUALSEXPRESSION": 579,
      "tatic": 580,
      "ĠELEMENT": 581,
      "wor": 582,
      "ĠELEMENTACCESSEXPRESSION": 583,
      "Ġand": 584,
      "Ġstatic": 585,
      "rame": 586,
      "ĠCore": 587,
      "no": 588,
      "work": 589,
      "ramework": 590,
      "DST": 591,
      "ATEDST": 592,
      "ĠINTERPOLATEDST": 593,
      "ĠINTERPOLATEDSTRING": 594,
      "PI": 595,
      "uct": 596,
      "ĠAPI": 597,
      "lease": 598,
      "ĠFramework": 599,
      "ĠTh": 600,
      "Ġrelease": 601,
      "LA": 602,
      "AEXPRESSION": 603,
      "DAEXPRESSION": 604,
      "MBDAEXPRESSION": 605,
      "LAMBDAEXPRESSION": 606,
      "ay": 607,
      "ure": 608,
      "IN": 609,
      "ine": 610,
      "Con": 611,
      "uil": 612,
      "ist": 613,
      "roperty": 614,
      "ĠNOT": 615,
      "ver": 616,
      "omp": 617,
      "WI": 618,
      "our": 619,
      "uilder": 620,
      "dd": 621,
      "and": 622,
      "TCH": 623,
      "WITCH": 624,
      "Name": 625,
      "ary": 626,
      "Ġstring": 627,
      "ĠSIMPLELAMBDAEXPRESSION": 628,
      "od": 629,
      "me": 630,
      "Line": 631,
      "nt": 632,
      "ment": 633,
      "ener": 634,
      "aram": 635,
      "mov": 636,
      "ĠSU": 637,
      "ir": 638,
      "ool": 639,
      "ual": 640,
      "En": 641,
      "FIELDS": 642,
      "EQUALS": 643,
      "ĠIs": 644,
      "eth": 645,
      "Ġbool": 646,
      "ANDEXPRESSION": 647,
      "ĠLOGICALANDEXPRESSION": 648,
      "ew": 649,
      "ort": 650,
      "ĠThe": 651,
      "pd": 652,
      "Ġis": 653,
      "ĠNOTEQUALS": 654,
      "ĠNOTEQUALSEXPRESSION": 655,
      "Ġ4": 656,
      "yn": 657,
      "ang": 658,
      "Ġas": 659,
      "oid": 660,
      "Ġvoid": 661,
      "ĠCA": 662,
      "Builder": 663,
      "ANT": 664,
      "STANT": 665,
      "ĠCONSTANT": 666,
      "ĠCONSTANTPATTERN": 667,
      "string": 668,
      "mb": 669,
      "param": 670,
      "ec": 671,
      "Ġbe": 672,
      "st": 673,
      "ITION": 674,
      "DITION": 675,
      "ĠCONDITION": 676,
      "Ġint": 677,
      "uer": 678,
      "ad": 679,
      "ethod": 680,
      "ĠSWITCH": 681,
      "uery": 682,
      "vate": 683,
      "ity": 684,
      "tionary": 685,
      "ictionary": 686,
      "ĠIn": 687,
      "ire": 688,
      "pri": 689,
      "Gener": 690,
      "private": 691,
      "TEX": 692,
      "ĠTH": 693,
      "ĠINTERPOLATEDSTRINGTEX": 694,
      "ĠINTERPOLATEDSTRINGTEXT": 695,
      "ator": 696,
      "Ġdo": 697,
      "ĠIS": 698,
      "rite": 699,
      "ĠCon": 700,
      "truct": 701,
      "Ġwh": 702,
      "Th": 703,
      "fa": 704,
      "ĠFOR": 705,
      "Ġres": 706,
      "Ġnew": 707,
      "ld": 708,
      "ull": 709,
      "ds": 710,
      "upp": 711,
      "umer": 712,
      "Ġcan": 713,
      "Ġen": 714,
      "upport": 715,
      "ces": 716,
      "ING": 717,
      "ĠU": 718,
      "ĠWrite": 719,
      "text": 720,
      "Ġor": 721,
      "ag": 722,
      "ĠAdd": 723,
      "ĠINTERPOLATION": 724,
      "Inf": 725,
      "Ġvalue": 726,
      "Ġcomp": 727,
      "THAN": 728,
      "AY": 729,
      "hang": 730,
      "ĠY": 731,
      "ount": 732,
      "Ġst": 733,
      "Ġresult": 734,
      "ĠARRAY": 735,
      "xpression": 736,
      "Has": 737,
      "ati": 738,
      "Ġkey": 739,
      "ns": 740,
      "Query": 741,
      "ail": 742,
      "irect": 743,
      "ĠTYPE": 744,
      "Ġnot": 745,
      "nal": 746,
      "Ġcon": 747,
      "ating": 748,
      "tem": 749,
      "STEXPRESSION": 750,
      "Ġuse": 751,
      "ĠCASTEXPRESSION": 752,
      "Ġsh": 753,
      "ĠTR": 754,
      "lication": 755,
      "Ġapp": 756,
      "COL": 757,
      "ory": 758,
      "dex": 759,
      "PATTERNEXPRESSION": 760,
      "ĠISPATTERNEXPRESSION": 761,
      "COLON": 762,
      "Ġon": 763,
      "Ġcode": 764,
      "INGEXPRESSION": 765,
      "ould": 766,
      "Ġremov": 767,
      "Ġsame": 768,
      "Ġca": 769,
      "ures": 770,
      "ution": 771,
      "As": 772,
      "ternal": 773,
      "Ġsub": 774,
      "De": 775,
      "()": 776,
      "Ġit": 777,
      "FEXPRESSION": 778,
      "Pro": 779,
      "Info": 780,
      "olle": 781,
      "Ġany": 782,
      "Enumer": 783,
      "ĠNAMECOLON": 784,
      "ĠType": 785,
      "Ġso": 786,
      "Ġname": 787,
      "tructure": 788,
      "ch": 789,
      "Ġremoved": 790,
      "Ġno": 791,
      "Ġwhen": 792,
      "hanged": 793,
      "ĠAD": 794,
      "ility": 795,
      "ception": 796,
      "Ġy": 797,
      "ollection": 798,
      "un": 799,
      "now": 800,
      "ĠSUB": 801,
      "Ġshould": 802,
      "ras": 803,
      "rastructure": 804,
      "bject": 805,
      "ql": 806,
      "ĠTo": 807,
      "Ġupd": 808,
      "Ġinf": 809,
      "Ġdirect": 810,
      "Ġext": 811,
      "atib": 812,
      "arame": 813,
      "arameter": 814,
      "fault": 815,
      "Ġonly": 816,
      "Ġpublic": 817,
      "Ġapplication": 818,
      "Ġsupport": 819,
      "Ġchanged": 820,
      "OFEXPRESSION": 821,
      "Ġinternal": 822,
      "Ġdirectly": 823,
      "Ġwithout": 824,
      "ĠTYPEOFEXPRESSION": 825,
      "Ġmay": 826,
      "andar": 827,
      "ĠIt": 828,
      "This": 829,
      "Ġnoti": 830,
      "atibility": 831,
      "ĠName": 832,
      "Ġknow": 833,
      "ĠAPIs": 834,
      "Ġstandar": 835,
      "Ġsubject": 836,
      "Ġyour": 837,
      "Ġinfrastructure": 838,
      "reme": 839,
      "Ġfail": 840,
      "Ġdoing": 841,
      "Ġcompatibility": 842,
      "ĠYou": 843,
      "Ġcaution": 844,
      "Ġupdating": 845,
      "Ġextreme": 846,
      "Ġsupports": 847,
      "Ġnotice": 848,
      "Ġknowing": 849,
      "Ġstandards": 850,
      "Ġfailures": 851,
      "ĠCONDITIONALEXPRESSION": 852,
      "fi": 853,
      "Exception": 854,
      "TKey": 855,
      "UELITERALEXPRESSION": 856,
      "ĠTRUELITERALEXPRESSION": 857,
      "NOT": 858,
      "ument": 859,
      "NOTEXPRESSION": 860,
      "ĠLOGICALNOTEXPRESSION": 861,
      "On": 862,
      "lement": 863,
      "Ver": 864,
      "isi": 865,
      "ĠHas": 866,
      "isit": 867,
      "CT": 868,
      "ĠSWITCHEXPRESSION": 869,
      "To": 870,
      "tain": 871,
      "ĠTHR": 872,
      "Generic": 873,
      "THANEXPRESSION": 874,
      "ĠADDEXPRESSION": 875,
      "ĠRe": 876,
      "List": 877,
      "gument": 878,
      "ĠTr": 879,
      "type": 880,
      "Ġ5": 881,
      "ans": 882,
      "Entity": 883,
      "String": 884,
      "ele": 885,
      "ĠWriteLine": 886,
      "Or": 887,
      "qual": 888,
      "urns": 889,
      "verri": 890,
      "Ma": 891,
      "ource": 892,
      "tex": 893,
      "CTION": 894,
      "tation": 895,
      "EAC": 896,
      "ĠFOREAC": 897,
      "ĠFOREACH": 898,
      "verride": 899,
      "Ġtype": 900,
      "Me": 901,
      "Property": 902,
      "int": 903,
      "ĠTValue": 904,
      "ha": 905,
      "Ar": 906,
      "Null": 907,
      "Ġoverride": 908,
      "odel": 909,
      "SI": 910,
      "ci": 911,
      "ĠExpression": 912,
      "OREXPRESSION": 913,
      "ALSE": 914,
      "ĠFALSE": 915,
      "ĠFALSELITERALEXPRESSION": 916,
      "ra": 917,
      "ĠR": 918,
      "ARM": 919,
      "ĠSWITCHEXPRESSIONARM": 920,
      "elect": 921,
      "Vertex": 922,
      "fig": 923,
      "notation": 924,
      "ĠLOGICALOREXPRESSION": 925,
      "ĠFOREACHSTATEMENT": 926,
      "ĠValue": 927,
      "[]": 928,
      "IS": 929,
      "peration": 930,
      "mber": 931,
      "tax": 932,
      "yntax": 933,
      "ecl": 934,
      "gth": 935,
      "ength": 936,
      "Ġfor": 937,
      "ata": 938,
      "Ġof": 939,
      "ĠINTERPOLATEDSTRINGEXPRESSION": 940,
      "Ġentity": 941,
      "ĠAppendLine": 942,
      "pro": 943,
      "cess": 944,
      "ptions": 945,
      "An": 946,
      "duct": 947,
      "ve": 948,
      "CRE": 949,
      "CREMENTEXPRESSION": 950,
      "ync": 951,
      "Context": 952,
      "Collection": 953,
      "tual": 954,
      "ĠCount": 955,
      "irtual": 956,
      "turns": 957,
      "jection": 958,
      "ind": 959,
      "Enumerable": 960,
      "NU": 961,
      "NINGEXPRESSION": 962,
      "PPRESS": 963,
      "WAR": 964,
      "ABLEWAR": 965,
      "LLABLEWAR": 966,
      "ĠSUPPRESS": 967,
      "NULLABLEWAR": 968,
      "ĠSUPPRESSNULLABLEWAR": 969,
      "ĠSUPPRESSNULLABLEWARNINGEXPRESSION": 970,
      "Ġvirtual": 971,
      "pping": 972,
      "reate": 973,
      "Code": 974,
      "Syntax": 975,
      "fied": 976,
      "ĠLESS": 977,
      "Read": 978,
      "try": 979,
      "pa": 980,
      "rom": 981,
      "Id": 982,
      "US": 983,
      "eclar": 984,
      "ĠPro": 985,
      "YM": 986,
      "INCREMENTEXPRESSION": 987,
      "Only": 988,
      "ĠLength": 989,
      ">:": 990,
      "ext": 991,
      "ansl": 992,
      "Ġelement": 993,
      "ĠDECLARATION": 994,
      "ĠDECLARATIONPATTERN": 995,
      "stan": 996,
      "of": 997,
      "TVertex": 998,
      "lo": 999,
      "iz": 1000,
      "ĠLESSTHANEXPRESSION": 1001,
      "Mapping": 1002,
      "li": 1003,
      "Dictionary": 1004,
      "ĠMethod": 1005,
      "Ġnameof": 1006,
      "ĠSUBPATTERN": 1007,
      "Comp": 1008,
      "Ġproperty": 1009,
      "10": 1010,
      "Default": 1011,
      "ReadOnly": 1012,
      "11": 1013,
      "Method": 1014,
      "returns": 1015,
      "age": 1016,
      "ger": 1017,
      "ies": 1018,
      "ĠCreate": 1019,
      "Get": 1020,
      "ple": 1021,
      "ĠTry": 1022,
      "ĠOr": 1023,
      "OWSTATEMENT": 1024,
      "ĠTHROWSTATEMENT": 1025,
      "Annotation": 1026,
      "Operation": 1027,
      "ĠList": 1028,
      "ĠDe": 1029,
      "ATER": 1030,
      "REATER": 1031,
      "ĠGREATER": 1032,
      "ken": 1033,
      "ingType": 1034,
      "move": 1035,
      "ray": 1036,
      "Tr": 1037,
      "cted": 1038,
      "ĠPO": 1039,
      "ys": 1040,
      "QueryExpression": 1041,
      "ĠDictionary": 1042,
      "ystem": 1043,
      "ĠDeclar": 1044,
      "rent": 1045,
      "St": 1046,
      "it": 1047,
      "peci": 1048,
      "ser": 1049,
      "vic": 1050,
      "ĠEqual": 1051,
      "EntityType": 1052,
      "Pa": 1053,
      "Ġif": 1054,
      "Ġpro": 1055,
      "Async": 1056,
      "LSE": 1057,
      "ĠELSE": 1058,
      "ĠELSECLAUSE": 1059,
      "vi": 1060,
      "act": 1061,
      "og": 1062,
      "ĠNot": 1063,
      "EPATTERN": 1064,
      "Options": 1065,
      "tains": 1066,
      ">>": 1067,
      "smo": 1068,
      "ervic": 1069,
      "tected": 1070,
      "protected": 1071,
      "smos": 1072,
      "CUR": 1073,
      "VEPATTERN": 1074,
      "ĠRECUR": 1075,
      "SIVEPATTERN": 1076,
      "ĠRECURSIVEPATTERN": 1077,
      "ĠDECLAR": 1078,
      "Index": 1079,
      "ĠDECLARATIONEXPRESSION": 1080,
      "ALI": 1081,
      "ĠVisit": 1082,
      "Member": 1083,
      "ĠPOST": 1084,
      "TYPATTERN": 1085,
      "ĠPROPERTYPATTERN": 1086,
      "ĠPROPERTYPATTERNCLAUSE": 1087,
      "ĠInv": 1088,
      "us": 1089,
      "Sql": 1090,
      "ug": 1091,
      "SP": 1092,
      "ĠCO": 1093,
      "HE": 1094,
      "Set": 1095,
      "guments": 1096,
      "pdate": 1097,
      "Parameter": 1098,
      "IND": 1099,
      "mm": 1100,
      "IALI": 1101,
      "ZER": 1102,
      "ITIALI": 1103,
      "INITIALI": 1104,
      "ZEREXPRESSION": 1105,
      "INITIALIZEREXPRESSION": 1106,
      "ĠDeclaringType": 1107,
      "TR": 1108,
      "Ġspeci": 1109,
      "Ġ6": 1110,
      "Collections": 1111,
      "ĠSelect": 1112,
      "ask": 1113,
      "urrent": 1114,
      "ACT": 1115,
      "ĠMa": 1116,
      "ĠFORSTATEMENT": 1117,
      "ĠSUBTR": 1118,
      "ĠSUBTRACT": 1119,
      "ile": 1120,
      "Ġ_": 1121,
      "SC": 1122,
      "spa": 1123,
      "alid": 1124,
      "ck": 1125,
      "ition": 1126,
      "ĠAr": 1127,
      "SCE": 1128,
      "12": 1129,
      "ated": 1130,
      "Nullable": 1131,
      "ĠProperty": 1132,
      "ABEL": 1133,
      "ABLETYPE": 1134,
      "ĠNULLABLETYPE": 1135,
      "KeyValue": 1136,
      "aliz": 1137,
      "ĠTHIS": 1138,
      "ĠTHISEXPRESSION": 1139,
      "LABEL": 1140,
      "SWITCH": 1141,
      "SWITCHLABEL": 1142,
      "ĠEquals": 1143,
      "ESCE": 1144,
      "ALESCE": 1145,
      "red": 1146,
      "Token": 1147,
      "ĠCOALESCE": 1148,
      "Ġ.": 1149,
      "Ġspecified": 1150,
      "atab": 1151,
      "BIND": 1152,
      "ccess": 1153,
      "ALACCESSEXPRESSION": 1154,
      "ĠCONDITIONALACCESSEXPRESSION": 1155,
      "BINDINGEXPRESSION": 1156,
      "ĠMEMBER": 1157,
      "ĠAN": 1158,
      "atabase": 1159,
      "ĠMEMBERBINDINGEXPRESSION": 1160,
      "ll": 1161,
      "ĠCH": 1162,
      "rain": 1163,
      "ARAC": 1164,
      "TERLITERALEXPRESSION": 1165,
      "ample": 1166,
      "ĠCHARAC": 1167,
      "ĠCHARACTERLITERALEXPRESSION": 1168,
      "arg": 1169,
      "BJECT": 1170,
      "VARIABLE": 1171,
      "ore": 1172,
      "Ġus": 1173,
      "ĠPOSTINCREMENTEXPRESSION": 1174,
      "KSP": 1175,
      "RAN": 1176,
      "ped": 1177,
      "ECIFIER": 1178,
      "ĠARRAYTYPE": 1179,
      "ĠARRAYRAN": 1180,
      "sert": 1181,
      "KSPECIFIER": 1182,
      "ĠARRAYRANKSPECIFIER": 1183,
      "Data": 1184,
      "ĠUn": 1185,
      "tries": 1186,
      "ĠSUBTRACTEXPRESSION": 1187,
      "Source": 1188,
      "cri": 1189,
      "ĠSt": 1190,
      "dent": 1191,
      "all": 1192,
      "Ġindex": 1193,
      "actory": 1194,
      "OUS": 1195,
      "ONYM": 1196,
      "ĠANONYM": 1197,
      "ĠANONYMOUS": 1198,
      "fer": 1199,
      "arer": 1200,
      "ĠNOTPATTERN": 1201,
      "ĠANONYMOUSO": 1202,
      "mmand": 1203,
      "unc": 1204,
      "ĠentityType": 1205,
      "Projection": 1206,
      "TE": 1207,
      "orm": 1208,
      "stant": 1209,
      "Factory": 1210,
      "Model": 1211,
      "TValue": 1212,
      "art": 1213,
      "ence": 1214,
      "qu": 1215,
      "ven": 1216,
      "Ġobject": 1217,
      "ĠEn": 1218,
      "ess": 1219,
      "Enumerator": 1220,
      "Ġde": 1221,
      "atch": 1222,
      "ĠInvalid": 1223,
      "ĠToString": 1224,
      "ĠOrder": 1225,
      "ĠCOALESCEEXPRESSION": 1226,
      "bContext": 1227,
      "With": 1228,
      "ke": 1229,
      "ties": 1230,
      "Add": 1231,
      "pl": 1232,
      "ĠSystem": 1233,
      "Ġbuilder": 1234,
      "OperationException": 1235,
      "ĠInvalidOperationException": 1236,
      "ĠCASE": 1237,
      "isitor": 1238,
      "Grain": 1239,
      "row": 1240,
      "mory": 1241,
      "ension": 1242,
      "Array": 1243,
      "ĠSql": 1244,
      "Ġconfig": 1245,
      "Pair": 1246,
      "LT": 1247,
      "ect": 1248,
      "Co": 1249,
      "Ġt": 1250,
      "ĠEx": 1251,
      "mpty": 1252,
      "KeyValuePair": 1253,
      "Ġtr": 1254,
      "roperties": 1255,
      "ĠTHROWEXPRESSION": 1256,
      ">?": 1257,
      "uration": 1258,
      "ĠFind": 1259,
      "Ġexpression": 1260,
      "SECTION": 1261,
      "ĠSWITCHSECTION": 1262,
      "fin": 1263,
      "arti": 1264,
      "ers": 1265,
      "ĠIEnumerable": 1266,
      "artition": 1267,
      "semb": 1268,
      "igr": 1269,
      "irst": 1270,
      "ED": 1271,
      "Res": 1272,
      "ĠKey": 1273,
      "ĠRemove": 1274,
      "LECTION": 1275,
      "ĠCOL": 1276,
      "ĠAs": 1277,
      "ĠCosmos": 1278,
      "ervice": 1279,
      "ĠCOLLECTION": 1280,
      "vider": 1281,
      "sembly": 1282,
      "Ġg": 1283,
      "ĠSet": 1284,
      "Ġsource": 1285,
      "ĠIReadOnly": 1286,
      "uble": 1287,
      "ĠProduct": 1288,
      "igration": 1289,
      "arch": 1290,
      "iti": 1291,
      "ĠTask": 1292,
      "ĠLi": 1293,
      "ime": 1294,
      "ther": 1295,
      "ANG": 1296,
      "har": 1297,
      "Ġ7": 1298,
      "Generator": 1299,
      "ĠRANG": 1300,
      "ĠRANGE": 1301,
      "00": 1302,
      "Example": 1303,
      "vert": 1304,
      "ĠTryGet": 1305,
      "vention": 1306,
      "AIT": 1307,
      "ENT": 1308,
      "Sha": 1309,
      "WAIT": 1310,
      "ĠAWAIT": 1311,
      "SyntaxExample": 1312,
      "ĠAWAITEXPRESSION": 1313,
      "14": 1314,
      "ELEMENT": 1315,
      "Equal": 1316,
      "Ġfrom": 1317,
      "EQU": 1318,
      "ance": 1319,
      "OREQU": 1320,
      "THANOREQU": 1321,
      "Transl": 1322,
      "THANOREQUALEXPRESSION": 1323,
      "IEnumerable": 1324,
      "Of": 1325,
      "ZED": 1326,
      "ĠPARENT": 1327,
      "sig": 1328,
      "SIZED": 1329,
      "HESIZED": 1330,
      "ĠPARENTHESIZED": 1331,
      "Un": 1332,
      "PL": 1333,
      "sign": 1334,
      "object": 1335,
      "tainer": 1336,
      "ĠGREATERTHANEXPRESSION": 1337,
      "inal": 1338,
      "Memory": 1339,
      "da": 1340,
      "av": 1341,
      "ĠAn": 1342,
      "teral": 1343,
      "Ġl": 1344,
      "ĠContains": 1345,
      "itializ": 1346,
      "ht": 1347,
      "bda": 1348,
      "ambda": 1349,
      "TypeMapping": 1350,
      "Comparer": 1351,
      "15": 1352,
      "ĠWith": 1353,
      "up": 1354,
      "ector": 1355,
      "ĠFunc": 1356,
      "Ġparameter": 1357,
      "ĠJ": 1358,
      "State": 1359,
      "space": 1360,
      "oin": 1361,
      "ap": 1362,
      "ge": 1363,
      "igation": 1364,
      "finition": 1365,
      "avigation": 1366,
      "KSTATEMENT": 1367,
      "Time": 1368,
      "Ġitem": 1369,
      "13": 1370,
      "DbContext": 1371,
      "MEMBERDECLARATOR": 1372,
      "ign": 1373,
      "BJECTMEMBERDECLARATOR": 1374,
      "pedQueryExpression": 1375,
      "ĠANONYMOUSOBJECTMEMBERDECLARATOR": 1376,
      "ĠGener": 1377,
      "que": 1378,
      "ĠRANGEVARIABLE": 1379,
      "Man": 1380,
      "GenericType": 1381,
      "ari": 1382,
      "lr": 1383,
      "Ġusing": 1384,
      "ĠCOLLECTIONEXPRESSION": 1385,
      "ft": 1386,
      "ĠThrow": 1387,
      "rig": 1388,
      "Ġdouble": 1389,
      "AKSTATEMENT": 1390,
      "REAKSTATEMENT": 1391,
      "im": 1392,
      "ow": 1393,
      "Empty": 1394,
      "ĠEXPRESSION": 1395,
      "Select": 1396,
      "ĠUpdate": 1397,
      "unction": 1398,
      "oc": 1399,
      "oun": 1400,
      "Ġadd": 1401,
      "Ġother": 1402,
      "ingle": 1403,
      "oreign": 1404,
      "ĠLiteral": 1405,
      "ember": 1406,
      "ĠGREATERTHANOREQUALEXPRESSION": 1407,
      "Access": 1408,
      "ĠOR": 1409,
      "lrType": 1410,
      "co": 1411,
      "hCode": 1412,
      "Col": 1413,
      "edDictionary": 1414,
      "Ġmodel": 1415,
      "ĠDefault": 1416,
      "ĠParameter": 1417,
      "ateg": 1418,
      "oreignKey": 1419,
      "ID": 1420,
      "GU": 1421,
      "ARGU": 1422,
      "ĠBREAKSTATEMENT": 1423,
      "tom": 1424,
      "ARGUMENT": 1425,
      "vent": 1426,
      "time": 1427,
      "query": 1428,
      "Definition": 1429,
      "ustom": 1430,
      "Ġ8": 1431,
      "ĠPRE": 1432,
      "Text": 1433,
      "YEXPRESSION": 1434,
      "Product": 1435,
      "ĠMake": 1436,
      "Ro": 1437,
      "ĠDIS": 1438,
      "ĠUN": 1439,
      "CAR": 1440,
      "ĠSha": 1441,
      "ass": 1442,
      "terfa": 1443,
      "ĠDISCAR": 1444,
      "ĠDISCARD": 1445,
      "By": 1446,
      "Se": 1447,
      "ne": 1448,
      "Ġh": 1449,
      "ĠWH": 1450,
      "DefaultValue": 1451,
      "arget": 1452,
      "Object": 1453,
      "tension": 1454,
      "ARYM": 1455,
      "Extension": 1456,
      "mple": 1457,
      "INUS": 1458,
      "ĠUNARYM": 1459,
      "INUSEXPRESSION": 1460,
      "ĠUNARYMINUSEXPRESSION": 1461,
      "entries": 1462,
      "Ġmethod": 1463,
      "bug": 1464,
      "umb": 1465,
      "IReadOnly": 1466,
      "Log": 1467,
      "son": 1468,
      "ise": 1469,
      "Provider": 1470,
      "ĠTransl": 1471,
      "ference": 1472,
      "ified": 1473,
      "enti": 1474,
      "llation": 1475,
      "min": 1476,
      "ĠConvert": 1477,
      "Ġar": 1478,
      "ĠQuery": 1479,
      "ĠGetD": 1480,
      "essage": 1481,
      "wise": 1482,
      "ound": 1483,
      "File": 1484,
      "Visitor": 1485,
      "ĠWh": 1486,
      "StringBuilder": 1487,
      "ĠPREINCREMENTEXPRESSION": 1488,
      "If": 1489,
      "ff": 1490,
      "Arguments": 1491,
      "ĠMethodInfo": 1492,
      "ĠEXPRESSIONELEMENT": 1493,
      "dge": 1494,
      "OrDefault": 1495,
      "Ch": 1496,
      "lu": 1497,
      "ĠDE": 1498,
      "Ġal": 1499,
      "ĠDis": 1500,
      "lient": 1501,
      "ĠDebug": 1502,
      "ĠORPATTERN": 1503,
      "Base": 1504,
      "icate": 1505,
      "ĠConfig": 1506,
      "ĠSqlExpression": 1507,
      "ca": 1508,
      "ĠIReadOnlyList": 1509,
      "ĠPARENTHESIZEDLAMBDAEXPRESSION": 1510,
      "Selector": 1511,
      "upported": 1512,
      "FAU": 1513,
      "action": 1514,
      "inding": 1515,
      "ĠCASESWITCHLABEL": 1516,
      "ĠGenerate": 1517,
      "ĠDEFAU": 1518,
      "ĠDEFAULT": 1519,
      "Update": 1520,
      "ICollection": 1521,
      "urn": 1522,
      "harp": 1523,
      "nection": 1524,
      "Ġthis": 1525,
      "ĠFirst": 1526,
      "ariable": 1527,
      "Sharp": 1528,
      "perExpression": 1529,
      "ĠCommand": 1530,
      "ĠArgument": 1531,
      "ĠArguments": 1532,
      "Ġotherwise": 1533,
      "ie": 1534,
      "ĠTryGetValue": 1535,
      "CH": 1536,
      "Supported": 1537,
      "Config": 1538,
      "Item": 1539,
      "rin": 1540,
      "Ġwas": 1541,
      "ĠARRAYINITIALIZEREXPRESSION": 1542,
      "Ġcontext": 1543,
      "ĠEntry": 1544,
      "Table": 1545,
      "ror": 1546,
      "roup": 1547,
      "ĠGetType": 1548,
      "rement": 1549,
      "rim": 1550,
      "ĠHasDefaultValue": 1551,
      "ĠTranslate": 1552,
      "ILE": 1553,
      "MIT": 1554,
      "ymb": 1555,
      "DTYPEARGUMENT": 1556,
      "ĠOMIT": 1557,
      "Ġex": 1558,
      "stance": 1559,
      "TEDTYPEARGUMENT": 1560,
      "ĠWHILE": 1561,
      "ymbol": 1562,
      "ĠOMITTEDTYPEARGUMENT": 1563,
      "ĠWHILESTATEMENT": 1564,
      "ATCH": 1565,
      "ĠCATCH": 1566,
      "roug": 1567,
      "ĠLambda": 1568,
      "Entry": 1569,
      "llationToken": 1570,
      "rough": 1571,
      "ight": 1572,
      "Assert": 1573,
      "NullableType": 1574,
      "ĠDebugAssert": 1575,
      "Ġse": 1576,
      "ĠConstant": 1577,
      "cription": 1578,
      "ĠSh": 1579,
      "ream": 1580,
      "ansaction": 1581,
      "Ġdefault": 1582,
      "play": 1583,
      "Ġconfiguration": 1584,
      "Properties": 1585,
      "Ġnode": 1586,
      "ession": 1587,
      "[]:": 1588,
      "itialized": 1589,
      "ove": 1590,
      "Indent": 1591,
      "Interfa": 1592,
      "version": 1593,
      "econ": 1594,
      "UPLE": 1595,
      "alse": 1596,
      "ĠTUPLE": 1597,
      "el": 1598,
      "ormat": 1599,
      "Count": 1600,
      "cal": 1601,
      "DataAnnotation": 1602,
      "artitionKey": 1603,
      "aps": 1604,
      "ader": 1605,
      "ere": 1606,
      "ether": 1607,
      "Assign": 1608,
      "ĠState": 1609,
      "Root": 1610,
      "ner": 1611,
      "crimin": 1612,
      "criminator": 1613,
      "Dis": 1614,
      "CREATIONEXPRESSION": 1615,
      "ForeignKey": 1616,
      "Param": 1617,
      "OptionsBuilder": 1618,
      "ĠString": 1619,
      "ĠClrType": 1620,
      "Ġcurrent": 1621,
      "ĠIndent": 1622,
      "ĠRead": 1623,
      "ĠMethodSyntaxExample": 1624,
      "entifi": 1625,
      "Ġannotation": 1626,
      "est": 1627,
      "Ġasync": 1628,
      "ĠConfigure": 1629,
      "tore": 1630,
      "old": 1631,
      "Element": 1632,
      "ier": 1633,
      "CodeGenerator": 1634,
      "pla": 1635,
      "Result": 1636,
      "At": 1637,
      "From": 1638,
      "dinal": 1639,
      "uid": 1640,
      "17": 1641,
      "ierarch": 1642,
      "NCLAUSE": 1643,
      "po": 1644,
      "ĠH": 1645,
      "ute": 1646,
      "ĠWHE": 1647,
      "igger": 1648,
      "Ġwhether": 1649,
      "ervices": 1650,
      "spaces": 1651,
      "Many": 1652,
      "ĠWHENCLAUSE": 1653,
      ">.": 1654,
      "Call": 1655,
      "ip": 1656,
      "Ġ9": 1657,
      "Order": 1658,
      "con": 1659,
      "ĠThrowIf": 1660,
      "Service": 1661,
      "ost": 1662,
      "erver": 1663,
      "ĠIsNull": 1664,
      "ĠARRAYCREATIONEXPRESSION": 1665,
      "Parameters": 1666,
      "lear": 1667,
      "Ġtrigger": 1668,
      "roughput": 1669,
      "?:": 1670,
      "Ret": 1671,
      "ĠToList": 1672,
      "entifier": 1673,
      "<>": 1674,
      "uccess": 1675,
      "Ġoptions": 1676,
      "rap": 1677,
      "ĠDISCARDPATTERN": 1678,
      "Not": 1679,
      "untime": 1680,
      "Binding": 1681,
      "DASSIGNMENTEXPRESSION": 1682,
      "count": 1683,
      "hSet": 1684,
      "ExpressionVisitor": 1685,
      "Constant": 1686,
      "quire": 1687,
      "Ġconfigure": 1688,
      "Navigation": 1689,
      "ite": 1690,
      "20": 1691,
      "System": 1692,
      "Ġ10": 1693,
      "eri": 1694,
      "playName": 1695,
      "MPL": 1696,
      "Ġlo": 1697,
      "ren": 1698,
      "ĠLog": 1699,
      "PATTERNSWITCHLABEL": 1700,
      "ulture": 1701,
      "Path": 1702,
      "quence": 1703,
      "ĠCASEPATTERNSWITCHLABEL": 1704,
      "quired": 1705,
      "Option": 1706,
      "rror": 1707,
      "Ġdatabase": 1708,
      "ĠADDASSIGNMENTEXPRESSION": 1709,
      "place": 1710,
      "16": 1711,
      "om": 1712,
      "ĠEns": 1713,
      "order": 1714,
      "Than": 1715,
      "Argument": 1716,
      "ĠLambdaExpression": 1717,
      "ĠEnsure": 1718,
      "onvention": 1719,
      "IConvention": 1720,
      "escription": 1721,
      "aryExpression": 1722,
      "ĠTryAdd": 1723,
      "ASE": 1724,
      "dictionary": 1725,
      "ib": 1726,
      "ĠBASE": 1727,
      "ĠFrom": 1728,
      "abled": 1729,
      "umerator": 1730,
      "cessor": 1731,
      "ĠfromDataAnnotation": 1732,
      "ategory": 1733,
      "caff": 1734,
      "ĠBASEEXPRESSION": 1735,
      "Names": 1736,
      "Symbol": 1737,
      "ULT": 1738,
      "oad": 1739,
      "pend": 1740,
      "Ġun": 1741,
      "Ġentry": 1742,
      "ULTI": 1743,
      "UN": 1744,
      "ach": 1745,
      "ble": 1746,
      "rag": 1747,
      "Ġoperation": 1748,
      "ĠMULTI": 1749,
      "Cons": 1750,
      "eck": 1751,
      "GenericMethod": 1752,
      "ĠNotSupported": 1753,
      "Equality": 1754,
      "ragment": 1755,
      "ĠMULTIPL": 1756,
      "ĠNotSupportedException": 1757,
      "pon": 1758,
      "ĠId": 1759,
      "ĠClear": 1760,
      "Ġvisitor": 1761,
      "ĠOBJECT": 1762,
      "Required": 1763,
      "atedExpression": 1764,
      "ĠOBJECTINITIALIZEREXPRESSION": 1765,
      "TIN": 1766,
      "uage": 1767,
      "value": 1768,
      "ĠNAMEEQUALS": 1769,
      "Ġnumb": 1770,
      "ĠEntityType": 1771,
      "anguage": 1772,
      "Ġfound": 1773,
      "ĠWhere": 1774,
      "UNCTION": 1775,
      "ĠMULTIPLYEXPRESSION": 1776,
      "Pl": 1777,
      "pper": 1778,
      "etad": 1779,
      "ĠComp": 1780,
      "cope": 1781,
      "Logger": 1782,
      "etadata": 1783,
      "18": 1784,
      "IELD": 1785,
      "ĠUse": 1786,
      "ĠYIELD": 1787,
      "Assembly": 1788,
      "ĠHashSet": 1789,
      "ĠShapedQueryExpression": 1790,
      "ĠIsNullOr": 1791,
      "Database": 1792,
      "Ġj": 1793,
      "Ġarg": 1794,
      "Ġdata": 1795,
      "Ġuint": 1796,
      "Ġproduct": 1797,
      "ĠNotTransl": 1798,
      "Ġused": 1799,
      "ĠAny": 1800,
      "rementIndent": 1801,
      "ĠHasDefaultValueSql": 1802,
      "Returns": 1803,
      "ĠNotTranslatedExpression": 1804,
      "iag": 1805,
      "Remove": 1806,
      "ĠModel": 1807,
      "Ġcontains": 1808,
      "One": 1809,
      "ĠStart": 1810,
      "ĠStringBuilder": 1811,
      "ierarchy": 1812,
      "iagno": 1813,
      "Date": 1814,
      "lass": 1815,
      "stic": 1816,
      "Ġset": 1817,
      "ast": 1818,
      "ill": 1819,
      "umn": 1820,
      "hain": 1821,
      "Transaction": 1822,
      "ield": 1823,
      "iagnostic": 1824,
      "Variable": 1825,
      "uf": 1826,
      "HashCode": 1827,
      "redicate": 1828,
      "essionToken": 1829,
      "Next": 1830,
      "ared": 1831,
      "one": 1832,
      "ange": 1833,
      "rigger": 1834,
      "ĠQuerySyntaxExample": 1835,
      "Initialized": 1836,
      "Reference": 1837,
      "ĠProjection": 1838,
      "MethodInfo": 1839,
      "itional": 1840,
      "ĠTUPLEEXPRESSION": 1841,
      "19": 1842,
      "23": 1843,
      "Batch": 1844,
      "ĠOn": 1845,
      "ĠThis": 1846,
      "ize": 1847,
      "ĠANONYMOUSOBJECTCREATIONEXPRESSION": 1848,
      "quest": 1849,
      "RO": 1850,
      "yc": 1851,
      "ĠCurrent": 1852,
      "ilation": 1853,
      "Convention": 1854,
      "ĠIsS": 1855,
      "ĠIndex": 1856,
      "ĠentityTypeBuilder": 1857,
      "Fi": 1858,
      "Out": 1859,
      "ccount": 1860,
      "pol": 1861,
      "led": 1862,
      "Ġcall": 1863,
      "Types": 1864,
      "ĠObject": 1865,
      "Ġentries": 1866,
      "ĠOrdinal": 1867,
      "cket": 1868,
      "ShaperExpression": 1869,
      "ancellationToken": 1870,
      "caffold": 1871,
      "Client": 1872,
      "Group": 1873,
      "gno": 1874,
      "wrap": 1875,
      "yte": 1876,
      "UESTATEMENT": 1877,
      "Ġinstance": 1878,
      "Ġreturns": 1879,
      "ĠCONTIN": 1880,
      "ĠMember": 1881,
      "ullText": 1882,
      "MemberInfo": 1883,
      "ProjectionExpression": 1884,
      "ĠDEFAULTLITERALEXPRESSION": 1885,
      "ĠCONTINUESTATEMENT": 1886,
      "Det": 1887,
      "Function": 1888,
      "Json": 1889,
      "ucket": 1890,
      "Ġcontainer": 1891,
      "ĠOrders": 1892,
      "ĠAssembly": 1893,
      "econds": 1894,
      "Event": 1895,
      "TSource": 1896,
      "ĠIMPL": 1897,
      "ĠTParam": 1898,
      "ical": 1899,
      "ICIT": 1900,
      "perand": 1901,
      "ĠMod": 1902,
      "Map": 1903,
      "ĠOrderedDictionary": 1904,
      "ShapedQueryExpression": 1905,
      "ĠJoin": 1906,
      "DbContextOptionsBuilder": 1907,
      "Ġarray": 1908,
      "orderedDictionary": 1909,
      "ĠIMPLICIT": 1910,
      "RETURNSTATEMENT": 1911,
      "ural": 1912,
      "ody": 1913,
      "ments": 1914,
      "ĠHasForeignKey": 1915,
      "Command": 1916,
      "ĠYIELDRETURNSTATEMENT": 1917,
      "FUNCTION": 1918,
      "Runtime": 1919,
      "man": 1920,
      "par": 1921,
      "ĠLOCALFUNCTION": 1922,
      "InMemory": 1923,
      "ĠUnwrap": 1924,
      "Color": 1925,
      "Ġargs": 1926,
      "ĠLOCALFUNCTIONSTATEMENT": 1927,
      "Range": 1928,
      "Task": 1929,
      "ARAMETER": 1930,
      "ĠMove": 1931,
      "Ġmember": 1932,
      "tructural": 1933,
      "ĠHasOne": 1934,
      "ormation": 1935,
      "Ġtarget": 1936,
      "clu": 1937,
      "pal": 1938,
      "trib": 1939,
      "cipal": 1940,
      "rincipal": 1941,
      "rimary": 1942,
      "ĠEnsureInitialized": 1943,
      "TEntity": 1944,
      "ma": 1945,
      "sql": 1946,
      "ĠCol": 1947,
      "ĠGetP": 1948,
      "Ġpartition": 1949,
      "istance": 1950,
      "ĠstringBuilder": 1951,
      "Ġenumerator": 1952,
      "eclared": 1953,
      "Fragment": 1954,
      "ĠQU": 1955,
      "xture": 1956,
      "Ġma": 1957,
      "SqlExpression": 1958,
      "ĠDisplayName": 1959,
      "EqualityComparer": 1960,
      "ponse": 1961,
      "ĠQUER": 1962,
      "CSharp": 1963,
      "Error": 1964,
      "Join": 1965,
      "Single": 1966,
      "Ġcount": 1967,
      "ĠGetEnumerator": 1968,
      "mpl": 1969,
      ">>.": 1970,
      "Cosmos": 1971,
      "Ġhas": 1972,
      "ycle": 1973,
      "Description": 1974,
      "por": 1975,
      "ĠSe": 1976,
      "Ġinner": 1977,
      "ĠFormat": 1978,
      "Exec": 1979,
      "ĠGetHashCode": 1980,
      "ĠMain": 1981,
      "Ġconfigured": 1982,
      "porter": 1983,
      "Ġro": 1984,
      "ĠNext": 1985,
      "orage": 1986,
      "urationSource": 1987,
      "ĠWithMany": 1988,
      "urnType": 1989,
      "21": 1990,
      "Culture": 1991,
      "Migration": 1992,
      "mat": 1993,
      "ater": 1994,
      "ROM": 1995,
      "Load": 1996,
      "Ġquery": 1997,
      "ĠProperties": 1998,
      "rede": 1999,
      "ĠVector": 2000,
      "ĠFROM": 2001,
      "ulti": 2002,
      "ĠMetadata": 2003,
      "ĠSWITCHSTATEMENT": 2004,
      "OptionsExtension": 2005,
      "ĠContainsKey": 2006,
      "parator": 2007,
      "ĠFROMCLAUSE": 2008,
      "App": 2009,
      "Func": 2010,
      "city": 2011,
      "hot": 2012,
      "naps": 2013,
      "ree": 2014,
      "lex": 2015,
      "ĠAction": 2016,
      "edStringBuilder": 2017,
      "Ġfull": 2018,
      "ĠMigration": 2019,
      "Ġmessage": 2020,
      "isting": 2021,
      "Namespace": 2022,
      "mbine": 2023,
      "ĠRes": 2024,
      "CodeFragment": 2025,
      "Annotations": 2026,
      "ĠCommandOption": 2027,
      "iagnostics": 2028,
      "polog": 2029,
      "napshot": 2030,
      "Dir": 2031,
      "Declar": 2032,
      "IList": 2033,
      "current": 2034,
      "so": 2035,
      "Ġx": 2036,
      "reater": 2037,
      "ĠCategory": 2038,
      "Ġvector": 2039,
      "table": 2040,
      "fix": 2041,
      "GenericTypeDefinition": 2042,
      "ĠGetDeclared": 2043,
      "All": 2044,
      "PARAMETER": 2045,
      "Services": 2046,
      "YSTATEMENT": 2047,
      "ĠStructural": 2048,
      "tive": 2049,
      "ĠTVertex": 2050,
      "ative": 2051,
      "ĠTYPEPARAMETER": 2052,
      "ĠTRYSTATEMENT": 2053,
      "Ġelements": 2054,
      "uffer": 2055,
      "Fixture": 2056,
      "redecessor": 2057,
      "For": 2058,
      "Hel": 2059,
      "Li": 2060,
      "ton": 2061,
      "ild": 2062,
      "ĠNamespace": 2063,
      "Ġformat": 2064,
      "Ġgener": 2065,
      "Interfaces": 2066,
      "24": 2067,
      "Hierarchy": 2068,
      "imple": 2069,
      "xy": 2070,
      "ĠCustom": 2071,
      "ĠNew": 2072,
      "ĠCombine": 2073,
      "Reader": 2074,
      "ĠArgumentException": 2075,
      "ĠIndentedStringBuilder": 2076,
      "rimaryKey": 2077,
      "Declaration": 2078,
      "reaterThan": 2079,
      "Length": 2080,
      "Node": 2081,
      "bool": 2082,
      "ĠSingle": 2083,
      "Ġco": 2084,
      "ĠMin": 2085,
      "Enabled": 2086,
      "ĠInMemory": 2087,
      "hange": 2088,
      "ĠIReadOnlyDictionary": 2089,
      "ning": 2090,
      "read": 2091,
      "entity": 2092,
      "utable": 2093,
      "ress": 2094,
      "ODU": 2095,
      "riter": 2096,
      "Ġdictionary": 2097,
      "Ġfirst": 2098,
      "Ġfalse": 2099,
      "Ġpa": 2100,
      "Container": 2101,
      "ĠIsNullableType": 2102,
      "Ġcomparer": 2103,
      "Max": 2104,
      "low": 2105,
      "EntityTypeBuilder": 2106,
      "ĠExec": 2107,
      "ĠProducts": 2108,
      "AccessExpression": 2109,
      "luent": 2110,
      "ĠCATCHCLAUSE": 2111,
      "ĠIsNullOrEmpty": 2112,
      "ELE": 2113,
      "Hand": 2114,
      "Sp": 2115,
      "SIGN": 2116,
      "DESIGN": 2117,
      "Ġ100": 2118,
      "ĠBase": 2119,
      "ĠDbContext": 2120,
      "Ġbeing": 2121,
      "Depend": 2122,
      "rapper": 2123,
      "Gets": 2124,
      "IReadOnlyList": 2125,
      "DESIGNATION": 2126,
      "Buffer": 2127,
      "Custom": 2128,
      "LO": 2129,
      "Server": 2130,
      "ĠSELE": 2131,
      "ĠCan": 2132,
      "mplement": 2133,
      "ĠMODU": 2134,
      "ayer": 2135,
      "ĠIsRequired": 2136,
      "CTCLAUSE": 2137,
      "Column": 2138,
      "uckets": 2139,
      "ĠModified": 2140,
      "ĠMoveNext": 2141,
      "ĠQUERYEXPRESSION": 2142,
      "LOEXPRESSION": 2143,
      "ĠSELECTCLAUSE": 2144,
      "mplemented": 2145,
      "ĠMODULOEXPRESSION": 2146,
      "Edge": 2147,
      "ĠQ": 2148,
      "ĠIEnumerator": 2149,
      "DECREMENTEXPRESSION": 2150,
      "tices": 2151,
      "ĠOperand": 2152,
      "ĠGetValue": 2153,
      "ĠDate": 2154,
      "Ġparam": 2155,
      "ĠToTable": 2156,
      "projection": 2157,
      "And": 2158,
      "pacity": 2159,
      "TEdge": 2160,
      "ElementType": 2161,
      "gnore": 2162,
      "eft": 2163,
      "ARPATTERN": 2164,
      "arning": 2165,
      "ĠVARPATTERN": 2166,
      "Connection": 2167,
      "ĠInc": 2168,
      "irectory": 2169,
      "ĠToArray": 2170,
      "ĠparameterName": 2171,
      "ocation": 2172,
      "22": 2173,
      "comp": 2174,
      "ĠQueryExpression": 2175,
      "ark": 2176,
      "ales": 2177,
      "ĠOption": 2178,
      "ExpressionSyntax": 2179,
      "ĠGetS": 2180,
      "ĠApply": 2181,
      "Information": 2182,
      "ocument": 2183,
      "calar": 2184,
      "Case": 2185,
      "Guid": 2186,
      "pi": 2187,
      "ĠIf": 2188,
      "index": 2189,
      "ully": 2190,
      "Ġmigration": 2191,
      "havi": 2192,
      "Stream": 2193,
      "Accessor": 2194,
      "ĠModifiedDate": 2195,
      "havior": 2196,
      "Action": 2197,
      "OBJECTCREATIONEXPRESSION": 2198,
      "Pre": 2199,
      "Sh": 2200,
      "cy": 2201,
      "Ġle": 2202,
      "ĠEmpty": 2203,
      "Ġvalues": 2204,
      "VARIABLEDESIGNATION": 2205,
      "ĠPARENTHESIZEDVARIABLEDESIGNATION": 2206,
      "ĠCATCHDECLARATION": 2207,
      "ĠIMPLICITOBJECTCREATIONEXPRESSION": 2208,
      "ĠBaseType": 2209,
      ">,": 2210,
      "Char": 2211,
      "New": 2212,
      "Trigger": 2213,
      "bo": 2214,
      "Ġmo": 2215,
      "ĠSub": 2216,
      "reach": 2217,
      "arse": 2218,
      "ased": 2219,
      "iscriminator": 2220,
      "Ġpass": 2221,
      "tructor": 2222,
      "ĠReplace": 2223,
      "ĠMax": 2224,
      "ĠParameters": 2225,
      "Check": 2226,
      "Configures": 2227,
      "ĠGetTypeInfo": 2228,
      "Interface": 2229,
      "ConstantExpression": 2230,
      "ĠIndexOf": 2231,
      "ĠUnwrapNullableType": 2232,
      "ĠDateTime": 2233,
      "reachable": 2234,
      "Sub": 2235,
      "gis": 2236,
      "os": 2237,
      "ĠNo": 2238,
      "top": 2239,
      "ĠGetName": 2240,
      "idate": 2241,
      "andidate": 2242,
      "PropertyName": 2243,
      "ĠRet": 2244,
      "ĠProcess": 2245,
      "ĠFirstOrDefault": 2246,
      "erializ": 2247,
      "Bin": 2248,
      "Prin": 2249,
      "pt": 2250,
      "predecessor": 2251,
      "ero": 2252,
      "Ġcapacity": 2253,
      "iled": 2254,
      "Ġlanguage": 2255,
      "ĠIdentifier": 2256,
      "bj": 2257,
      "lation": 2258,
      "ĠTarget": 2259,
      "ValueType": 2260,
      "Files": 2261,
      "FOR": 2262,
      "IST": 2263,
      "MAT": 2264,
      "SING": 2265,
      "wn": 2266,
      "Ġcol": 2267,
      "ates": 2268,
      "ĠDec": 2269,
      "verter": 2270,
      "ĠUSING": 2271,
      "ĠINTERPOLATIONFOR": 2272,
      "lias": 2273,
      "Sequence": 2274,
      "Attrib": 2275,
      "BindingExpression": 2276,
      "Ġproducts": 2277,
      "hained": 2278,
      "Singleton": 2279,
      "MATCLAUSE": 2280,
      "ĠUSINGSTATEMENT": 2281,
      "ĠINTERPOLATIONFORMATCLAUSE": 2282,
      "Game": 2283,
      "Writer": 2284,
      "Warning": 2285,
      "lag": 2286,
      "oint": 2287,
      "sWith": 2288,
      "Ġli": 2289,
      "Ġsuccess": 2290,
      "ice": 2291,
      "ĠGetGeneric": 2292,
      "ists": 2293,
      "End": 2294,
      "ĠIsNullable": 2295,
      "ĠContext": 2296,
      "Arg": 2297,
      "ĠExample": 2298,
      "Discriminator": 2299,
      "ĠStructuralType": 2300,
      "Api": 2301,
      "Create": 2302,
      "SEXPRESSION": 2303,
      "ded": 2304,
      "dicate": 2305,
      "ion": 2306,
      "xies": 2307,
      "Ġz": 2308,
      "iness": 2309,
      "ĠASEXPRESSION": 2310,
      "Ġnull": 2311,
      "Ref": 2312,
      "usiness": 2313,
      "ProjectionMember": 2314,
      "Ġtrue": 2315,
      "ĠAssert": 2316,
      "right": 2317,
      "cale": 2318,
      "Ġnumber": 2319,
      "Detail": 2320,
      "ildren": 2321,
      "usinessEntity": 2322,
      "Pr": 2323,
      "py": 2324,
      "Ġat": 2325,
      "Ġrow": 2326,
      "ensi": 2327,
      "ĠCSharp": 2328,
      "ĠNode": 2329,
      "ĠGetGrain": 2330,
      "Ġobj": 2331,
      "ĠEntityProjectionExpression": 2332,
      "ĠIndicate": 2333,
      "ĠUnit": 2334,
      "Ġsearch": 2335,
      "Ġnodes": 2336,
      "Assignment": 2337,
      "Ġroot": 2338,
      "Helper": 2339,
      "Ġleft": 2340,
      "ĠGetGenericArguments": 2341,
      "ĠIndicates": 2342,
      "?>": 2343,
      "?>>": 2344,
      "Sort": 2345,
      "uple": 2346,
      "Ġout": 2347,
      "Ġselect": 2348,
      "ant": 2349,
      "alled": 2350,
      "ĠGetMethod": 2351,
      "Values": 2352,
      "Contains": 2353,
      "Storage": 2354,
      "apped": 2355,
      "ConfigurationSource": 2356,
      "Assignable": 2357,
      "point": 2358,
      "Application": 2359,
      "Span": 2360,
      "Ġsuccessf": 2361,
      "Cycle": 2362,
      "GreaterThan": 2363,
      "Message": 2364,
      "Size": 2365,
      "kip": 2366,
      "oke": 2367,
      "Ġ\"": 2368,
      "ong": 2369,
      "ĠBusinessEntity": 2370,
      "ĠGetParameters": 2371,
      "ĠComple": 2372,
      "ĠDatabase": 2373,
      "Ġfunction": 2374,
      "ticModel": 2375,
      "uild": 2376,
      "ĠIsAssignable": 2377,
      "ĠISEXPRESSION": 2378,
      "Ġcance": 2379,
      "ĠvalueFactory": 2380,
      "ĠNamespaces": 2381,
      "lock": 2382,
      "ĠPOSTDECREMENTEXPRESSION": 2383,
      "Sets": 2384,
      "ĠSelectExpression": 2385,
      "Without": 2386,
      "Ġtransl": 2387,
      "ĠThrowIfGreaterThan": 2388,
      "manticModel": 2389,
      "luentApi": 2390,
      "Printer": 2391,
      "ĠNodeType": 2392,
      "Ġsuccessfully": 2393,
      "IProperty": 2394,
      "Te": 2395,
      "Test": 2396,
      "Wh": 2397,
      "ique": 2398,
      "property": 2399,
      "Ġ(": 2400,
      "Ġmove": 2401,
      "Ġright": 2402,
      "Ġvisit": 2403,
      "ĠLeft": 2404,
      "rime": 2405,
      "ĠGetGenericTypeDefinition": 2406,
      "ager": 2407,
      "ĠDEFAULTSWITCHLABEL": 2408,
      "ĠoptionsBuilder": 2409,
      "ĠIncrementIndent": 2410,
      "Ġpassed": 2411,
      "BU": 2412,
      "Document": 2413,
      "Flag": 2414,
      "Mode": 2415,
      "Per": 2416,
      "TRI": 2417,
      "ait": 2418,
      "hip": 2419,
      "set": 2420,
      "Ġr": 2421,
      "ĠAT": 2422,
      "ĠSyntax": 2423,
      "ings": 2424,
      "tract": 2425,
      "Ġret": 2426,
      "Ġpredicate": 2427,
      "GetEnumerator": 2428,
      "context": 2429,
      "Ġcalls": 2430,
      "bose": 2431,
      "TRIBU": 2432,
      "ĠATTRIBU": 2433,
      "Ptr": 2434,
      "Tra": 2435,
      "Ġend": 2436,
      "ĠTKey": 2437,
      "Ġbyte": 2438,
      "derly": 2439,
      "Request": 2440,
      "ĠAppendJoin": 2441,
      "verse": 2442,
      "Generated": 2443,
      "Version": 2444,
      "Compilation": 2445,
      "Ġparameters": 2446,
      "iagnosticsLogger": 2447,
      "Class": 2448,
      "are": 2449,
      "gate": 2450,
      "gger": 2451,
      "success": 2452,
      "ĠItem": 2453,
      "ĠBody": 2454,
      "perator": 2455,
      "lob": 2456,
      "Ġprojection": 2457,
      "erviceCollection": 2458,
      "ĠProductName": 2459,
      "UpdateEntry": 2460,
      "ĠReturnType": 2461,
      "ensitive": 2462,
      "ĠIsAssignableFrom": 2463,
      "ĠcancellationToken": 2464,
      "Fa": 2465,
      "FullText": 2466,
      "Move": 2467,
      "Numb": 2468,
      "ack": 2469,
      "ĠPrincipal": 2470,
      "Ġstore": 2471,
      "ĠText": 2472,
      "Ġchained": 2473,
      "trateg": 2474,
      "tack": 2475,
      "Ġoption": 2476,
      "OrEqual": 2477,
      "ĠUnreachable": 2478,
      "ĠMakeGenericMethod": 2479,
      "EventData": 2480,
      "ready": 2481,
      "gister": 2482,
      "Details": 2483,
      "trategy": 2484,
      "ĠUnreachableException": 2485,
      "Is": 2486,
      "Lin": 2487,
      "Lambda": 2488,
      "No": 2489,
      "fe": 2490,
      "ĠParse": 2491,
      "reation": 2492,
      "ĠCancellationToken": 2493,
      "ingEntityType": 2494,
      "ous": 2495,
      "Ġne": 2496,
      "Ġnext": 2497,
      "Ġref": 2498,
      "Reporter": 2499,
      "ualified": 2500,
      "orted": 2501,
      "Ġorig": 2502,
      "che": 2503,
      "ĠRight": 2504,
      "AnnotationCodeGenerator": 2505,
      "ParameterExpression": 2506,
      "ĠFindMapping": 2507,
      "ultiple": 2508,
      "Price": 2509,
      ":_": 2510,
      "Implemented": 2511,
      "Vector": 2512,
      "Wor": 2513,
      "ak": 2514,
      "az": 2515,
      "ave": 2516,
      "buckets": 2517,
      "based": 2518,
      "laps": 2519,
      "name": 2520,
      "Ġte": 2521,
      "ACE": 2522,
      "ĠPre": 2523,
      "ĠVariable": 2524,
      "Ġservices": 2525,
      "ĠNAMESP": 2526,
      "ĠContainer": 2527,
      "Identifier": 2528,
      "queue": 2529,
      "Ġadded": 2530,
      "ĠShaperExpression": 2531,
      "Ġalready": 2532,
      "Ġexisting": 2533,
      "econd": 2534,
      "icalSort": 2535,
      "pologicalSort": 2536,
      "ĠExecute": 2537,
      "Ġzero": 2538,
      "successor": 2539,
      "lapsed": 2540,
      "ĠNAMESPACE": 2541,
      "Strategy": 2542,
      "fic": 2543,
      "iven": 2544,
      "op": 2545,
      "sIn": 2546,
      "ted": 2547,
      "Ġtime": 2548,
      "ĠIConvention": 2549,
      "ĠICSharp": 2550,
      "Ġch": 2551,
      "Ġthroughput": 2552,
      "Remov": 2553,
      "Enum": 2554,
      "ĠInitializ": 2555,
      "Verbose": 2556,
      "ĠHasValue": 2557,
      "Ġprod": 2558,
      "Manager": 2559,
      "ocal": 2560,
      "ĠWhen": 2561,
      "Ġnumbers": 2562,
      "Variables": 2563,
      "ĠColor": 2564,
      "ĠDecrementIndent": 2565,
      "Ġoriginal": 2566,
      "Account": 2567,
      "FTYPE": 2568,
      "Field": 2569,
      "Store": 2570,
      "cti": 2571,
      "ditional": 2572,
      "eader": 2573,
      "iew": 2574,
      "Ġoutput": 2575,
      "alBatch": 2576,
      "ĠBIT": 2577,
      "ĠREFEXPRESSION": 2578,
      "ĠREFTYPE": 2579,
      "ending": 2580,
      "Ġpre": 2581,
      "igh": 2582,
      "ĠCoreTypeMapping": 2583,
      "WISE": 2584,
      "Ġconnection": 2585,
      "ĠNotNull": 2586,
      "ĠCOLLECTIONINITIALIZEREXPRESSION": 2587,
      "ĠMakeNullable": 2588,
      "Search": 2589,
      "ĠShort": 2590,
      "mplate": 2591,
      "ĠCanSet": 2592,
      "ĠBITWISE": 2593,
      "'s": 2594,
      "Tuple": 2595,
      "afe": 2596,
      "ĠZ": 2597,
      "ĠScope": 2598,
      "ĠPr": 2599,
      "Ġ11": 2600,
      "ĠCollection": 2601,
      "Ġwill": 2602,
      "oll": 2603,
      "urren": 2604,
      "ĠIsGenericType": 2605,
      "aged": 2606,
      "ĠHashCode": 2607,
      "Complex": 2608,
      "Ġprovider": 2609,
      "ĠOrderBy": 2610,
      "Response": 2611,
      "Ġgiven": 2612,
      "Ġlist": 2613,
      "IReadOnlyDictionary": 2614,
      "ĠShould": 2615,
      "gnoreCase": 2616,
      "azy": 2617,
      "urrency": 2618,
      "Be": 2619,
      "False": 2620,
      "tent": 2621,
      "ved": 2622,
      "Ġscope": 2623,
      "Ġcl": 2624,
      "ĠOperation": 2625,
      "Replace": 2626,
      "odo": 2627,
      "Ġstart": 2628,
      "Ġtypes": 2629,
      "ĠNotImplemented": 2630,
      "ugin": 2631,
      "ĠJson": 2632,
      "ĠDispo": 2633,
      "artitionKeyProperty": 2634,
      "CallExpression": 2635,
      "clude": 2636,
      "ĠMigrations": 2637,
      "luentApiCodeFragment": 2638,
      "ĠNotImplementedException": 2639,
      "ĠDispose": 2640,
      "Core": 2641,
      "Host": 2642,
      "Snapshot": 2643,
      "ouble": 2644,
      "inct": 2645,
      "Ġvari": 2646,
      "istinct": 2647,
      "Ġasso": 2648,
      "Throughput": 2649,
      "ciated": 2650,
      "Ġget": 2651,
      "ĠCompare": 2652,
      "Ġmod": 2653,
      "ĠATTRIBUTE": 2654,
      "Track": 2655,
      "Ġassociated": 2656,
      "Cart": 2657,
      "Format": 2658,
      "dic": 2659,
      "watch": 2660,
      "Ġcollection": 2661,
      "ĠFluentApiCodeFragment": 2662,
      "Ġwor": 2663,
      "ĠGetUn": 2664,
      "ĠDele": 2665,
      "Insert": 2666,
      "ĠIsP": 2667,
      "ĠWriteVerbose": 2668,
      "Ġstate": 2669,
      "Queryable": 2670,
      "OrUpdate": 2671,
      "ĠFOREACHVARIABLE": 2672,
      "ĠRun": 2673,
      "prod": 2674,
      "True": 2675,
      "ĠDeclaringEntityType": 2676,
      "ĠInvoke": 2677,
      "ĠCOALESCEASSIGNMENTEXPRESSION": 2678,
      "ĠStream": 2679,
      "Ġtmp": 2680,
      "signTime": 2681,
      "Ġseparator": 2682,
      "omGrain": 2683,
      "essionTokenStorage": 2684,
      "impleMember": 2685,
      "lational": 2686,
      "ĠPrint": 2687,
      "Ġvariable": 2688,
      "Ġmodified": 2689,
      "ĠFOREACHVARIABLESTATEMENT": 2690,
      "?,": 2691,
      "Alias": 2692,
      "Que": 2693,
      "Write": 2694,
      "bor": 2695,
      "cat": 2696,
      "ced": 2697,
      "dv": 2698,
      "ges": 2699,
      "gion": 2700,
      "ĠID": 2701,
      "Ġsql": 2702,
      "Ġver": 2703,
      "Ġnavigation": 2704,
      "ilter": 2705,
      "ĠtoIndex": 2706,
      "abel": 2707,
      "Ġmapped": 2708,
      "LineApplication": 2709,
      "ĠIsUn": 2710,
      "adow": 2711,
      "PropertyInfo": 2712,
      "ĠLESSTHANOREQUALEXPRESSION": 2713,
      "ĠfromIndex": 2714,
      "Translator": 2715,
      "ariant": 2716,
      "Ġarguments": 2717,
      "illis": 2718,
      "ReferenceExpression": 2719,
      "ĠInMemoryQueryExpression": 2720,
      "Args": 2721,
      "pyTo": 2722,
      "ighbor": 2723,
      "dvan": 2724,
      "ClrType": 2725,
      "Framework": 2726,
      "IgnoreCase": 2727,
      "Min": 2728,
      "Sensitive": 2729,
      "client": 2730,
      "osi": 2731,
      "structor": 2732,
      "tt": 2733,
      "Ġ13": 2734,
      "uted": 2735,
      "ĠFor": 2736,
      "Init": 2737,
      "word": 2738,
      "ullName": 2739,
      "nsafe": 2740,
      "utionStrategy": 2741,
      "Proxies": 2742,
      "ĠReference": 2743,
      "ĠtypeMapping": 2744,
      "load": 2745,
      "Statement": 2746,
      "imension": 2747,
      "ĠOrdinalIgnoreCase": 2748,
      "caffolded": 2749,
      "BinaryExpression": 2750,
      "SequenceType": 2751,
      "White": 2752,
      "chema": 2753,
      "nsafeAccessor": 2754,
      "ITH": 2755,
      "IDictionary": 2756,
      "fy": 2757,
      "sing": 2758,
      "vir": 2759,
      "ĠKeyValuePair": 2760,
      "onment": 2761,
      "ĠCall": 2762,
      "utes": 2763,
      "Ġindic": 2764,
      "cept": 2765,
      "Ġdistance": 2766,
      "ĠWITH": 2767,
      "Address": 2768,
      "ĠStatements": 2769,
      "NotSupported": 2770,
      "ĠFromResult": 2771,
      "ĠProjectionMember": 2772,
      "ĠProjectionBindingExpression": 2773,
      "HierarchyId": 2774,
      "Ġcommand": 2775,
      "projectionMapping": 2776,
      "topwatch": 2777,
      "Endpoint": 2778,
      "Ġouter": 2779,
      "ualifiedName": 2780,
      "vironment": 2781,
      "Ġindicating": 2782,
      "IV": 2783,
      "IDE": 2784,
      "Kind": 2785,
      "Ne": 2786,
      "We": 2787,
      "ALPATTERN": 2788,
      "ĠSales": 2789,
      "Ġsecond": 2790,
      "ĠTest": 2791,
      "ĠFunction": 2792,
      "ĠDB": 2793,
      "ĠDIV": 2794,
      "Ġproperties": 2795,
      "Convert": 2796,
      "mbed": 2797,
      "und": 2798,
      "OrRemove": 2799,
      "rainFactory": 2800,
      "erviceProvider": 2801,
      "ĠSetOrRemove": 2802,
      "Translate": 2803,
      "fted": 2804,
      "ĠMakeGenericType": 2805,
      "ĠThrowIfNull": 2806,
      "ĠTryAddSingleton": 2807,
      "Player": 2808,
      "Lines": 2809,
      "ĠIDiagnosticsLogger": 2810,
      "imensions": 2811,
      "IDEEXPRESSION": 2812,
      "ĠDIVIDEEXPRESSION": 2813,
      "ĠSetOrRemoveAnnotation": 2814,
      "Own": 2815,
      "Tree": 2816,
      "Wrapper": 2817,
      "port": 2818,
      "way": 2819,
      "ĠLIST": 2820,
      "Ġby": 2821,
      "ĠGetF": 2822,
      "tical": 2823,
      "ĠHasKey": 2824,
      "ToLi": 2825,
      "ĠEnqueue": 2826,
      "TimeToLi": 2827,
      "Ġadditional": 2828,
      "RuntimeAnnotationCodeGenerator": 2829,
      "illiseconds": 2830,
      "SensitiveData": 2831,
      "ĠLISTPATTERN": 2832,
      "TimeToLive": 2833,
      "25": 2834,
      "Aw": 2835,
      "Predicate": 2836,
      "Spa": 2837,
      "Tag": 2838,
      "Valid": 2839,
      "line": 2840,
      "ĠX": 2841,
      "ĠIOperation": 2842,
      "ontext": 2843,
      "utos": 2844,
      "Ġsorted": 2845,
      "ĠTrim": 2846,
      "TContext": 2847,
      "ExpressionFactory": 2848,
      "ĠCom": 2849,
      "ĠData": 2850,
      "ĠDark": 2851,
      "Contain": 2852,
      "ĠIsGenericMethod": 2853,
      "Ġassembly": 2854,
      "ĠTypeMapping": 2855,
      "Start": 2856,
      "Ġproject": 2857,
      "ĠSUBTRACTASSIGNMENTEXPRESSION": 2858,
      "essThan": 2859,
      "ĠExists": 2860,
      "ership": 2861,
      "Separator": 2862,
      "ĠLogInformation": 2863,
      "ĠGetValueOrDefault": 2864,
      "ĠGetNamespaces": 2865,
      "Removes": 2866,
      "Replacements": 2867,
      "Tracking": 2868,
      "utoscale": 2869,
      "Called": 2870,
      "Db": 2871,
      "Directory": 2872,
      "INTER": 2873,
      "ax": 2874,
      "eo": 2875,
      "zure": 2876,
      "Ġ,": 2877,
      "entation": 2878,
      "ĠNone": 2879,
      "ĠAll": 2880,
      "ĠGetProperties": 2881,
      "Ġfile": 2882,
      "KeySelector": 2883,
      "memory": 2884,
      "irection": 2885,
      "lied": 2886,
      "WithSelector": 2887,
      "fined": 2888,
      "Ġallow": 2889,
      "Ġannotations": 2890,
      "Navigations": 2891,
      "ĠEntityTypeBuilder": 2892,
      "Loading": 2893,
      "ĠDbContextOptionsBuilder": 2894,
      "Dependen": 2895,
      "Dependent": 2896,
      "CompilationContext": 2897,
      "azyLoading": 2898,
      "ĠDelete": 2899,
      "Current": 2900,
      "CancellationToken": 2901,
      "Hub": 2902,
      "IEntityType": 2903,
      "PrimaryKey": 2904,
      "TParam": 2905,
      "ĠServer": 2906,
      "initialized": 2907,
      "ĠPl": 2908,
      "Ġ12": 2909,
      "Ġ19": 2910,
      "tim": 2911,
      "ĠElapsed": 2912,
      "Ġtoken": 2913,
      "Ġmultiple": 2914,
      "vertices": 2915,
      "ĠConcat": 2916,
      "Ġenabled": 2917,
      "Ġremove": 2918,
      "ĠTopologicalSort": 2919,
      "Compil": 2920,
      ">>>,": 2921,
      "Children": 2922,
      "ĠMemberInfo": 2923,
      "ĠformatCycle": 2924,
      "ĠCustomer": 2925,
      "Ġ1000": 2926,
      "ĠUnitPrice": 2927,
      "ĠThrowIfGreaterThanOrEqual": 2928,
      "FullTextSearch": 2929,
      "Behavior": 2930,
      "WhiteSpa": 2931,
      "WhiteSpace": 2932,
      "Aot": 2933,
      "Chang": 2934,
      "Tc": 2935,
      "ias": 2936,
      "item": 2937,
      "ote": 2938,
      "Ġet": 2939,
      "ĠIProperty": 2940,
      "error": 2941,
      "reak": 2942,
      "ĠEvent": 2943,
      "ĠChain": 2944,
      "icode": 2945,
      "ĠGroup": 2946,
      "Expressions": 2947,
      "umns": 2948,
      "ĠWriteWarning": 2949,
      "Proxy": 2950,
      "ĠValueGenerated": 2951,
      "ĠVisitChildren": 2952,
      "SqlServer": 2953,
      "ower": 2954,
      "ĠParameterExpression": 2955,
      "Byte": 2956,
      "ential": 2957,
      "ĠcontextType": 2958,
      "ĠShow": 2959,
      "Constr": 2960,
      "ĠStartsWith": 2961,
      "TransactionalBatch": 2962,
      "ativeAot": 2963,
      "Ġgeneric": 2964,
      "ĠQualifiedName": 2965,
      "Checked": 2966,
      "ĠIsNullableValueType": 2967,
      "ĠStructuralTypeShaperExpression": 2968,
      "ĠComplex": 2969,
      "ĠInitialize": 2970,
      "ditionalExpression": 2971,
      "ĠATTRIBUTEARGUMENT": 2972,
      "mbedded": 2973,
      "Al": 2974,
      "Bo": 2975,
      "Cred": 2976,
      "Distance": 2977,
      "LATION": 2978,
      "PartitionKey": 2979,
      "Su": 2980,
      "ee": 2981,
      "ler": 2982,
      "mit": 2983,
      "ĠIList": 2984,
      "ons": 2985,
      "aris": 2986,
      "ĠCh": 2987,
      "ĠNe": 2988,
      "ĠTrigger": 2989,
      "ĠLight": 2990,
      "TypeSymbol": 2991,
      "ĠRELATION": 2992,
      "Ġdiscriminator": 2993,
      "Inv": 2994,
      "igit": 2995,
      "Converter": 2996,
      "metry": 2997,
      "Environment": 2998,
      "ĠpropertyBuilder": 2999,
      "ush": 3000,
      "ĠPropertyInfo": 3001,
      "Adds": 3002,
      "ĠRANGEEXPRESSION": 3003,
      "OfRange": 3004,
      "ĠJObject": 3005,
      "RoomGrain": 3006,
      "ĠArgumentOut": 3007,
      "managed": 3008,
      "Subquery": 3009,
      "ĠBusinessEntityID": 3010,
      "Ġtranslated": 3011,
      "derlyingType": 3012,
      "ftedState": 3013,
      "ĠRELATIONALPATTERN": 3014,
      "OfRangeException": 3015,
      "ĠArgumentOutOfRangeException": 3016,
      "Body": 3017,
      "Candidate": 3018,
      "Light": 3019,
      "Non": 3020,
      "cul": 3021,
      "form": 3022,
      "gro": 3023,
      "mentation": 3024,
      "ĠExt": 3025,
      "ĠBuild": 3026,
      "ĠTime": 3027,
      "ĠAzure": 3028,
      "sive": 3029,
      "Ġ20": 3030,
      "ĠField": 3031,
      "Ġbet": 3032,
      "esc": 3033,
      "ĠAppendLines": 3034,
      "Ġbehavior": 3035,
      "ĠAddRange": 3036,
      "naly": 3037,
      "IndexOf": 3038,
      "TElement": 3039,
      "riginal": 3040,
      "DisplayName": 3041,
      "Ġloc": 3042,
      "Attributes": 3043,
      "AssignmentExpression": 3044,
      "Flags": 3045,
      "ĠShortDisplayName": 3046,
      "ĠScopeVariables": 3047,
      "Tcp": 3048,
      "ground": 3049,
      "ĠExtension": 3050,
      "?>:": 3051,
      "Ed": 3052,
      "Lim": 3053,
      "Milliseconds": 3054,
      "Pie": 3055,
      "cod": 3056,
      "nect": 3057,
      "scription": 3058,
      "ĠIEntityType": 3059,
      "IMutable": 3060,
      "ĠPartitionKey": 3061,
      "ĠError": 3062,
      "ard": 3063,
      "Ġseconds": 3064,
      "ĠLast": 3065,
      "ĠOptions": 3066,
      "Ġaccount": 3067,
      "ĠDistinct": 3068,
      "ĠIsArray": 3069,
      "tructed": 3070,
      "Ġorder": 3071,
      "cision": 3072,
      "ĠInvariant": 3073,
      "ĠKeys": 3074,
      "ĠGeneric": 3075,
      "imax": 3076,
      "ĠEXPRESSIONCOLON": 3077,
      "FileName": 3078,
      "Constructed": 3079,
      "Plugin": 3080,
      "ĠIsNullOrWhiteSpace": 3081,
      "ĠIsStatic": 3082,
      "ĠNewLine": 3083,
      "Ġpair": 3084,
      "ways": 3085,
      "eometry": 3086,
      "TcpConnection": 3087,
      "Limit": 3088,
      "coding": 3089,
      "Language": 3090,
      "TProperty": 3091,
      "aint": 3092,
      "ex": 3093,
      "patch": 3094,
      "ySu": 3095,
      "Ġ)": 3096,
      "ĠInt": 3097,
      "ĠSum": 3098,
      "ĠElement": 3099,
      "ingExpression": 3100,
      "ĠinMemory": 3101,
      "ĠLoad": 3102,
      "etTo": 3103,
      "ĠFullText": 3104,
      "ĠGetService": 3105,
      "ĠDescription": 3106,
      "ĠMessage": 3107,
      "ĠThroughput": 3108,
      "verage": 3109,
      "ĠIsConstructed": 3110,
      "Ġcontain": 3111,
      "ContextBase": 3112,
      "ĠpropertyInfo": 3113,
      "ĠPOINTER": 3114,
      "pecific": 3115,
      "OptionsAction": 3116,
      "Sqlite": 3117,
      "qui": 3118,
      "ĠAnd": 3119,
      "TypeMappingSource": 3120,
      "ĠmodelBuilder": 3121,
      "ĠSequence": 3122,
      "pologySu": 3123,
      "DeclarationSyntax": 3124,
      "ĠSingleOrDefault": 3125,
      "entityType": 3126,
      "ĠIOperationReporter": 3127,
      "groundColor": 3128,
      "ĠInvariantCulture": 3129,
      "etTopologySu": 3130,
      "ĠIsConstructedGenericType": 3131,
      "etTopologySuite": 3132,
      "26": 3133,
      "Nam": 3134,
      "Run": 3135,
      "SessionToken": 3136,
      "View": 3137,
      "ake": 3138,
      "cing": 3139,
      "code": 3140,
      "lay": 3141,
      "ting": 3142,
      "ves": 3143,
      "wit": 3144,
      "ĠStore": 3145,
      "ĠPa": 3146,
      "reporter": 3147,
      "ĠBind": 3148,
      "ich": 3149,
      "Ġcreation": 3150,
      "Ġinsert": 3151,
      "eds": 3152,
      "teger": 3153,
      "tern": 3154,
      "ĠGetAnnotations": 3155,
      "Relational": 3156,
      "Ġid": 3157,
      "otal": 3158,
      "Entries": 3159,
      "ĠInsert": 3160,
      "ĠInstance": 3161,
      "Generates": 3162,
      "ĠISet": 3163,
      "Ġwhich": 3164,
      "ages": 3165,
      "Project": 3166,
      "ĠToken": 3167,
      "ĠTransaction": 3168,
      "ĠValueBuffer": 3169,
      "Ġproxy": 3170,
      "ĠSelectMany": 3171,
      "ArrayExpression": 3172,
      "Com": 3173,
      "UnaryExpression": 3174,
      "ĠTUPLEELEMENT": 3175,
      "ĠConfigureAw": 3176,
      "Ġlogger": 3177,
      "Ġjoin": 3178,
      "clusive": 3179,
      "Ġmain": 3180,
      "erializer": 3181,
      "ĠTargetName": 3182,
      "Attribute": 3183,
      "ĠShouldLog": 3184,
      "Credential": 3185,
      "Ġlocate": 3186,
      "ĠIntPtr": 3187,
      "witch": 3188,
      "ĠConfigureAwait": 3189,
      "32": 3190,
      "Break": 3191,
      "Use": 3192,
      "change": 3193,
      "guid": 3194,
      "ts": 3195,
      "ust": 3196,
      "val": 3197,
      "ĠICollection": 3198,
      "ĠSp": 3199,
      "ĠScalar": 3200,
      "aral": 3201,
      "atus": 3202,
      "lel": 3203,
      "Ġcycle": 3204,
      "ĠFullName": 3205,
      "Exchange": 3206,
      "tock": 3207,
      "Ġrepres": 3208,
      "ĠGetMember": 3209,
      "ĠGetConfigurationSource": 3210,
      "Keyword": 3211,
      "Ġpl": 3212,
      "irper": 3213,
      "ĠnewSize": 3214,
      "QueryContext": 3215,
      "DesignTime": 3216,
      "Vertices": 3217,
      "ĠProvider": 3218,
      "ĠCreateContext": 3219,
      "SqlQuery": 3220,
      "mmutable": 3221,
      "Ġdefinition": 3222,
      "CopyTo": 3223,
      "ĠexpressionPrinter": 3224,
      "Timeout": 3225,
      "AccessReplacements": 3226,
      "ĠParameterType": 3227,
      "ĠFirstOr": 3228,
      "IndentField": 3229,
      "erived": 3230,
      "IConventionEntityType": 3231,
      "Ġuninitialized": 3232,
      "ĠOrdersFixture": 3233,
      "ĠarrayIndex": 3234,
      "ĠSemanticModel": 3235,
      "ĠformatException": 3236,
      "ĠCustomers": 3237,
      "Handle": 3238,
      "Customer": 3239,
      "predecessorMap": 3240,
      "Ġnullable": 3241,
      "Ġrowguid": 3242,
      "Ġreturn": 3243,
      "Number": 3244,
      "Ġoptional": 3245,
      "Work": 3246,
      "ĠVariables": 3247,
      "successorMap": 3248,
      "ĠICSharpHelper": 3249,
      "ĠCompareExchange": 3250,
      "Ġwords": 3251,
      "Ownership": 3252,
      "arison": 3253,
      "Edges": 3254,
      "arallel": 3255,
      "ĠOrdersFixtureBase": 3256,
      "<(": 3257,
      "Cach": 3258,
      "Desc": 3259,
      "ECLAUSE": 3260,
      "Mo": 3261,
      "byte": 3262,
      "currency": 3263,
      "gg": 3264,
      "Ġall": 3265,
      "ERECLAUSE": 3266,
      "inder": 3267,
      "ories": 3268,
      "ĠBinding": 3269,
      "Ġcustom": 3270,
      "asure": 3271,
      "siz": 3272,
      "ĠOriginal": 3273,
      "olve": 3274,
      "ExpressionPrinter": 3275,
      "ĠGetElementType": 3276,
      "Integer": 3277,
      "atingExpressionVisitor": 3278,
      "char": 3279,
      "ĠToDictionary": 3280,
      "ĠRegister": 3281,
      "cies": 3282,
      "Projections": 3283,
      "ĠFindAnnotation": 3284,
      "erson": 3285,
      "Shaper": 3286,
      "ProductDetails": 3287,
      "ĠWHERECLAUSE": 3288,
      "cade": 3289,
      "CommandLineApplication": 3290,
      "Ġmax": 3291,
      "ExecutionStrategy": 3292,
      "Template": 3293,
      "lobal": 3294,
      "Ġclone": 3295,
      "Changes": 3296,
      "onster": 3297,
      "ĠTimeSpan": 3298,
      "ĠSequenceEqual": 3299,
      ">>:": 3300,
      "Immutable": 3301,
      "NetTopologySuite": 3302,
      "mous": 3303,
      "ok": 3304,
      "write": 3305,
      "ymous": 3306,
      "Ġerror": 3307,
      "onymous": 3308,
      "Ġ16": 3309,
      "reated": 3310,
      "Ġservice": 3311,
      "result": 3312,
      "TypeArguments": 3313,
      "ĠGuid": 3314,
      "Ġdimensions": 3315,
      "ĠGetRequired": 3316,
      "ĠGetAll": 3317,
      "Ġembedded": 3318,
      "uraliz": 3319,
      "Content": 3320,
      "ueries": 3321,
      "Ġforce": 3322,
      "Reset": 3323,
      "TranslatingExpressionVisitor": 3324,
      "Products": 3325,
      "terface": 3326,
      "Ġalias": 3327,
      "ierarchical": 3328,
      "pendent": 3329,
      "ultip": 3330,
      "ĠfullName": 3331,
      "ReaderWriter": 3332,
      "Ġlive": 3333,
      "ĠServerQueryExpression": 3334,
      "Compiler": 3335,
      "ĠComplexType": 3336,
      "Impl": 3337,
      "Local": 3338,
      "Stock": 3339,
      "class": 3340,
      "dition": 3341,
      "dvent": 3342,
      "has": 3343,
      "ole": 3344,
      "specific": 3345,
      "we": 3346,
      "EXELEMENT": 3347,
      "ĠIGrain": 3348,
      "ĠSymbol": 3349,
      "ĠSnapshot": 3350,
      "ĠStack": 3351,
      "ĠSave": 3352,
      "Ġ14": 3353,
      "Ġ15": 3354,
      "ĠBlock": 3355,
      "lete": 3356,
      "Ġcandidate": 3357,
      "ish": 3358,
      "Existing": 3359,
      "Ġare": 3360,
      "Ġact": 3361,
      "Ġaction": 3362,
      "ĠGetDefaultValue": 3363,
      "Instance": 3364,
      "ĠunsafeAccessor": 3365,
      "Region": 3366,
      "ĠIsValueType": 3367,
      "EntityFramework": 3368,
      "ĠExpressionSyntax": 3369,
      "product": 3370,
      "ĠCOMPL": 3371,
      "ĠArray": 3372,
      "oregroundColor": 3373,
      "ĠToStringWith": 3374,
      "ĠFindPrimaryKey": 3375,
      "ĠCosmosOptionsExtension": 3376,
      "imer": 3377,
      "EmptyElement": 3378,
      "ĠUpdateShaperExpression": 3379,
      "mplementation": 3380,
      "ĠConvertTo": 3381,
      "ĠGetDiscriminator": 3382,
      "ĠConfigurationSource": 3383,
      "nectionString": 3384,
      "IConventionEntityTypeBuilder": 3385,
      "Batching": 3386,
      "Output": 3387,
      "Groups": 3388,
      "tribute": 3389,
      "ĠQu": 3390,
      "Shadow": 3391,
      "Failed": 3392,
      "eaders": 3393,
      "artitionKeyPropertyNames": 3394,
      "ĠGetUnderlyingType": 3395,
      "clientProjections": 3396,
      "Dependencies": 3397,
      "ĠGenericTypeArguments": 3398,
      "Descending": 3399,
      "dventure": 3400,
      "EXELEMENTINITIALIZEREXPRESSION": 3401,
      "ĠCOMPLEXELEMENTINITIALIZEREXPRESSION": 3402,
      "ĠToStringWithCulture": 3403,
      "EmptyElements": 3404,
      "28": 3405,
      "IUpdateEntry": 3406,
      "Le": 3407,
      "Point": 3408,
      "Poll": 3409,
      "Todo": 3410,
      "bser": 3411,
      "database": 3412,
      "double": 3413,
      "fType": 3414,
      "fset": 3415,
      "know": 3416,
      "ermin": 3417,
      "ĠCl": 3418,
      "Ġsum": 3419,
      "ĠAdventure": 3420,
      "ĠFilter": 3421,
      "ilo": 3422,
      "ĠOfType": 3423,
      "Ġbatch": 3424,
      "ĠGetInterfaces": 3425,
      "ended": 3426,
      "ConditionalExpression": 3427,
      "ĠIsOn": 3428,
      "ĠIsValid": 3429,
      "Ġdoes": 3430,
      "Ġstream": 3431,
      "Ġapplied": 3432,
      "ĠHasNo": 3433,
      "raw": 3434,
      "[]?:": 3435,
      "vel": 3436,
      "ĠMethodCallExpression": 3437,
      "ĠCreateFixture": 3438,
      "ĠNotEqual": 3439,
      "ĠTryGetElementType": 3440,
      "Ġalways": 3441,
      "ĠConstantExpression": 3442,
      "ĠHierarchy": 3443,
      "ĠHeaders": 3444,
      "Constructor": 3445,
      "FunctionExpression": 3446,
      "InMemoryTable": 3447,
      "Literal": 3448,
      "Prefix": 3449,
      "ĠCSharpRuntimeAnnotationCodeGenerator": 3450,
      "ĠreturnType": 3451,
      "peratorType": 3452,
      "Facade": 3453,
      "Box": 3454,
      "ĠmainBuilder": 3455,
      "Ġrepresent": 3456,
      "known": 3457,
      "ĠHierarchyId": 3458,
      "ĠCSharpRuntimeAnnotationCodeGeneratorParameters": 3459,
      "ADE": 3460,
      "Changed": 3461,
      "EADE": 3462,
      "IEnumerator": 3463,
      "Location": 3464,
      "Label": 3465,
      "ift": 3466,
      "ps": 3467,
      "sPer": 3468,
      "vey": 3469,
      "ĠKind": 3470,
      "PREADE": 3471,
      "ĠIDictionary": 3472,
      "ĠSession": 3473,
      "ĠSPREADE": 3474,
      "regate": 3475,
      "ĠNull": 3476,
      "Ġthrough": 3477,
      "Ġindent": 3478,
      "ĠLocal": 3479,
      "ubclass": 3480,
      "ĠForeignKey": 3481,
      "Ġautoscale": 3482,
      "ĠGetDefault": 3483,
      "ĠGetMax": 3484,
      "ĠGetCustom": 3485,
      "ĠDi": 3486,
      "Ġup": 3487,
      "ValueBuffer": 3488,
      "urvey": 3489,
      "ĠIsGenericTypeDefinition": 3490,
      "Ġresponse": 3491,
      "Ġsha": 3492,
      "Ġappended": 3493,
      "Defined": 3494,
      "Ġnamespace": 3495,
      "OnWrite": 3496,
      "Ordinal": 3497,
      "PropertyBuilder": 3498,
      "notationCodeGenerator": 3499,
      "[],": 3500,
      "IServiceCollection": 3501,
      "logger": 3502,
      "MethodCall": 3503,
      "Getter": 3504,
      "Setter": 3505,
      "Ġ_,": 3506,
      "feren": 3507,
      "ĠEnumerator": 3508,
      "ĠToStringHelper": 3509,
      "artitionKeyValue": 3510,
      "ĠAssign": 3511,
      "ĠTryGetSequenceType": 3512,
      "itializer": 3513,
      "Ġhierarchical": 3514,
      "ĠConvertChecked": 3515,
      "uffix": 3516,
      "ĠIsSubclass": 3517,
      "gnored": 3518,
      "Determin": 3519,
      "ĠpartitionKeyValue": 3520,
      "Ġmapping": 3521,
      "Nodes": 3522,
      "Ġcosmos": 3523,
      "ĠSubtract": 3524,
      "Ġselector": 3525,
      "RequestOptions": 3526,
      "Numbers": 3527,
      "ResponseOnWrite": 3528,
      "ĠOperationException": 3529,
      "Queue": 3530,
      "ĠIsUnique": 3531,
      "Cache": 3532,
      "Moves": 3533,
      "ggregate": 3534,
      "ĠGetRequiredService": 3535,
      "ĠSPREADELEMENT": 3536,
      "ĠIsSubclassOf": 3537,
      "Determines": 3538,
      "29": 3539,
      "But": 3540,
      "Bound": 3541,
      "Eval": 3542,
      "Ignored": 3543,
      "LazyLoading": 3544,
      "Metadata": 3545,
      "Seconds": 3546,
      "TF": 3547,
      "Target": 3548,
      "if": 3549,
      "not": 3550,
      "opping": 3551,
      "parameter": 3552,
      "stion": 3553,
      "Ġtable": 3554,
      "ĠImplemented": 3555,
      "ĠPost": 3556,
      "ĠPoint": 3557,
      "ĠPee": 3558,
      "Ġsto": 3559,
      "Ġsingle": 3560,
      "ĠTotal": 3561,
      "sist": 3562,
      "edge": 3563,
      "ĠFalse": 3564,
      "ilable": 3565,
      "ĠOff": 3566,
      "ĠGrainFactory": 3567,
      "older": 3568,
      "Ġread": 3569,
      "ĠGetOr": 3570,
      "ĠGetCurrent": 3571,
      "Int": 3572,
      "Inter": 3573,
      "ability": 3574,
      "Ġiter": 3575,
      "ĠMultip": 3576,
      "Ġwithin": 3577,
      "andom": 3578,
      "state": 3579,
      "ĠWriteInformation": 3580,
      "Ġconstructor": 3581,
      "ĠValueTask": 3582,
      "ModelBuilder": 3583,
      "essages": 3584,
      "Ġgame": 3585,
      "000": 3586,
      "Ġargument": 3587,
      "Ġexist": 3588,
      "DataAnnotations": 3589,
      "artitionKeyProperties": 3590,
      "ĠcurrentIndentField": 3591,
      "ĠannotationCodeGenerator": 3592,
      "ĠdatabaseName": 3593,
      "ĠOrdersContextBase": 3594,
      "ĠmemberAccessReplacements": 3595,
      "ĠMinimax": 3596,
      "hangeTracking": 3597,
      "Ġparent": 3598,
      "Handler": 3599,
      "ĠGetSimpleMember": 3600,
      "ĠIfFalse": 3601,
      "erialize": 3602,
      "Binary": 3603,
      "ĠCompleted": 3604,
      "ĠContainerId": 3605,
      "Ġcheck": 3606,
      "ĠprodGroup": 3607,
      "ĠBITWISEOREXPRESSION": 3608,
      "ĠGroupBy": 3609,
      "Constraint": 3610,
      "oppingCart": 3611,
      "ĠImplementedInterfaces": 3612,
      "ĠPeek": 3613,
      "ĠMultiply": 3614,
      "ĠGetSimpleMemberName": 3615,
      ",]": 3616,
      "27": 3617,
      "Advan": 3618,
      "Analy": 3619,
      "Bucket": 3620,
      "Creation": 3621,
      "LessThan": 3622,
      "NativeAot": 3623,
      "Prime": 3624,
      "Tri": 3625,
      "Upper": 3626,
      "YCLAUSE": 3627,
      "[,]": 3628,
      "bl": 3629,
      "bs": 3630,
      "ctive": 3631,
      "ĠILogger": 3632,
      "ĠScaffold": 3633,
      "ĠSimpleMember": 3634,
      "ĠEdge": 3635,
      "atable": 3636,
      "ingNe": 3637,
      "ĠAt": 3638,
      "edType": 3639,
      "ĠLocation": 3640,
      "sionCount": 3641,
      "ĠForegroundColor": 3642,
      "Ġwrapper": 3643,
      "Ġadvan": 3644,
      "ĠGetGenericMethod": 3645,
      "ĠGetContainer": 3646,
      "InKey": 3647,
      "InHierarchy": 3648,
      "ValueGenerator": 3649,
      "ValueReaderWriter": 3650,
      "istory": 3651,
      "ĠIsCollection": 3652,
      "Ġwhile": 3653,
      "ĠnewNodes": 3654,
      "Ġcompilable": 3655,
      "Ġstorage": 3656,
      "Ġconnect": 3657,
      "ĠTrue": 3658,
      "ourceId": 3659,
      "ĠValues": 3660,
      "lisionCount": 3661,
      "Comparison": 3662,
      "vide": 3663,
      "ĠNotEmpty": 3664,
      "ĠFindExtension": 3665,
      "ĠProductID": 3666,
      "ĠLimit": 3667,
      "com": 3668,
      "ĠTranslation": 3669,
      "ĠentryIndex": 3670,
      "Ġjson": 3671,
      "ĠCurrentParameter": 3672,
      "ĠentityTypeBuilderName": 3673,
      "ledBy": 3674,
      "ClientWrapper": 3675,
      "sqlBuilder": 3676,
      "Executed": 3677,
      "Migrations": 3678,
      "ColumnType": 3679,
      "compilation": 3680,
      "ĠApplyTypeMapping": 3681,
      "Ġmore": 3682,
      "ĠMaxValue": 3683,
      "ĠcollisionCount": 3684,
      "Ġtemp": 3685,
      "ĠBITWISEANDEXPRESSION": 3686,
      "Ġvertex": 3687,
      "osition": 3688,
      "ĠForNativeAot": 3689,
      "ĠSalesOrder": 3690,
      "ĠGetPropertiesInHierarchy": 3691,
      "hashCode": 3692,
      "ĠIGrainFactory": 3693,
      "bserver": 3694,
      "Boundary": 3695,
      "Ġiterates": 3696,
      "Advances": 3697,
      "ĠSimpleMemberAccessExpression": 3698,
      "ingNeighbor": 3699,
      "Ġadvanced": 3700,
      "DER": 3701,
      "FT": 3702,
      "History": 3703,
      "Lo": 3704,
      "Match": 3705,
      "Principal": 3706,
      "QL": 3707,
      "Skip": 3708,
      "ding": 3709,
      "ftable": 3710,
      "num": 3711,
      "sed": 3712,
      "wo": 3713,
      "Ġtext": 3714,
      "Ġold": 3715,
      "ĠIPer": 3716,
      "ĠSkip": 3717,
      "IModel": 3718,
      "ĠEF": 3719,
      "ĠVer": 3720,
      "ender": 3721,
      "thod": 3722,
      "antity": 3723,
      "alcul": 3724,
      "ĠAl": 3725,
      "Ġcateg": 3726,
      "Ġclass": 3727,
      "pute": 3728,
      "ĠOperatorType": 3729,
      "entState": 3730,
      "Ġrequest": 3731,
      "Include": 3732,
      "ValueComparer": 3733,
      "ableContent": 3734,
      "Concurrency": 3735,
      "method": 3736,
      "ĠIsC": 3737,
      "ĠInter": 3738,
      "Generation": 3739,
      "ĠUTF": 3740,
      "Infrastructure": 3741,
      "QueryCompilationContext": 3742,
      "Ġextension": 3743,
      "Measure": 3744,
      "ĠExpressions": 3745,
      "ĠValueComparer": 3746,
      "SyntaxNode": 3747,
      "ReadItem": 3748,
      "MethodTranslatingExpressionVisitor": 3749,
      "Operations": 3750,
      "ĠDelay": 3751,
      "ĠVisitExtension": 3752,
      "Members": 3753,
      "ĠException": 3754,
      "Ġexpressions": 3755,
      "ĠCosmosDbContextOptionsBuilder": 3756,
      "ancellation": 3757,
      "imation": 3758,
      "IReadOnlyEntityType": 3759,
      "ServiceProvider": 3760,
      "raph": 3761,
      "erial": 3762,
      "JsonPropertyName": 3763,
      "EventDefinition": 3764,
      "lexProperty": 3765,
      "HandledBy": 3766,
      "ĠIfTrue": 3767,
      "Chars": 3768,
      "Triggers": 3769,
      "WithoutPredicate": 3770,
      "derlying": 3771,
      "ctiv": 3772,
      "ĠIsPublic": 3773,
      "prodGroup": 3774,
      "ĠWITHEXPRESSION": 3775,
      "ĠWITHINITIALIZEREXPRESSION": 3776,
      "Containing": 3777,
      "Bytes": 3778,
      "Also": 3779,
      "ĠAndAlso": 3780,
      "iloAddress": 3781,
      "sistentState": 3782,
      "ĠIPersistentState": 3783,
      "Ġcategories": 3784,
      "ableContentResponseOnWrite": 3785,
      "30": 3786,
      "First": 3787,
      "Header": 3788,
      "SON": 3789,
      "Scaffold": 3790,
      "Timer": 3791,
      "crement": 3792,
      "fter": 3793,
      "mary": 3794,
      "pand": 3795,
      "pClient": 3796,
      "tf": 3797,
      "tbl": 3798,
      "Ġq": 3799,
      "ĠScaffolded": 3800,
      "ĠSQL": 3801,
      "ĠETag": 3802,
      "Ġsb": 3803,
      "ingExpressionVisitor": 3804,
      "ĠAlias": 3805,
      "Ġcor": 3806,
      "respon": 3807,
      "Ġnum": 3808,
      "ĠGreaterThan": 3809,
      "Inclusive": 3810,
      "ĠforeignKey": 3811,
      "Eng": 3812,
      "ĠIsDocument": 3813,
      "ityId": 3814,
      "ĠContain": 3815,
      "ullPath": 3816,
      "Ġsubquery": 3817,
      "Process": 3818,
      "Ġnames": 3819,
      "Ġnamespaces": 3820,
      "qlExpressionFactory": 3821,
      "ĠToJson": 3822,
      "ĠRequest": 3823,
      "ĠProject": 3824,
      "arge": 3825,
      "ĠUnaryExpression": 3826,
      "atching": 3827,
      "ĠExcept": 3828,
      "ĠRemoveAt": 3829,
      "ĠSetMethod": 3830,
      "Translation": 3831,
      "Ġlambda": 3832,
      "ĠJSON": 3833,
      "ows": 3834,
      "Objects": 3835,
      "ĠGetDirectory": 3836,
      "Chirper": 3837,
      "Charge": 3838,
      "Ġsequence": 3839,
      "ĠCompile": 3840,
      "ĠStartNew": 3841,
      "ĠmemberInfo": 3842,
      "ĠColumns": 3843,
      "LoadContext": 3844,
      "ĠReset": 3845,
      "Shift": 3846,
      "ĠPrincipalEntityType": 3847,
      "namespace": 3848,
      "ĠoutputDir": 3849,
      "Question": 3850,
      "ĠIsUnicode": 3851,
      "Web": 3852,
      "Ġbetwe": 3853,
      "Pieces": 3854,
      "quires": 3855,
      "ĠOffset": 3856,
      "ĠCompletedTask": 3857,
      "ctivityId": 3858,
      "ĠIsDocumentRoot": 3859,
      "Ġbetween": 3860,
      "Abs": 3861,
      "Dom": 3862,
      "Digit": 3863,
      "Dif": 3864,
      "Frame": 3865,
      "Lib": 3866,
      "Lower": 3867,
      "Mat": 3868,
      "Messages": 3869,
      "Num": 3870,
      "Parallel": 3871,
      "Sum": 3872,
      "Scalar": 3873,
      "Schema": 3874,
      "User": 3875,
      "Virtual": 3876,
      "cent": 3877,
      "eg": 3878,
      "md": 3879,
      "sg": 3880,
      "tory": 3881,
      "use": 3882,
      "wner": 3883,
      "ĠIEqualityComparer": 3884,
      "ĠStop": 3885,
      "internal": 3886,
      "uto": 3887,
      "Ġsc": 3888,
      "ĠTim": 3889,
      "Ġbase": 3890,
      "ĠGetEntityType": 3891,
      "ĠGetTypeMapping": 3892,
      "ĠGetRoot": 3893,
      "Internal": 3894,
      "semanticModel": 3895,
      "words": 3896,
      "ĠISqlExpressionFactory": 3897,
      "Thing": 3898,
      "ĠAddOrUpdate": 3899,
      "Ġone": 3900,
      "Ġ__": 3901,
      "ĠPropertyName": 3902,
      "AddOrUpdate": 3903,
      "ĠFindProperty": 3904,
      "Unmanaged": 3905,
      "ĠORASSIGNMENTEXPRESSION": 3906,
      "ĠShared": 3907,
      "IfEmpty": 3908,
      "Roots": 3909,
      "ĠReadLine": 3910,
      "ĠReadOnly": 3911,
      "ested": 3912,
      "NotEmpty": 3913,
      "ultureInfo": 3914,
      "Ġunderlying": 3915,
      "ĠhashCode": 3916,
      "ĠMainBuilder": 3917,
      "ĠVectorDistance": 3918,
      "ĠResolve": 3919,
      "Ġgenerated": 3920,
      "ĠExecuted": 3921,
      "ConnectionString": 3922,
      "WithoutSelector": 3923,
      "Noti": 3924,
      "sInStock": 3925,
      "StoreTimeToLive": 3926,
      "StatementSyntax": 3927,
      "ticalStoreTimeToLive": 3928,
      "FullTextSearchLanguage": 3929,
      "ĠinMemoryQueryExpression": 3930,
      "Ġplayer": 3931,
      "erivedTypes": 3932,
      "Ġcustomers": 3933,
      "ished": 3934,
      "Ġactual": 3935,
      "ShadowId": 3936,
      "Level": 3937,
      "ĠcosmosOptionsAction": 3938,
      "ĠGetOrAdd": 3939,
      "ĠAttribute": 3940,
      "ĠGetDirectoryName": 3941,
      "31": 3942,
      ">[]": 3943,
      "AS": 3944,
      "CON": 3945,
      "ChangeTracking": 3946,
      "Do": 3947,
      "Operator": 3948,
      "PO": 3949,
      "Pi": 3950,
      "Utf": 3951,
      "cument": 3952,
      "category": 3953,
      "game": 3954,
      "global": 3955,
      "navigation": 3956,
      "ss": 3957,
      "sure": 3958,
      "sha": 3959,
      "tal": 3960,
      "ĠĠ": 3961,
      "ĠLE": 3962,
      "ĠALI": 3963,
      "ĠIInMemoryTable": 3964,
      "IFIED": 3965,
      "ĠSc": 3966,
      "ĠStopwatch": 3967,
      "ĠSwitch": 3968,
      "erri": 3969,
      "ank": 3970,
      "alance": 3971,
      "QUALIFIED": 3972,
      "ĠBuilder": 3973,
      "ĠBeg": 3974,
      "leted": 3975,
      "Ġinv": 3976,
      "Ġinclude": 3977,
      "cei": 3978,
      "ĠFile": 3979,
      "ĠFUNCTION": 3980,
      "TypeName": 3981,
      "ulk": 3982,
      "Ġwe": 3983,
      "esNot": 3984,
      "ĠGetStream": 3985,
      "ĠGetSequenceType": 3986,
      "Ġfur": 3987,
      "Ġfield": 3988,
      "Ġfluent": 3989,
      "ayload": 3990,
      "ĠIsEnum": 3991,
      "Ġdocument": 3992,
      "ĠresultSelector": 3993,
      "ĠToUpper": 3994,
      "atible": 3995,
      "ĠReverse": 3996,
      "ĠRuntime": 3997,
      "lit": 3998,
      "AsyncEnumerator": 3999,
      "StateAsync": 4000,
      "ĠmodelSnapshot": 4001,
      "BaseTypes": 4002,
      "Ġexec": 4003,
      "ĠStatement": 4004,
      "RootExpression": 4005,
      "constant": 4006,
      "Pluraliz": 4007,
      "Fix": 4008,
      "ĠcontainerId": 4009,
      "sqlExpressionFactory": 4010,
      "ĠGetPartitionKeyPropertyNames": 4011,
      "Ġpath": 4012,
      "iledModel": 4013,
      "ĠTargetEntityType": 4014,
      "Creates": 4015,
      "Ġtranslation": 4016,
      "Temp": 4017,
      "Ġtest": 4018,
      "Ġprefix": 4019,
      "ĠOperationReporter": 4020,
      "osite": 4021,
      "ĠValueBufferExpression": 4022,
      "ĠSplit": 4023,
      "atusCode": 4024,
      "ĠFilterIgnored": 4025,
      "ĠIsOnDependent": 4026,
      "Ġrepresents": 4027,
      "LocationHub": 4028,
      "Ġstored": 4029,
      "ĠVersion": 4030,
      "GenerationOptions": 4031,
      "Ġcorrespon": 4032,
      "Engine": 4033,
      "ASQUALIFIED": 4034,
      "DoesNot": 4035,
      "ĠALIASQUALIFIED": 4036,
      "erritory": 4037,
      "ĠBegin": 4038,
      "ĠFUNCTIONPO": 4039,
      "Ġfurther": 4040,
      "ĠFilterIgnoredAnnotations": 4041,
      "ĠALIASQUALIFIEDNAME": 4042,
      "\".": 4043,
      ")>": 4044,
      "Block": 4045,
      "El": 4046,
      "IRE": 4047,
      "IRoomGrain": 4048,
      "JToken": 4049,
      "gative": 4050,
      "node": 4051,
      "options": 4052,
      "pth": 4053,
      "rl": 4054,
      "Ġtry": 4055,
      "ĠIAnnotation": 4056,
      "ĠSource": 4057,
      "inaryExpression": 4058,
      "ĠPop": 4059,
      "register": 4060,
      "ene": 4061,
      "ĠNorm": 4062,
      "ĠTElement": 4063,
      "ĠAggregate": 4064,
      "Ġcreate": 4065,
      "Ġinterface": 4066,
      "simple": 4067,
      "ĠLabel": 4068,
      "ĠLessThan": 4069,
      "ĠFragment": 4070,
      "ism": 4071,
      "isOn": 4072,
      "licit": 4073,
      "Extract": 4074,
      "teLocationHub": 4075,
      "Ġdirection": 4076,
      "Ġevent": 4077,
      "Remo": 4078,
      "Ġpayload": 4079,
      "Ġimplementation": 4080,
      "ĠWor": 4081,
      "ĠISessionTokenStorage": 4082,
      "ĠIServiceProvider": 4083,
      "ĠConstructor": 4084,
      "ĠCondition": 4085,
      "CTIONEXPRESSION": 4086,
      "Anonymous": 4087,
      "ĠCreateInstance": 4088,
      "Try": 4089,
      "pecial": 4090,
      "INDIRE": 4091,
      "ĠPropertyBuilder": 4092,
      "ĠSqlParameterExpression": 4093,
      "ĠSqlHierarchyId": 4094,
      "ĠExpand": 4095
    },
    "merges": [
      [
        "M",
        "E"
      ],
      [
        "O",
        "N"
      ],
      [
        "E",
        "R"
      ],
      [
        "I",
        "ON"
      ],
      [
        "S",
        "S"
      ],
      [
        "E",
        "SS"
      ],
      [
        "P",
        "R"
      ],
      [
        "E",
        "X"
      ],
      [
        "PR",
        "ESS"
      ],
      [
        "EX",
        "PRESS"
      ],
      [
        "EXPRESS",
        "ION"
      ],
      [
        "Ġ",
        "I"
      ],
      [
        "A",
        "ME"
      ],
      [
        "N",
        "T"
      ],
      [
        "D",
        "E"
      ],
      [
        "N",
        "AME"
      ],
      [
        "A",
        "T"
      ],
      [
        "F",
        "I"
      ],
      [
        "I",
        "FI"
      ],
      [
        "IFI",
        "ER"
      ],
      [
        "ĠI",
        "DE"
      ],
      [
        "NT",
        "IFIER"
      ],
      [
        "ĠIDE",
        "NTIFIER"
      ],
      [
        "ĠIDENTIFIER",
        "NAME"
      ],
      [
        "A",
        "L"
      ],
      [
        ":",
        "$"
      ],
      [
        "A",
        "R"
      ],
      [
        "O",
        "C"
      ],
      [
        "L",
        "E"
      ],
      [
        "Ġ",
        "S"
      ],
      [
        "AT",
        "ION"
      ],
      [
        "T",
        "ER"
      ],
      [
        "P",
        "LE"
      ],
      [
        "I",
        "M"
      ],
      [
        "ĠS",
        "IM"
      ],
      [
        "ĠSIM",
        "PLE"
      ],
      [
        "A",
        "C"
      ],
      [
        "L",
        "OC"
      ],
      [
        "M",
        "B"
      ],
      [
        "C",
        "ESS"
      ],
      [
        "AC",
        "CESS"
      ],
      [
        "ACCESS",
        "EXPRESSION"
      ],
      [
        "C",
        "L"
      ],
      [
        "ME",
        "MB"
      ],
      [
        "MEMB",
        "ER"
      ],
      [
        "ĠSIMPLE",
        "MEMBER"
      ],
      [
        "ĠSIMPLEMEMBER",
        "ACCESSEXPRESSION"
      ],
      [
        "Ġ",
        "LOC"
      ],
      [
        "ĠLOC",
        "AL"
      ],
      [
        "ATION",
        "EXPRESSION"
      ],
      [
        "o",
        "n"
      ],
      [
        "i",
        "n"
      ],
      [
        "Ġ",
        "P"
      ],
      [
        "Ġ",
        "1"
      ],
      [
        "ĠI",
        "N"
      ],
      [
        "ĠIN",
        "V"
      ],
      [
        "OC",
        "ATIONEXPRESSION"
      ],
      [
        "ĠINV",
        "OCATIONEXPRESSION"
      ],
      [
        "e",
        "r"
      ],
      [
        "ME",
        "NT"
      ],
      [
        "t",
        "i"
      ],
      [
        "ĠP",
        "AR"
      ],
      [
        "AME",
        "TER"
      ],
      [
        "ĠPAR",
        "AMETER"
      ],
      [
        "r",
        "e"
      ],
      [
        "S",
        "T"
      ],
      [
        "DE",
        "CL"
      ],
      [
        "DECL",
        "AR"
      ],
      [
        "AT",
        "E"
      ],
      [
        "ST",
        "ATE"
      ],
      [
        "STATE",
        "MENT"
      ],
      [
        "Ġ",
        "E"
      ],
      [
        "a",
        "r"
      ],
      [
        "A",
        "B"
      ],
      [
        "AL",
        "EXPRESSION"
      ],
      [
        "Ġ",
        "V"
      ],
      [
        "AB",
        "LE"
      ],
      [
        "I",
        "TER"
      ],
      [
        "ITER",
        "ALEXPRESSION"
      ],
      [
        "e",
        "n"
      ],
      [
        "T",
        "Y"
      ],
      [
        "I",
        "ABLE"
      ],
      [
        "AR",
        "IABLE"
      ],
      [
        "DECLAR",
        "ATION"
      ],
      [
        "t",
        "h"
      ],
      [
        "ĠV",
        "ARIABLE"
      ],
      [
        "S",
        "E"
      ],
      [
        "ti",
        "on"
      ],
      [
        "Ġ",
        "C"
      ],
      [
        "u",
        "t"
      ],
      [
        "Ġ",
        "s"
      ],
      [
        "a",
        "t"
      ],
      [
        "a",
        "n"
      ],
      [
        "Ġ",
        "N"
      ],
      [
        "a",
        "l"
      ],
      [
        "TY",
        "P"
      ],
      [
        "R",
        "I"
      ],
      [
        "A",
        "U"
      ],
      [
        "AU",
        "SE"
      ],
      [
        "CL",
        "AUSE"
      ],
      [
        "o",
        "r"
      ],
      [
        "a",
        "m"
      ],
      [
        "TYP",
        "E"
      ],
      [
        "Q",
        "U"
      ],
      [
        "in",
        "g"
      ],
      [
        "QU",
        "AL"
      ],
      [
        "QUAL",
        "S"
      ],
      [
        "Ġ",
        "v"
      ],
      [
        "Ġ",
        "B"
      ],
      [
        "l",
        "e"
      ],
      [
        "Ġ",
        "NAME"
      ],
      [
        "O",
        "R"
      ],
      [
        "Ġ",
        "T"
      ],
      [
        "L",
        "ITERALEXPRESSION"
      ],
      [
        "Ġ",
        "A"
      ],
      [
        "LOC",
        "K"
      ],
      [
        "ĠB",
        "LOCK"
      ],
      [
        "i",
        "c"
      ],
      [
        "D",
        "TYPE"
      ],
      [
        "ĠE",
        "QUALS"
      ],
      [
        "ĠNAME",
        "DTYPE"
      ],
      [
        "t",
        "y"
      ],
      [
        "R",
        "E"
      ],
      [
        "am",
        "e"
      ],
      [
        "p",
        "e"
      ],
      [
        "Ġ",
        "c"
      ],
      [
        "N",
        "G"
      ],
      [
        "a",
        "s"
      ],
      [
        "ĠN",
        "U"
      ],
      [
        "Ġ",
        "th"
      ],
      [
        "U",
        "E"
      ],
      [
        "Ġ",
        "in"
      ],
      [
        "c",
        "t"
      ],
      [
        "re",
        "s"
      ],
      [
        "s",
        "i"
      ],
      [
        "t",
        "r"
      ],
      [
        "Ġ",
        "0"
      ],
      [
        "E",
        "L"
      ],
      [
        "AT",
        "OR"
      ],
      [
        "DECLAR",
        "ATOR"
      ],
      [
        "Ġ",
        "2"
      ],
      [
        "ĠVARIABLE",
        "DECLARATOR"
      ],
      [
        "ĠVARIABLE",
        "DECLARATION"
      ],
      [
        "r",
        "o"
      ],
      [
        "EL",
        "D"
      ],
      [
        "V",
        "AL"
      ],
      [
        "ĠEQUALS",
        "VAL"
      ],
      [
        "UE",
        "CLAUSE"
      ],
      [
        "ĠEQUALSVAL",
        "UECLAUSE"
      ],
      [
        "FI",
        "ELD"
      ],
      [
        "Ġv",
        "ar"
      ],
      [
        "o",
        "ut"
      ],
      [
        "e",
        "d"
      ],
      [
        "RI",
        "NG"
      ],
      [
        "T",
        "H"
      ],
      [
        "ĠLOCAL",
        "DECLARATION"
      ],
      [
        "ĠLOCALDECLARATION",
        "STATEMENT"
      ],
      [
        "Ġ",
        "L"
      ],
      [
        "u",
        "b"
      ],
      [
        "y",
        "pe"
      ],
      [
        "si",
        "on"
      ],
      [
        "p",
        "p"
      ],
      [
        "e",
        "t"
      ],
      [
        "c",
        "e"
      ],
      [
        "AT",
        "TER"
      ],
      [
        "ATTER",
        "N"
      ],
      [
        "Ġ",
        "F"
      ],
      [
        "i",
        "s"
      ],
      [
        "d",
        "e"
      ],
      [
        "l",
        "ic"
      ],
      [
        "E",
        "x"
      ],
      [
        "p",
        "ut"
      ],
      [
        "u",
        "e"
      ],
      [
        "t",
        "e"
      ],
      [
        "o",
        "u"
      ],
      [
        "P",
        "ATTERN"
      ],
      [
        "out",
        "put"
      ],
      [
        "<",
        "|"
      ],
      [
        "|",
        ">"
      ],
      [
        "O",
        "D"
      ],
      [
        "Ġth",
        "e"
      ],
      [
        "Ġ",
        "n"
      ],
      [
        "ME",
        "TH"
      ],
      [
        "METH",
        "OD"
      ],
      [
        "Ġ",
        "METHOD"
      ],
      [
        "T",
        "ype"
      ],
      [
        "p",
        "res"
      ],
      [
        "pres",
        "sion"
      ],
      [
        "Ġ",
        "FIELD"
      ],
      [
        "al",
        "ue"
      ],
      [
        "t",
        "a"
      ],
      [
        "T",
        "C"
      ],
      [
        "MENT",
        "EXPRESSION"
      ],
      [
        "ME",
        "RI"
      ],
      [
        "CL",
        "ITERALEXPRESSION"
      ],
      [
        "ĠNU",
        "MERI"
      ],
      [
        "ĠNUMERI",
        "CLITERALEXPRESSION"
      ],
      [
        "Ġ",
        "an"
      ],
      [
        "O",
        "L"
      ],
      [
        "at",
        "e"
      ],
      [
        "i",
        "l"
      ],
      [
        "r",
        "i"
      ],
      [
        "T",
        "RING"
      ],
      [
        "Ġ",
        "$"
      ],
      [
        "ĠS",
        "TRING"
      ],
      [
        "ĠSTRING",
        "LITERALEXPRESSION"
      ],
      [
        "ub",
        "lic"
      ],
      [
        "p",
        "ublic"
      ],
      [
        "Ġ",
        "O"
      ],
      [
        "ĠI",
        "F"
      ],
      [
        "ĠIF",
        "STATEMENT"
      ],
      [
        "tr",
        "ing"
      ],
      [
        "Ġ",
        "G"
      ],
      [
        "u",
        "l"
      ],
      [
        "t",
        "o"
      ],
      [
        "I",
        "G"
      ],
      [
        "IG",
        "N"
      ],
      [
        "ti",
        "ty"
      ],
      [
        "e",
        "y"
      ],
      [
        "A",
        "SS"
      ],
      [
        "Ġ",
        "w"
      ],
      [
        "IGN",
        "MENTEXPRESSION"
      ],
      [
        "ASS",
        "IGNMENTEXPRESSION"
      ],
      [
        "AR",
        "R"
      ],
      [
        "en",
        "t"
      ],
      [
        "Ġ",
        "ARR"
      ],
      [
        "L",
        "L"
      ],
      [
        "a",
        "tion"
      ],
      [
        "o",
        "l"
      ],
      [
        "Ex",
        "pression"
      ],
      [
        "Ġ",
        "b"
      ],
      [
        "I",
        "C"
      ],
      [
        "Ġ",
        "RE"
      ],
      [
        "E",
        "C"
      ],
      [
        "ĠSIMPLE",
        "ASSIGNMENTEXPRESSION"
      ],
      [
        "U",
        "R"
      ],
      [
        "Ġ",
        "re"
      ],
      [
        "O",
        "W"
      ],
      [
        "p",
        "er"
      ],
      [
        "Ġ",
        "to"
      ],
      [
        "t",
        "er"
      ],
      [
        "Ġ",
        "PR"
      ],
      [
        "l",
        "y"
      ],
      [
        "Ġ",
        "d"
      ],
      [
        "NT",
        "ER"
      ],
      [
        "B",
        "J"
      ],
      [
        "BJ",
        "EC"
      ],
      [
        "d",
        "er"
      ],
      [
        "e",
        "s"
      ],
      [
        "NTER",
        "P"
      ],
      [
        "G",
        "IC"
      ],
      [
        "O",
        "GIC"
      ],
      [
        "ĠL",
        "OGIC"
      ],
      [
        "ĠLOGIC",
        "AL"
      ],
      [
        "ĠI",
        "NTERP"
      ],
      [
        "ĠINTERP",
        "OL"
      ],
      [
        "ĠNU",
        "LL"
      ],
      [
        "n",
        "tity"
      ],
      [
        "N",
        "STATEMENT"
      ],
      [
        "T",
        "UR"
      ],
      [
        "TUR",
        "NSTATEMENT"
      ],
      [
        "Ġ",
        "a"
      ],
      [
        "O",
        "P"
      ],
      [
        "ĠPR",
        "OP"
      ],
      [
        "ĠPROP",
        "ER"
      ],
      [
        "A",
        "N"
      ],
      [
        "o",
        "de"
      ],
      [
        "ĠG",
        "et"
      ],
      [
        "OW",
        "EXPRESSION"
      ],
      [
        "RE",
        "ATIONEXPRESSION"
      ],
      [
        "ĠRE",
        "TURNSTATEMENT"
      ],
      [
        "ĠC",
        "o"
      ],
      [
        "x",
        "t"
      ],
      [
        "Ġ",
        "D"
      ],
      [
        "ĠC",
        "ON"
      ],
      [
        "I",
        "n"
      ],
      [
        "m",
        "p"
      ],
      [
        "i",
        "th"
      ],
      [
        "u",
        "m"
      ],
      [
        "Ġ",
        "u"
      ],
      [
        "TC",
        "REATIONEXPRESSION"
      ],
      [
        "BJEC",
        "TCREATIONEXPRESSION"
      ],
      [
        "Ġ",
        "f"
      ],
      [
        "as",
        "e"
      ],
      [
        "V",
        "alue"
      ],
      [
        "en",
        "d"
      ],
      [
        "Ġ",
        "3"
      ],
      [
        "O",
        "T"
      ],
      [
        "a",
        "b"
      ],
      [
        "j",
        "e"
      ],
      [
        "K",
        "ey"
      ],
      [
        "ĠNULL",
        "LITERALEXPRESSION"
      ],
      [
        "Ġ",
        "e"
      ],
      [
        "Ġ",
        "o"
      ],
      [
        "ĠARR",
        "OWEXPRESSION"
      ],
      [
        "ĠARROWEXPRESSION",
        "CLAUSE"
      ],
      [
        "ĠPROPER",
        "TY"
      ],
      [
        "ĠO",
        "BJECTCREATIONEXPRESSION"
      ],
      [
        "c",
        "tion"
      ],
      [
        "R",
        "e"
      ],
      [
        "ĠA",
        "pp"
      ],
      [
        "I",
        "T"
      ],
      [
        "Ġ",
        "p"
      ],
      [
        "ul",
        "t"
      ],
      [
        "ĠApp",
        "end"
      ],
      [
        "LE",
        "MENT"
      ],
      [
        "D",
        "EXPRESSION"
      ],
      [
        "ti",
        "c"
      ],
      [
        "Ġ",
        "i"
      ],
      [
        "ĠE",
        "ntity"
      ],
      [
        "m",
        "o"
      ],
      [
        "s",
        "e"
      ],
      [
        "ab",
        "le"
      ],
      [
        "o",
        "t"
      ],
      [
        "Ġ",
        "M"
      ],
      [
        "i",
        "d"
      ],
      [
        "p",
        "tion"
      ],
      [
        "Ġw",
        "ith"
      ],
      [
        "Ġ",
        "W"
      ],
      [
        "Ġth",
        "at"
      ],
      [
        "ro",
        "per"
      ],
      [
        "i",
        "g"
      ],
      [
        "Ġ",
        "m"
      ],
      [
        "Ġ",
        "k"
      ],
      [
        "je",
        "ct"
      ],
      [
        "u",
        "r"
      ],
      [
        "ĠEQUALS",
        "EXPRESSION"
      ],
      [
        "ta",
        "tic"
      ],
      [
        "ĠE",
        "LEMENT"
      ],
      [
        "w",
        "or"
      ],
      [
        "ĠELEMENT",
        "ACCESSEXPRESSION"
      ],
      [
        "Ġan",
        "d"
      ],
      [
        "Ġs",
        "tatic"
      ],
      [
        "r",
        "ame"
      ],
      [
        "ĠCo",
        "re"
      ],
      [
        "n",
        "o"
      ],
      [
        "wor",
        "k"
      ],
      [
        "rame",
        "work"
      ],
      [
        "D",
        "ST"
      ],
      [
        "ATE",
        "DST"
      ],
      [
        "ĠINTERPOL",
        "ATEDST"
      ],
      [
        "ĠINTERPOLATEDST",
        "RING"
      ],
      [
        "P",
        "I"
      ],
      [
        "u",
        "ct"
      ],
      [
        "ĠA",
        "PI"
      ],
      [
        "le",
        "ase"
      ],
      [
        "ĠF",
        "ramework"
      ],
      [
        "ĠT",
        "h"
      ],
      [
        "Ġre",
        "lease"
      ],
      [
        "L",
        "A"
      ],
      [
        "A",
        "EXPRESSION"
      ],
      [
        "D",
        "AEXPRESSION"
      ],
      [
        "MB",
        "DAEXPRESSION"
      ],
      [
        "LA",
        "MBDAEXPRESSION"
      ],
      [
        "a",
        "y"
      ],
      [
        "u",
        "re"
      ],
      [
        "I",
        "N"
      ],
      [
        "in",
        "e"
      ],
      [
        "C",
        "on"
      ],
      [
        "u",
        "il"
      ],
      [
        "is",
        "t"
      ],
      [
        "roper",
        "ty"
      ],
      [
        "ĠN",
        "OT"
      ],
      [
        "v",
        "er"
      ],
      [
        "o",
        "mp"
      ],
      [
        "W",
        "I"
      ],
      [
        "ou",
        "r"
      ],
      [
        "uil",
        "der"
      ],
      [
        "d",
        "d"
      ],
      [
        "an",
        "d"
      ],
      [
        "TC",
        "H"
      ],
      [
        "WI",
        "TCH"
      ],
      [
        "N",
        "ame"
      ],
      [
        "ar",
        "y"
      ],
      [
        "Ġs",
        "tring"
      ],
      [
        "ĠSIMPLE",
        "LAMBDAEXPRESSION"
      ],
      [
        "o",
        "d"
      ],
      [
        "m",
        "e"
      ],
      [
        "L",
        "ine"
      ],
      [
        "n",
        "t"
      ],
      [
        "m",
        "ent"
      ],
      [
        "en",
        "er"
      ],
      [
        "ar",
        "am"
      ],
      [
        "mo",
        "v"
      ],
      [
        "ĠS",
        "U"
      ],
      [
        "i",
        "r"
      ],
      [
        "o",
        "ol"
      ],
      [
        "u",
        "al"
      ],
      [
        "E",
        "n"
      ],
      [
        "FIELD",
        "S"
      ],
      [
        "E",
        "QUALS"
      ],
      [
        "ĠI",
        "s"
      ],
      [
        "e",
        "th"
      ],
      [
        "Ġb",
        "ool"
      ],
      [
        "AN",
        "DEXPRESSION"
      ],
      [
        "ĠLOGICAL",
        "ANDEXPRESSION"
      ],
      [
        "e",
        "w"
      ],
      [
        "or",
        "t"
      ],
      [
        "ĠTh",
        "e"
      ],
      [
        "p",
        "d"
      ],
      [
        "Ġ",
        "is"
      ],
      [
        "ĠNOT",
        "EQUALS"
      ],
      [
        "ĠNOTEQUALS",
        "EXPRESSION"
      ],
      [
        "Ġ",
        "4"
      ],
      [
        "y",
        "n"
      ],
      [
        "an",
        "g"
      ],
      [
        "Ġ",
        "as"
      ],
      [
        "o",
        "id"
      ],
      [
        "Ġv",
        "oid"
      ],
      [
        "ĠC",
        "A"
      ],
      [
        "B",
        "uilder"
      ],
      [
        "A",
        "NT"
      ],
      [
        "ST",
        "ANT"
      ],
      [
        "ĠCON",
        "STANT"
      ],
      [
        "ĠCONSTANT",
        "PATTERN"
      ],
      [
        "s",
        "tring"
      ],
      [
        "m",
        "b"
      ],
      [
        "p",
        "aram"
      ],
      [
        "e",
        "c"
      ],
      [
        "Ġb",
        "e"
      ],
      [
        "s",
        "t"
      ],
      [
        "IT",
        "ION"
      ],
      [
        "D",
        "ITION"
      ],
      [
        "ĠCON",
        "DITION"
      ],
      [
        "Ġin",
        "t"
      ],
      [
        "u",
        "er"
      ],
      [
        "a",
        "d"
      ],
      [
        "eth",
        "od"
      ],
      [
        "ĠS",
        "WITCH"
      ],
      [
        "uer",
        "y"
      ],
      [
        "v",
        "ate"
      ],
      [
        "i",
        "ty"
      ],
      [
        "tion",
        "ary"
      ],
      [
        "ic",
        "tionary"
      ],
      [
        "ĠI",
        "n"
      ],
      [
        "i",
        "re"
      ],
      [
        "p",
        "ri"
      ],
      [
        "G",
        "ener"
      ],
      [
        "pri",
        "vate"
      ],
      [
        "T",
        "EX"
      ],
      [
        "ĠT",
        "H"
      ],
      [
        "ĠINTERPOLATEDSTRING",
        "TEX"
      ],
      [
        "ĠINTERPOLATEDSTRINGTEX",
        "T"
      ],
      [
        "at",
        "or"
      ],
      [
        "Ġd",
        "o"
      ],
      [
        "ĠI",
        "S"
      ],
      [
        "ri",
        "te"
      ],
      [
        "ĠC",
        "on"
      ],
      [
        "tr",
        "uct"
      ],
      [
        "Ġw",
        "h"
      ],
      [
        "T",
        "h"
      ],
      [
        "f",
        "a"
      ],
      [
        "ĠF",
        "OR"
      ],
      [
        "Ġ",
        "res"
      ],
      [
        "Ġn",
        "ew"
      ],
      [
        "l",
        "d"
      ],
      [
        "ul",
        "l"
      ],
      [
        "d",
        "s"
      ],
      [
        "u",
        "pp"
      ],
      [
        "um",
        "er"
      ],
      [
        "Ġc",
        "an"
      ],
      [
        "Ġ",
        "en"
      ],
      [
        "upp",
        "ort"
      ],
      [
        "ce",
        "s"
      ],
      [
        "I",
        "NG"
      ],
      [
        "Ġ",
        "U"
      ],
      [
        "ĠW",
        "rite"
      ],
      [
        "te",
        "xt"
      ],
      [
        "Ġ",
        "or"
      ],
      [
        "a",
        "g"
      ],
      [
        "ĠA",
        "dd"
      ],
      [
        "ĠINTERPOL",
        "ATION"
      ],
      [
        "In",
        "f"
      ],
      [
        "Ġv",
        "alue"
      ],
      [
        "Ġc",
        "omp"
      ],
      [
        "TH",
        "AN"
      ],
      [
        "A",
        "Y"
      ],
      [
        "h",
        "ang"
      ],
      [
        "Ġ",
        "Y"
      ],
      [
        "ou",
        "nt"
      ],
      [
        "Ġs",
        "t"
      ],
      [
        "Ġres",
        "ult"
      ],
      [
        "ĠARR",
        "AY"
      ],
      [
        "x",
        "pression"
      ],
      [
        "H",
        "as"
      ],
      [
        "a",
        "ti"
      ],
      [
        "Ġk",
        "ey"
      ],
      [
        "n",
        "s"
      ],
      [
        "Q",
        "uery"
      ],
      [
        "a",
        "il"
      ],
      [
        "ire",
        "ct"
      ],
      [
        "Ġ",
        "TYPE"
      ],
      [
        "Ġn",
        "ot"
      ],
      [
        "n",
        "al"
      ],
      [
        "Ġc",
        "on"
      ],
      [
        "at",
        "ing"
      ],
      [
        "te",
        "m"
      ],
      [
        "ST",
        "EXPRESSION"
      ],
      [
        "Ġu",
        "se"
      ],
      [
        "ĠCA",
        "STEXPRESSION"
      ],
      [
        "Ġs",
        "h"
      ],
      [
        "ĠT",
        "R"
      ],
      [
        "lic",
        "ation"
      ],
      [
        "Ġa",
        "pp"
      ],
      [
        "C",
        "OL"
      ],
      [
        "or",
        "y"
      ],
      [
        "de",
        "x"
      ],
      [
        "PATTERN",
        "EXPRESSION"
      ],
      [
        "ĠIS",
        "PATTERNEXPRESSION"
      ],
      [
        "COL",
        "ON"
      ],
      [
        "Ġ",
        "on"
      ],
      [
        "Ġc",
        "ode"
      ],
      [
        "ING",
        "EXPRESSION"
      ],
      [
        "ou",
        "ld"
      ],
      [
        "Ġre",
        "mov"
      ],
      [
        "Ġs",
        "ame"
      ],
      [
        "Ġc",
        "a"
      ],
      [
        "u",
        "res"
      ],
      [
        "u",
        "tion"
      ],
      [
        "A",
        "s"
      ],
      [
        "ter",
        "nal"
      ],
      [
        "Ġs",
        "ub"
      ],
      [
        "D",
        "e"
      ],
      [
        "(",
        ")"
      ],
      [
        "Ġi",
        "t"
      ],
      [
        "F",
        "EXPRESSION"
      ],
      [
        "P",
        "ro"
      ],
      [
        "Inf",
        "o"
      ],
      [
        "ol",
        "le"
      ],
      [
        "Ġan",
        "y"
      ],
      [
        "En",
        "umer"
      ],
      [
        "ĠNAME",
        "COLON"
      ],
      [
        "ĠT",
        "ype"
      ],
      [
        "Ġs",
        "o"
      ],
      [
        "Ġn",
        "ame"
      ],
      [
        "truct",
        "ure"
      ],
      [
        "c",
        "h"
      ],
      [
        "Ġremov",
        "ed"
      ],
      [
        "Ġn",
        "o"
      ],
      [
        "Ġwh",
        "en"
      ],
      [
        "hang",
        "ed"
      ],
      [
        "ĠA",
        "D"
      ],
      [
        "il",
        "ity"
      ],
      [
        "ce",
        "ption"
      ],
      [
        "Ġ",
        "y"
      ],
      [
        "olle",
        "ction"
      ],
      [
        "u",
        "n"
      ],
      [
        "no",
        "w"
      ],
      [
        "ĠSU",
        "B"
      ],
      [
        "Ġsh",
        "ould"
      ],
      [
        "r",
        "as"
      ],
      [
        "ras",
        "tructure"
      ],
      [
        "b",
        "ject"
      ],
      [
        "q",
        "l"
      ],
      [
        "ĠT",
        "o"
      ],
      [
        "Ġu",
        "pd"
      ],
      [
        "Ġin",
        "f"
      ],
      [
        "Ġd",
        "irect"
      ],
      [
        "Ġe",
        "xt"
      ],
      [
        "ati",
        "b"
      ],
      [
        "ar",
        "ame"
      ],
      [
        "arame",
        "ter"
      ],
      [
        "fa",
        "ult"
      ],
      [
        "Ġon",
        "ly"
      ],
      [
        "Ġ",
        "public"
      ],
      [
        "Ġapp",
        "lication"
      ],
      [
        "Ġs",
        "upport"
      ],
      [
        "Ġc",
        "hanged"
      ],
      [
        "O",
        "FEXPRESSION"
      ],
      [
        "Ġin",
        "ternal"
      ],
      [
        "Ġdirect",
        "ly"
      ],
      [
        "Ġwith",
        "out"
      ],
      [
        "ĠTYPE",
        "OFEXPRESSION"
      ],
      [
        "Ġm",
        "ay"
      ],
      [
        "and",
        "ar"
      ],
      [
        "ĠI",
        "t"
      ],
      [
        "Th",
        "is"
      ],
      [
        "Ġno",
        "ti"
      ],
      [
        "atib",
        "ility"
      ],
      [
        "ĠN",
        "ame"
      ],
      [
        "Ġk",
        "now"
      ],
      [
        "ĠAPI",
        "s"
      ],
      [
        "Ġst",
        "andar"
      ],
      [
        "Ġsub",
        "ject"
      ],
      [
        "Ġy",
        "our"
      ],
      [
        "Ġinf",
        "rastructure"
      ],
      [
        "re",
        "me"
      ],
      [
        "Ġf",
        "ail"
      ],
      [
        "Ġdo",
        "ing"
      ],
      [
        "Ġcomp",
        "atibility"
      ],
      [
        "ĠY",
        "ou"
      ],
      [
        "Ġca",
        "ution"
      ],
      [
        "Ġupd",
        "ating"
      ],
      [
        "Ġext",
        "reme"
      ],
      [
        "Ġsupport",
        "s"
      ],
      [
        "Ġnoti",
        "ce"
      ],
      [
        "Ġknow",
        "ing"
      ],
      [
        "Ġstandar",
        "ds"
      ],
      [
        "Ġfail",
        "ures"
      ],
      [
        "ĠCONDITION",
        "ALEXPRESSION"
      ],
      [
        "f",
        "i"
      ],
      [
        "Ex",
        "ception"
      ],
      [
        "T",
        "Key"
      ],
      [
        "UE",
        "LITERALEXPRESSION"
      ],
      [
        "ĠTR",
        "UELITERALEXPRESSION"
      ],
      [
        "N",
        "OT"
      ],
      [
        "um",
        "ent"
      ],
      [
        "NOT",
        "EXPRESSION"
      ],
      [
        "ĠLOGICAL",
        "NOTEXPRESSION"
      ],
      [
        "O",
        "n"
      ],
      [
        "le",
        "ment"
      ],
      [
        "V",
        "er"
      ],
      [
        "i",
        "si"
      ],
      [
        "Ġ",
        "Has"
      ],
      [
        "isi",
        "t"
      ],
      [
        "C",
        "T"
      ],
      [
        "ĠSWITCH",
        "EXPRESSION"
      ],
      [
        "T",
        "o"
      ],
      [
        "ta",
        "in"
      ],
      [
        "ĠTH",
        "R"
      ],
      [
        "Gener",
        "ic"
      ],
      [
        "THAN",
        "EXPRESSION"
      ],
      [
        "ĠAD",
        "DEXPRESSION"
      ],
      [
        "Ġ",
        "Re"
      ],
      [
        "L",
        "ist"
      ],
      [
        "g",
        "ument"
      ],
      [
        "ĠT",
        "r"
      ],
      [
        "ty",
        "pe"
      ],
      [
        "Ġ",
        "5"
      ],
      [
        "an",
        "s"
      ],
      [
        "E",
        "ntity"
      ],
      [
        "S",
        "tring"
      ],
      [
        "e",
        "le"
      ],
      [
        "ĠWrite",
        "Line"
      ],
      [
        "O",
        "r"
      ],
      [
        "q",
        "ual"
      ],
      [
        "ur",
        "ns"
      ],
      [
        "ver",
        "ri"
      ],
      [
        "M",
        "a"
      ],
      [
        "our",
        "ce"
      ],
      [
        "te",
        "x"
      ],
      [
        "CT",
        "ION"
      ],
      [
        "ta",
        "tion"
      ],
      [
        "E",
        "AC"
      ],
      [
        "ĠFOR",
        "EAC"
      ],
      [
        "ĠFOREAC",
        "H"
      ],
      [
        "verri",
        "de"
      ],
      [
        "Ġ",
        "type"
      ],
      [
        "M",
        "e"
      ],
      [
        "P",
        "roperty"
      ],
      [
        "in",
        "t"
      ],
      [
        "ĠT",
        "Value"
      ],
      [
        "h",
        "a"
      ],
      [
        "A",
        "r"
      ],
      [
        "N",
        "ull"
      ],
      [
        "Ġo",
        "verride"
      ],
      [
        "ode",
        "l"
      ],
      [
        "S",
        "I"
      ],
      [
        "c",
        "i"
      ],
      [
        "ĠE",
        "xpression"
      ],
      [
        "OR",
        "EXPRESSION"
      ],
      [
        "AL",
        "SE"
      ],
      [
        "ĠF",
        "ALSE"
      ],
      [
        "ĠFALSE",
        "LITERALEXPRESSION"
      ],
      [
        "r",
        "a"
      ],
      [
        "Ġ",
        "R"
      ],
      [
        "AR",
        "M"
      ],
      [
        "ĠSWITCHEXPRESSION",
        "ARM"
      ],
      [
        "ele",
        "ct"
      ],
      [
        "Ver",
        "tex"
      ],
      [
        "f",
        "ig"
      ],
      [
        "no",
        "tation"
      ],
      [
        "ĠLOGICAL",
        "OREXPRESSION"
      ],
      [
        "ĠFOREACH",
        "STATEMENT"
      ],
      [
        "ĠV",
        "alue"
      ],
      [
        "[",
        "]"
      ],
      [
        "I",
        "S"
      ],
      [
        "per",
        "ation"
      ],
      [
        "mb",
        "er"
      ],
      [
        "ta",
        "x"
      ],
      [
        "yn",
        "tax"
      ],
      [
        "ec",
        "l"
      ],
      [
        "g",
        "th"
      ],
      [
        "en",
        "gth"
      ],
      [
        "Ġf",
        "or"
      ],
      [
        "at",
        "a"
      ],
      [
        "Ġo",
        "f"
      ],
      [
        "ĠINTERPOLATEDSTRING",
        "EXPRESSION"
      ],
      [
        "Ġen",
        "tity"
      ],
      [
        "ĠAppend",
        "Line"
      ],
      [
        "p",
        "ro"
      ],
      [
        "ces",
        "s"
      ],
      [
        "ption",
        "s"
      ],
      [
        "A",
        "n"
      ],
      [
        "d",
        "uct"
      ],
      [
        "v",
        "e"
      ],
      [
        "C",
        "RE"
      ],
      [
        "CRE",
        "MENTEXPRESSION"
      ],
      [
        "yn",
        "c"
      ],
      [
        "Con",
        "text"
      ],
      [
        "C",
        "ollection"
      ],
      [
        "t",
        "ual"
      ],
      [
        "ĠC",
        "ount"
      ],
      [
        "ir",
        "tual"
      ],
      [
        "t",
        "urns"
      ],
      [
        "je",
        "ction"
      ],
      [
        "in",
        "d"
      ],
      [
        "Enumer",
        "able"
      ],
      [
        "N",
        "U"
      ],
      [
        "N",
        "INGEXPRESSION"
      ],
      [
        "P",
        "PRESS"
      ],
      [
        "W",
        "AR"
      ],
      [
        "ABLE",
        "WAR"
      ],
      [
        "LL",
        "ABLEWAR"
      ],
      [
        "ĠSU",
        "PPRESS"
      ],
      [
        "NU",
        "LLABLEWAR"
      ],
      [
        "ĠSUPPRESS",
        "NULLABLEWAR"
      ],
      [
        "ĠSUPPRESSNULLABLEWAR",
        "NINGEXPRESSION"
      ],
      [
        "Ġv",
        "irtual"
      ],
      [
        "pp",
        "ing"
      ],
      [
        "re",
        "ate"
      ],
      [
        "C",
        "ode"
      ],
      [
        "S",
        "yntax"
      ],
      [
        "fi",
        "ed"
      ],
      [
        "ĠL",
        "ESS"
      ],
      [
        "Re",
        "ad"
      ],
      [
        "tr",
        "y"
      ],
      [
        "p",
        "a"
      ],
      [
        "ro",
        "m"
      ],
      [
        "I",
        "d"
      ],
      [
        "U",
        "S"
      ],
      [
        "ecl",
        "ar"
      ],
      [
        "ĠP",
        "ro"
      ],
      [
        "Y",
        "M"
      ],
      [
        "IN",
        "CREMENTEXPRESSION"
      ],
      [
        "On",
        "ly"
      ],
      [
        "ĠL",
        "ength"
      ],
      [
        ">",
        ":"
      ],
      [
        "e",
        "xt"
      ],
      [
        "ans",
        "l"
      ],
      [
        "Ġe",
        "lement"
      ],
      [
        "Ġ",
        "DECLARATION"
      ],
      [
        "ĠDECLARATION",
        "PATTERN"
      ],
      [
        "st",
        "an"
      ],
      [
        "o",
        "f"
      ],
      [
        "T",
        "Vertex"
      ],
      [
        "l",
        "o"
      ],
      [
        "i",
        "z"
      ],
      [
        "ĠLESS",
        "THANEXPRESSION"
      ],
      [
        "Ma",
        "pping"
      ],
      [
        "l",
        "i"
      ],
      [
        "D",
        "ictionary"
      ],
      [
        "ĠM",
        "ethod"
      ],
      [
        "Ġname",
        "of"
      ],
      [
        "ĠSUB",
        "PATTERN"
      ],
      [
        "C",
        "omp"
      ],
      [
        "Ġp",
        "roperty"
      ],
      [
        "1",
        "0"
      ],
      [
        "De",
        "fault"
      ],
      [
        "Read",
        "Only"
      ],
      [
        "1",
        "1"
      ],
      [
        "M",
        "ethod"
      ],
      [
        "re",
        "turns"
      ],
      [
        "ag",
        "e"
      ],
      [
        "g",
        "er"
      ],
      [
        "i",
        "es"
      ],
      [
        "ĠC",
        "reate"
      ],
      [
        "G",
        "et"
      ],
      [
        "p",
        "le"
      ],
      [
        "ĠTr",
        "y"
      ],
      [
        "ĠO",
        "r"
      ],
      [
        "OW",
        "STATEMENT"
      ],
      [
        "ĠTHR",
        "OWSTATEMENT"
      ],
      [
        "An",
        "notation"
      ],
      [
        "O",
        "peration"
      ],
      [
        "ĠL",
        "ist"
      ],
      [
        "ĠD",
        "e"
      ],
      [
        "AT",
        "ER"
      ],
      [
        "RE",
        "ATER"
      ],
      [
        "ĠG",
        "REATER"
      ],
      [
        "k",
        "en"
      ],
      [
        "ing",
        "Type"
      ],
      [
        "mov",
        "e"
      ],
      [
        "r",
        "ay"
      ],
      [
        "T",
        "r"
      ],
      [
        "ct",
        "ed"
      ],
      [
        "ĠP",
        "O"
      ],
      [
        "y",
        "s"
      ],
      [
        "Query",
        "Expression"
      ],
      [
        "ĠD",
        "ictionary"
      ],
      [
        "ys",
        "tem"
      ],
      [
        "ĠD",
        "eclar"
      ],
      [
        "re",
        "nt"
      ],
      [
        "S",
        "t"
      ],
      [
        "i",
        "t"
      ],
      [
        "pe",
        "ci"
      ],
      [
        "s",
        "er"
      ],
      [
        "v",
        "ic"
      ],
      [
        "ĠE",
        "qual"
      ],
      [
        "Entity",
        "Type"
      ],
      [
        "P",
        "a"
      ],
      [
        "Ġi",
        "f"
      ],
      [
        "Ġp",
        "ro"
      ],
      [
        "As",
        "ync"
      ],
      [
        "L",
        "SE"
      ],
      [
        "ĠE",
        "LSE"
      ],
      [
        "ĠELSE",
        "CLAUSE"
      ],
      [
        "v",
        "i"
      ],
      [
        "a",
        "ct"
      ],
      [
        "o",
        "g"
      ],
      [
        "ĠN",
        "ot"
      ],
      [
        "E",
        "PATTERN"
      ],
      [
        "O",
        "ptions"
      ],
      [
        "tain",
        "s"
      ],
      [
        ">",
        ">"
      ],
      [
        "s",
        "mo"
      ],
      [
        "er",
        "vic"
      ],
      [
        "te",
        "cted"
      ],
      [
        "pro",
        "tected"
      ],
      [
        "smo",
        "s"
      ],
      [
        "C",
        "UR"
      ],
      [
        "V",
        "EPATTERN"
      ],
      [
        "ĠRE",
        "CUR"
      ],
      [
        "SI",
        "VEPATTERN"
      ],
      [
        "ĠRECUR",
        "SIVEPATTERN"
      ],
      [
        "Ġ",
        "DECLAR"
      ],
      [
        "In",
        "dex"
      ],
      [
        "ĠDECLAR",
        "ATIONEXPRESSION"
      ],
      [
        "AL",
        "I"
      ],
      [
        "ĠV",
        "isit"
      ],
      [
        "Me",
        "mber"
      ],
      [
        "ĠPO",
        "ST"
      ],
      [
        "TYP",
        "ATTERN"
      ],
      [
        "ĠPROPER",
        "TYPATTERN"
      ],
      [
        "ĠPROPERTYPATTERN",
        "CLAUSE"
      ],
      [
        "ĠIn",
        "v"
      ],
      [
        "u",
        "s"
      ],
      [
        "S",
        "ql"
      ],
      [
        "u",
        "g"
      ],
      [
        "S",
        "P"
      ],
      [
        "ĠC",
        "O"
      ],
      [
        "H",
        "E"
      ],
      [
        "S",
        "et"
      ],
      [
        "gument",
        "s"
      ],
      [
        "pd",
        "ate"
      ],
      [
        "P",
        "arameter"
      ],
      [
        "IN",
        "D"
      ],
      [
        "m",
        "m"
      ],
      [
        "I",
        "ALI"
      ],
      [
        "Z",
        "ER"
      ],
      [
        "IT",
        "IALI"
      ],
      [
        "IN",
        "ITIALI"
      ],
      [
        "ZER",
        "EXPRESSION"
      ],
      [
        "INITIALI",
        "ZEREXPRESSION"
      ],
      [
        "ĠDeclar",
        "ingType"
      ],
      [
        "T",
        "R"
      ],
      [
        "Ġs",
        "peci"
      ],
      [
        "Ġ",
        "6"
      ],
      [
        "Collection",
        "s"
      ],
      [
        "ĠS",
        "elect"
      ],
      [
        "as",
        "k"
      ],
      [
        "ur",
        "rent"
      ],
      [
        "AC",
        "T"
      ],
      [
        "ĠM",
        "a"
      ],
      [
        "ĠFOR",
        "STATEMENT"
      ],
      [
        "ĠSUB",
        "TR"
      ],
      [
        "ĠSUBTR",
        "ACT"
      ],
      [
        "i",
        "le"
      ],
      [
        "Ġ",
        "_"
      ],
      [
        "S",
        "C"
      ],
      [
        "s",
        "pa"
      ],
      [
        "al",
        "id"
      ],
      [
        "c",
        "k"
      ],
      [
        "i",
        "tion"
      ],
      [
        "ĠA",
        "r"
      ],
      [
        "SC",
        "E"
      ],
      [
        "1",
        "2"
      ],
      [
        "at",
        "ed"
      ],
      [
        "Null",
        "able"
      ],
      [
        "ĠP",
        "roperty"
      ],
      [
        "AB",
        "EL"
      ],
      [
        "ABLE",
        "TYPE"
      ],
      [
        "ĠNULL",
        "ABLETYPE"
      ],
      [
        "Key",
        "Value"
      ],
      [
        "al",
        "iz"
      ],
      [
        "ĠTH",
        "IS"
      ],
      [
        "ĠTHIS",
        "EXPRESSION"
      ],
      [
        "L",
        "ABEL"
      ],
      [
        "S",
        "WITCH"
      ],
      [
        "SWITCH",
        "LABEL"
      ],
      [
        "ĠEqual",
        "s"
      ],
      [
        "E",
        "SCE"
      ],
      [
        "AL",
        "ESCE"
      ],
      [
        "re",
        "d"
      ],
      [
        "To",
        "ken"
      ],
      [
        "ĠCO",
        "ALESCE"
      ],
      [
        "Ġ",
        "."
      ],
      [
        "Ġspeci",
        "fied"
      ],
      [
        "at",
        "ab"
      ],
      [
        "B",
        "IND"
      ],
      [
        "c",
        "cess"
      ],
      [
        "AL",
        "ACCESSEXPRESSION"
      ],
      [
        "ĠCONDITION",
        "ALACCESSEXPRESSION"
      ],
      [
        "BIND",
        "INGEXPRESSION"
      ],
      [
        "Ġ",
        "MEMBER"
      ],
      [
        "ĠA",
        "N"
      ],
      [
        "atab",
        "ase"
      ],
      [
        "ĠMEMBER",
        "BINDINGEXPRESSION"
      ],
      [
        "l",
        "l"
      ],
      [
        "ĠC",
        "H"
      ],
      [
        "ra",
        "in"
      ],
      [
        "AR",
        "AC"
      ],
      [
        "TER",
        "LITERALEXPRESSION"
      ],
      [
        "am",
        "ple"
      ],
      [
        "ĠCH",
        "ARAC"
      ],
      [
        "ĠCHARAC",
        "TERLITERALEXPRESSION"
      ],
      [
        "ar",
        "g"
      ],
      [
        "BJEC",
        "T"
      ],
      [
        "V",
        "ARIABLE"
      ],
      [
        "o",
        "re"
      ],
      [
        "Ġu",
        "s"
      ],
      [
        "ĠPOST",
        "INCREMENTEXPRESSION"
      ],
      [
        "K",
        "SP"
      ],
      [
        "R",
        "AN"
      ],
      [
        "pe",
        "d"
      ],
      [
        "EC",
        "IFIER"
      ],
      [
        "ĠARRAY",
        "TYPE"
      ],
      [
        "ĠARRAY",
        "RAN"
      ],
      [
        "ser",
        "t"
      ],
      [
        "KSP",
        "ECIFIER"
      ],
      [
        "ĠARRAYRAN",
        "KSPECIFIER"
      ],
      [
        "D",
        "ata"
      ],
      [
        "ĠU",
        "n"
      ],
      [
        "tr",
        "ies"
      ],
      [
        "ĠSUBTRACT",
        "EXPRESSION"
      ],
      [
        "S",
        "ource"
      ],
      [
        "c",
        "ri"
      ],
      [
        "ĠS",
        "t"
      ],
      [
        "d",
        "ent"
      ],
      [
        "al",
        "l"
      ],
      [
        "Ġin",
        "dex"
      ],
      [
        "act",
        "ory"
      ],
      [
        "O",
        "US"
      ],
      [
        "ON",
        "YM"
      ],
      [
        "ĠAN",
        "ONYM"
      ],
      [
        "ĠANONYM",
        "OUS"
      ],
      [
        "f",
        "er"
      ],
      [
        "ar",
        "er"
      ],
      [
        "ĠNOT",
        "PATTERN"
      ],
      [
        "ĠANONYMOUS",
        "O"
      ],
      [
        "mm",
        "and"
      ],
      [
        "un",
        "c"
      ],
      [
        "Ġentity",
        "Type"
      ],
      [
        "Pro",
        "jection"
      ],
      [
        "T",
        "E"
      ],
      [
        "or",
        "m"
      ],
      [
        "stan",
        "t"
      ],
      [
        "F",
        "actory"
      ],
      [
        "M",
        "odel"
      ],
      [
        "T",
        "Value"
      ],
      [
        "ar",
        "t"
      ],
      [
        "en",
        "ce"
      ],
      [
        "q",
        "u"
      ],
      [
        "v",
        "en"
      ],
      [
        "Ġo",
        "bject"
      ],
      [
        "ĠE",
        "n"
      ],
      [
        "es",
        "s"
      ],
      [
        "Enumer",
        "ator"
      ],
      [
        "Ġ",
        "de"
      ],
      [
        "at",
        "ch"
      ],
      [
        "ĠInv",
        "alid"
      ],
      [
        "ĠTo",
        "String"
      ],
      [
        "ĠOr",
        "der"
      ],
      [
        "ĠCOALESCE",
        "EXPRESSION"
      ],
      [
        "b",
        "Context"
      ],
      [
        "W",
        "ith"
      ],
      [
        "k",
        "e"
      ],
      [
        "ti",
        "es"
      ],
      [
        "A",
        "dd"
      ],
      [
        "p",
        "l"
      ],
      [
        "ĠS",
        "ystem"
      ],
      [
        "Ġb",
        "uilder"
      ],
      [
        "Operation",
        "Exception"
      ],
      [
        "ĠInvalid",
        "OperationException"
      ],
      [
        "ĠCA",
        "SE"
      ],
      [
        "isit",
        "or"
      ],
      [
        "G",
        "rain"
      ],
      [
        "ro",
        "w"
      ],
      [
        "m",
        "ory"
      ],
      [
        "en",
        "sion"
      ],
      [
        "Ar",
        "ray"
      ],
      [
        "ĠS",
        "ql"
      ],
      [
        "Ġcon",
        "fig"
      ],
      [
        "Pa",
        "ir"
      ],
      [
        "L",
        "T"
      ],
      [
        "e",
        "ct"
      ],
      [
        "C",
        "o"
      ],
      [
        "Ġ",
        "t"
      ],
      [
        "ĠE",
        "x"
      ],
      [
        "mp",
        "ty"
      ],
      [
        "KeyValue",
        "Pair"
      ],
      [
        "Ġ",
        "tr"
      ],
      [
        "roper",
        "ties"
      ],
      [
        "ĠTHR",
        "OWEXPRESSION"
      ],
      [
        ">",
        "?"
      ],
      [
        "ur",
        "ation"
      ],
      [
        "ĠF",
        "ind"
      ],
      [
        "Ġe",
        "xpression"
      ],
      [
        "SE",
        "CTION"
      ],
      [
        "ĠSWITCH",
        "SECTION"
      ],
      [
        "f",
        "in"
      ],
      [
        "ar",
        "ti"
      ],
      [
        "er",
        "s"
      ],
      [
        "ĠI",
        "Enumerable"
      ],
      [
        "arti",
        "tion"
      ],
      [
        "se",
        "mb"
      ],
      [
        "ig",
        "r"
      ],
      [
        "ir",
        "st"
      ],
      [
        "E",
        "D"
      ],
      [
        "R",
        "es"
      ],
      [
        "Ġ",
        "Key"
      ],
      [
        "ĠRe",
        "move"
      ],
      [
        "LE",
        "CTION"
      ],
      [
        "ĠC",
        "OL"
      ],
      [
        "ĠA",
        "s"
      ],
      [
        "ĠCo",
        "smos"
      ],
      [
        "ervic",
        "e"
      ],
      [
        "ĠCOL",
        "LECTION"
      ],
      [
        "vi",
        "der"
      ],
      [
        "semb",
        "ly"
      ],
      [
        "Ġ",
        "g"
      ],
      [
        "ĠS",
        "et"
      ],
      [
        "Ġs",
        "ource"
      ],
      [
        "ĠI",
        "ReadOnly"
      ],
      [
        "ub",
        "le"
      ],
      [
        "ĠPro",
        "duct"
      ],
      [
        "igr",
        "ation"
      ],
      [
        "ar",
        "ch"
      ],
      [
        "i",
        "ti"
      ],
      [
        "ĠT",
        "ask"
      ],
      [
        "ĠL",
        "i"
      ],
      [
        "i",
        "me"
      ],
      [
        "th",
        "er"
      ],
      [
        "A",
        "NG"
      ],
      [
        "h",
        "ar"
      ],
      [
        "Ġ",
        "7"
      ],
      [
        "Gener",
        "ator"
      ],
      [
        "ĠR",
        "ANG"
      ],
      [
        "ĠRANG",
        "E"
      ],
      [
        "0",
        "0"
      ],
      [
        "Ex",
        "ample"
      ],
      [
        "ver",
        "t"
      ],
      [
        "ĠTry",
        "Get"
      ],
      [
        "ven",
        "tion"
      ],
      [
        "A",
        "IT"
      ],
      [
        "E",
        "NT"
      ],
      [
        "S",
        "ha"
      ],
      [
        "W",
        "AIT"
      ],
      [
        "ĠA",
        "WAIT"
      ],
      [
        "Syntax",
        "Example"
      ],
      [
        "ĠAWAIT",
        "EXPRESSION"
      ],
      [
        "1",
        "4"
      ],
      [
        "E",
        "LEMENT"
      ],
      [
        "E",
        "qual"
      ],
      [
        "Ġf",
        "rom"
      ],
      [
        "E",
        "QU"
      ],
      [
        "an",
        "ce"
      ],
      [
        "OR",
        "EQU"
      ],
      [
        "THAN",
        "OREQU"
      ],
      [
        "Tr",
        "ansl"
      ],
      [
        "THANOREQU",
        "ALEXPRESSION"
      ],
      [
        "I",
        "Enumerable"
      ],
      [
        "O",
        "f"
      ],
      [
        "Z",
        "ED"
      ],
      [
        "ĠPAR",
        "ENT"
      ],
      [
        "si",
        "g"
      ],
      [
        "SI",
        "ZED"
      ],
      [
        "HE",
        "SIZED"
      ],
      [
        "ĠPARENT",
        "HESIZED"
      ],
      [
        "U",
        "n"
      ],
      [
        "P",
        "L"
      ],
      [
        "sig",
        "n"
      ],
      [
        "o",
        "bject"
      ],
      [
        "tain",
        "er"
      ],
      [
        "ĠGREATER",
        "THANEXPRESSION"
      ],
      [
        "in",
        "al"
      ],
      [
        "Me",
        "mory"
      ],
      [
        "d",
        "a"
      ],
      [
        "a",
        "v"
      ],
      [
        "ĠA",
        "n"
      ],
      [
        "ter",
        "al"
      ],
      [
        "Ġ",
        "l"
      ],
      [
        "ĠCon",
        "tains"
      ],
      [
        "iti",
        "aliz"
      ],
      [
        "h",
        "t"
      ],
      [
        "b",
        "da"
      ],
      [
        "am",
        "bda"
      ],
      [
        "Type",
        "Mapping"
      ],
      [
        "Comp",
        "arer"
      ],
      [
        "1",
        "5"
      ],
      [
        "ĠW",
        "ith"
      ],
      [
        "u",
        "p"
      ],
      [
        "ect",
        "or"
      ],
      [
        "ĠF",
        "unc"
      ],
      [
        "Ġp",
        "arameter"
      ],
      [
        "Ġ",
        "J"
      ],
      [
        "St",
        "ate"
      ],
      [
        "spa",
        "ce"
      ],
      [
        "o",
        "in"
      ],
      [
        "a",
        "p"
      ],
      [
        "g",
        "e"
      ],
      [
        "ig",
        "ation"
      ],
      [
        "fin",
        "ition"
      ],
      [
        "av",
        "igation"
      ],
      [
        "K",
        "STATEMENT"
      ],
      [
        "T",
        "ime"
      ],
      [
        "Ġi",
        "tem"
      ],
      [
        "1",
        "3"
      ],
      [
        "D",
        "bContext"
      ],
      [
        "MEMBER",
        "DECLARATOR"
      ],
      [
        "ig",
        "n"
      ],
      [
        "BJECT",
        "MEMBERDECLARATOR"
      ],
      [
        "ped",
        "QueryExpression"
      ],
      [
        "ĠANONYMOUSO",
        "BJECTMEMBERDECLARATOR"
      ],
      [
        "ĠG",
        "ener"
      ],
      [
        "q",
        "ue"
      ],
      [
        "ĠRANGE",
        "VARIABLE"
      ],
      [
        "M",
        "an"
      ],
      [
        "Generic",
        "Type"
      ],
      [
        "ar",
        "i"
      ],
      [
        "l",
        "r"
      ],
      [
        "Ġus",
        "ing"
      ],
      [
        "ĠCOLLECTION",
        "EXPRESSION"
      ],
      [
        "f",
        "t"
      ],
      [
        "ĠTh",
        "row"
      ],
      [
        "ri",
        "g"
      ],
      [
        "Ġdo",
        "uble"
      ],
      [
        "A",
        "KSTATEMENT"
      ],
      [
        "RE",
        "AKSTATEMENT"
      ],
      [
        "i",
        "m"
      ],
      [
        "o",
        "w"
      ],
      [
        "E",
        "mpty"
      ],
      [
        "Ġ",
        "EXPRESSION"
      ],
      [
        "S",
        "elect"
      ],
      [
        "ĠU",
        "pdate"
      ],
      [
        "un",
        "ction"
      ],
      [
        "o",
        "c"
      ],
      [
        "ou",
        "n"
      ],
      [
        "Ġa",
        "dd"
      ],
      [
        "Ġo",
        "ther"
      ],
      [
        "ing",
        "le"
      ],
      [
        "ore",
        "ign"
      ],
      [
        "ĠLi",
        "teral"
      ],
      [
        "e",
        "mber"
      ],
      [
        "ĠGREATER",
        "THANOREQUALEXPRESSION"
      ],
      [
        "A",
        "ccess"
      ],
      [
        "Ġ",
        "OR"
      ],
      [
        "lr",
        "Type"
      ],
      [
        "c",
        "o"
      ],
      [
        "h",
        "Code"
      ],
      [
        "C",
        "ol"
      ],
      [
        "ed",
        "Dictionary"
      ],
      [
        "Ġm",
        "odel"
      ],
      [
        "ĠDe",
        "fault"
      ],
      [
        "ĠP",
        "arameter"
      ],
      [
        "ate",
        "g"
      ],
      [
        "oreign",
        "Key"
      ],
      [
        "I",
        "D"
      ],
      [
        "G",
        "U"
      ],
      [
        "AR",
        "GU"
      ],
      [
        "ĠB",
        "REAKSTATEMENT"
      ],
      [
        "to",
        "m"
      ],
      [
        "ARGU",
        "MENT"
      ],
      [
        "v",
        "ent"
      ],
      [
        "ti",
        "me"
      ],
      [
        "q",
        "uery"
      ],
      [
        "De",
        "finition"
      ],
      [
        "us",
        "tom"
      ],
      [
        "Ġ",
        "8"
      ],
      [
        "ĠPR",
        "E"
      ],
      [
        "T",
        "ext"
      ],
      [
        "Y",
        "EXPRESSION"
      ],
      [
        "Pro",
        "duct"
      ],
      [
        "ĠMa",
        "ke"
      ],
      [
        "R",
        "o"
      ],
      [
        "ĠD",
        "IS"
      ],
      [
        "ĠU",
        "N"
      ],
      [
        "C",
        "AR"
      ],
      [
        "ĠS",
        "ha"
      ],
      [
        "as",
        "s"
      ],
      [
        "ter",
        "fa"
      ],
      [
        "ĠDIS",
        "CAR"
      ],
      [
        "ĠDISCAR",
        "D"
      ],
      [
        "B",
        "y"
      ],
      [
        "S",
        "e"
      ],
      [
        "n",
        "e"
      ],
      [
        "Ġ",
        "h"
      ],
      [
        "ĠW",
        "H"
      ],
      [
        "Default",
        "Value"
      ],
      [
        "arg",
        "et"
      ],
      [
        "O",
        "bject"
      ],
      [
        "t",
        "ension"
      ],
      [
        "AR",
        "YM"
      ],
      [
        "Ex",
        "tension"
      ],
      [
        "mp",
        "le"
      ],
      [
        "IN",
        "US"
      ],
      [
        "ĠUN",
        "ARYM"
      ],
      [
        "INUS",
        "EXPRESSION"
      ],
      [
        "ĠUNARYM",
        "INUSEXPRESSION"
      ],
      [
        "en",
        "tries"
      ],
      [
        "Ġm",
        "ethod"
      ],
      [
        "b",
        "ug"
      ],
      [
        "um",
        "b"
      ],
      [
        "I",
        "ReadOnly"
      ],
      [
        "L",
        "og"
      ],
      [
        "s",
        "on"
      ],
      [
        "is",
        "e"
      ],
      [
        "Pro",
        "vider"
      ],
      [
        "ĠTr",
        "ansl"
      ],
      [
        "fer",
        "ence"
      ],
      [
        "i",
        "fied"
      ],
      [
        "en",
        "ti"
      ],
      [
        "ll",
        "ation"
      ],
      [
        "m",
        "in"
      ],
      [
        "ĠCon",
        "vert"
      ],
      [
        "Ġ",
        "ar"
      ],
      [
        "Ġ",
        "Query"
      ],
      [
        "ĠGet",
        "D"
      ],
      [
        "ess",
        "age"
      ],
      [
        "w",
        "ise"
      ],
      [
        "oun",
        "d"
      ],
      [
        "F",
        "ile"
      ],
      [
        "V",
        "isitor"
      ],
      [
        "ĠW",
        "h"
      ],
      [
        "String",
        "Builder"
      ],
      [
        "ĠPRE",
        "INCREMENTEXPRESSION"
      ],
      [
        "I",
        "f"
      ],
      [
        "f",
        "f"
      ],
      [
        "Ar",
        "guments"
      ],
      [
        "ĠMethod",
        "Info"
      ],
      [
        "ĠEXPRESSION",
        "ELEMENT"
      ],
      [
        "d",
        "ge"
      ],
      [
        "Or",
        "Default"
      ],
      [
        "C",
        "h"
      ],
      [
        "l",
        "u"
      ],
      [
        "Ġ",
        "DE"
      ],
      [
        "Ġ",
        "al"
      ],
      [
        "ĠD",
        "is"
      ],
      [
        "li",
        "ent"
      ],
      [
        "ĠDe",
        "bug"
      ],
      [
        "ĠOR",
        "PATTERN"
      ],
      [
        "B",
        "ase"
      ],
      [
        "ic",
        "ate"
      ],
      [
        "ĠCon",
        "fig"
      ],
      [
        "ĠSql",
        "Expression"
      ],
      [
        "c",
        "a"
      ],
      [
        "ĠIReadOnly",
        "List"
      ],
      [
        "ĠPARENTHESIZED",
        "LAMBDAEXPRESSION"
      ],
      [
        "Select",
        "or"
      ],
      [
        "upport",
        "ed"
      ],
      [
        "F",
        "AU"
      ],
      [
        "a",
        "ction"
      ],
      [
        "ind",
        "ing"
      ],
      [
        "ĠCASE",
        "SWITCHLABEL"
      ],
      [
        "ĠGener",
        "ate"
      ],
      [
        "ĠDE",
        "FAU"
      ],
      [
        "ĠDEFAU",
        "LT"
      ],
      [
        "U",
        "pdate"
      ],
      [
        "IC",
        "ollection"
      ],
      [
        "ur",
        "n"
      ],
      [
        "har",
        "p"
      ],
      [
        "ne",
        "ction"
      ],
      [
        "Ġth",
        "is"
      ],
      [
        "ĠF",
        "irst"
      ],
      [
        "ari",
        "able"
      ],
      [
        "S",
        "harp"
      ],
      [
        "per",
        "Expression"
      ],
      [
        "ĠCo",
        "mmand"
      ],
      [
        "ĠAr",
        "gument"
      ],
      [
        "ĠAr",
        "guments"
      ],
      [
        "Ġother",
        "wise"
      ],
      [
        "i",
        "e"
      ],
      [
        "ĠTryGet",
        "Value"
      ],
      [
        "C",
        "H"
      ],
      [
        "S",
        "upported"
      ],
      [
        "Con",
        "fig"
      ],
      [
        "I",
        "tem"
      ],
      [
        "r",
        "in"
      ],
      [
        "Ġw",
        "as"
      ],
      [
        "ĠARRAY",
        "INITIALIZEREXPRESSION"
      ],
      [
        "Ġcon",
        "text"
      ],
      [
        "ĠEn",
        "try"
      ],
      [
        "T",
        "able"
      ],
      [
        "r",
        "or"
      ],
      [
        "ro",
        "up"
      ],
      [
        "ĠGet",
        "Type"
      ],
      [
        "re",
        "ment"
      ],
      [
        "ri",
        "m"
      ],
      [
        "ĠHas",
        "DefaultValue"
      ],
      [
        "ĠTransl",
        "ate"
      ],
      [
        "I",
        "LE"
      ],
      [
        "M",
        "IT"
      ],
      [
        "y",
        "mb"
      ],
      [
        "DTYPE",
        "ARGUMENT"
      ],
      [
        "ĠO",
        "MIT"
      ],
      [
        "Ġe",
        "x"
      ],
      [
        "stan",
        "ce"
      ],
      [
        "TE",
        "DTYPEARGUMENT"
      ],
      [
        "ĠWH",
        "ILE"
      ],
      [
        "ymb",
        "ol"
      ],
      [
        "ĠOMIT",
        "TEDTYPEARGUMENT"
      ],
      [
        "ĠWHILE",
        "STATEMENT"
      ],
      [
        "AT",
        "CH"
      ],
      [
        "ĠC",
        "ATCH"
      ],
      [
        "ro",
        "ug"
      ],
      [
        "ĠL",
        "ambda"
      ],
      [
        "En",
        "try"
      ],
      [
        "llation",
        "Token"
      ],
      [
        "roug",
        "h"
      ],
      [
        "ig",
        "ht"
      ],
      [
        "As",
        "sert"
      ],
      [
        "Nullable",
        "Type"
      ],
      [
        "ĠDebug",
        "Assert"
      ],
      [
        "Ġs",
        "e"
      ],
      [
        "ĠCon",
        "stant"
      ],
      [
        "cri",
        "ption"
      ],
      [
        "ĠS",
        "h"
      ],
      [
        "re",
        "am"
      ],
      [
        "ans",
        "action"
      ],
      [
        "Ġde",
        "fault"
      ],
      [
        "pl",
        "ay"
      ],
      [
        "Ġconfig",
        "uration"
      ],
      [
        "P",
        "roperties"
      ],
      [
        "Ġn",
        "ode"
      ],
      [
        "es",
        "sion"
      ],
      [
        "[]",
        ":"
      ],
      [
        "itializ",
        "ed"
      ],
      [
        "o",
        "ve"
      ],
      [
        "In",
        "dent"
      ],
      [
        "In",
        "terfa"
      ],
      [
        "ver",
        "sion"
      ],
      [
        "ec",
        "on"
      ],
      [
        "U",
        "PLE"
      ],
      [
        "al",
        "se"
      ],
      [
        "ĠT",
        "UPLE"
      ],
      [
        "e",
        "l"
      ],
      [
        "orm",
        "at"
      ],
      [
        "C",
        "ount"
      ],
      [
        "c",
        "al"
      ],
      [
        "Data",
        "Annotation"
      ],
      [
        "artition",
        "Key"
      ],
      [
        "ap",
        "s"
      ],
      [
        "a",
        "der"
      ],
      [
        "er",
        "e"
      ],
      [
        "eth",
        "er"
      ],
      [
        "As",
        "sign"
      ],
      [
        "ĠSt",
        "ate"
      ],
      [
        "Ro",
        "ot"
      ],
      [
        "n",
        "er"
      ],
      [
        "cri",
        "min"
      ],
      [
        "crimin",
        "ator"
      ],
      [
        "D",
        "is"
      ],
      [
        "C",
        "REATIONEXPRESSION"
      ],
      [
        "F",
        "oreignKey"
      ],
      [
        "P",
        "aram"
      ],
      [
        "Options",
        "Builder"
      ],
      [
        "ĠS",
        "tring"
      ],
      [
        "ĠC",
        "lrType"
      ],
      [
        "Ġc",
        "urrent"
      ],
      [
        "ĠIn",
        "dent"
      ],
      [
        "ĠRe",
        "ad"
      ],
      [
        "ĠMethod",
        "SyntaxExample"
      ],
      [
        "enti",
        "fi"
      ],
      [
        "Ġan",
        "notation"
      ],
      [
        "es",
        "t"
      ],
      [
        "Ġas",
        "ync"
      ],
      [
        "ĠConfig",
        "ure"
      ],
      [
        "to",
        "re"
      ],
      [
        "ol",
        "d"
      ],
      [
        "E",
        "lement"
      ],
      [
        "i",
        "er"
      ],
      [
        "Code",
        "Generator"
      ],
      [
        "pl",
        "a"
      ],
      [
        "Res",
        "ult"
      ],
      [
        "A",
        "t"
      ],
      [
        "F",
        "rom"
      ],
      [
        "d",
        "inal"
      ],
      [
        "u",
        "id"
      ],
      [
        "1",
        "7"
      ],
      [
        "ier",
        "arch"
      ],
      [
        "N",
        "CLAUSE"
      ],
      [
        "p",
        "o"
      ],
      [
        "Ġ",
        "H"
      ],
      [
        "ut",
        "e"
      ],
      [
        "ĠW",
        "HE"
      ],
      [
        "ig",
        "ger"
      ],
      [
        "Ġwh",
        "ether"
      ],
      [
        "ervic",
        "es"
      ],
      [
        "spa",
        "ces"
      ],
      [
        "Man",
        "y"
      ],
      [
        "ĠWHE",
        "NCLAUSE"
      ],
      [
        ">",
        "."
      ],
      [
        "C",
        "all"
      ],
      [
        "i",
        "p"
      ],
      [
        "Ġ",
        "9"
      ],
      [
        "Or",
        "der"
      ],
      [
        "c",
        "on"
      ],
      [
        "ĠThrow",
        "If"
      ],
      [
        "S",
        "ervice"
      ],
      [
        "o",
        "st"
      ],
      [
        "er",
        "ver"
      ],
      [
        "ĠIs",
        "Null"
      ],
      [
        "ĠARRAY",
        "CREATIONEXPRESSION"
      ],
      [
        "Parameter",
        "s"
      ],
      [
        "le",
        "ar"
      ],
      [
        "Ġtr",
        "igger"
      ],
      [
        "rough",
        "put"
      ],
      [
        "?",
        ":"
      ],
      [
        "R",
        "et"
      ],
      [
        "ĠTo",
        "List"
      ],
      [
        "entifi",
        "er"
      ],
      [
        "<",
        ">"
      ],
      [
        "u",
        "ccess"
      ],
      [
        "Ġo",
        "ptions"
      ],
      [
        "ra",
        "p"
      ],
      [
        "ĠDISCARD",
        "PATTERN"
      ],
      [
        "N",
        "ot"
      ],
      [
        "un",
        "time"
      ],
      [
        "B",
        "inding"
      ],
      [
        "D",
        "ASSIGNMENTEXPRESSION"
      ],
      [
        "c",
        "ount"
      ],
      [
        "h",
        "Set"
      ],
      [
        "Expression",
        "Visitor"
      ],
      [
        "Con",
        "stant"
      ],
      [
        "qu",
        "ire"
      ],
      [
        "Ġconfig",
        "ure"
      ],
      [
        "N",
        "avigation"
      ],
      [
        "i",
        "te"
      ],
      [
        "2",
        "0"
      ],
      [
        "S",
        "ystem"
      ],
      [
        "Ġ1",
        "0"
      ],
      [
        "er",
        "i"
      ],
      [
        "play",
        "Name"
      ],
      [
        "M",
        "PL"
      ],
      [
        "Ġ",
        "lo"
      ],
      [
        "re",
        "n"
      ],
      [
        "ĠL",
        "og"
      ],
      [
        "PATTERN",
        "SWITCHLABEL"
      ],
      [
        "ult",
        "ure"
      ],
      [
        "Pa",
        "th"
      ],
      [
        "qu",
        "ence"
      ],
      [
        "ĠCASE",
        "PATTERNSWITCHLABEL"
      ],
      [
        "quire",
        "d"
      ],
      [
        "O",
        "ption"
      ],
      [
        "r",
        "ror"
      ],
      [
        "Ġd",
        "atabase"
      ],
      [
        "ĠAD",
        "DASSIGNMENTEXPRESSION"
      ],
      [
        "pla",
        "ce"
      ],
      [
        "1",
        "6"
      ],
      [
        "o",
        "m"
      ],
      [
        "ĠE",
        "ns"
      ],
      [
        "or",
        "der"
      ],
      [
        "Th",
        "an"
      ],
      [
        "Ar",
        "gument"
      ],
      [
        "ĠLambda",
        "Expression"
      ],
      [
        "ĠEns",
        "ure"
      ],
      [
        "on",
        "vention"
      ],
      [
        "IC",
        "onvention"
      ],
      [
        "es",
        "cription"
      ],
      [
        "ary",
        "Expression"
      ],
      [
        "ĠTry",
        "Add"
      ],
      [
        "A",
        "SE"
      ],
      [
        "d",
        "ictionary"
      ],
      [
        "i",
        "b"
      ],
      [
        "ĠB",
        "ASE"
      ],
      [
        "ĠF",
        "rom"
      ],
      [
        "able",
        "d"
      ],
      [
        "umer",
        "ator"
      ],
      [
        "cess",
        "or"
      ],
      [
        "Ġfrom",
        "DataAnnotation"
      ],
      [
        "ateg",
        "ory"
      ],
      [
        "ca",
        "ff"
      ],
      [
        "ĠBASE",
        "EXPRESSION"
      ],
      [
        "Name",
        "s"
      ],
      [
        "S",
        "ymbol"
      ],
      [
        "U",
        "LT"
      ],
      [
        "o",
        "ad"
      ],
      [
        "p",
        "end"
      ],
      [
        "Ġu",
        "n"
      ],
      [
        "Ġen",
        "try"
      ],
      [
        "ULT",
        "I"
      ],
      [
        "U",
        "N"
      ],
      [
        "a",
        "ch"
      ],
      [
        "b",
        "le"
      ],
      [
        "r",
        "ag"
      ],
      [
        "Ġo",
        "peration"
      ],
      [
        "ĠM",
        "ULTI"
      ],
      [
        "Con",
        "s"
      ],
      [
        "ec",
        "k"
      ],
      [
        "Generic",
        "Method"
      ],
      [
        "ĠNot",
        "Supported"
      ],
      [
        "Equal",
        "ity"
      ],
      [
        "rag",
        "ment"
      ],
      [
        "ĠMULTI",
        "PL"
      ],
      [
        "ĠNotSupported",
        "Exception"
      ],
      [
        "p",
        "on"
      ],
      [
        "ĠI",
        "d"
      ],
      [
        "ĠC",
        "lear"
      ],
      [
        "Ġv",
        "isitor"
      ],
      [
        "ĠO",
        "BJECT"
      ],
      [
        "Re",
        "quired"
      ],
      [
        "ated",
        "Expression"
      ],
      [
        "ĠOBJECT",
        "INITIALIZEREXPRESSION"
      ],
      [
        "T",
        "IN"
      ],
      [
        "u",
        "age"
      ],
      [
        "v",
        "alue"
      ],
      [
        "ĠNAME",
        "EQUALS"
      ],
      [
        "Ġn",
        "umb"
      ],
      [
        "ĠEntity",
        "Type"
      ],
      [
        "ang",
        "uage"
      ],
      [
        "Ġf",
        "ound"
      ],
      [
        "ĠWh",
        "ere"
      ],
      [
        "UN",
        "CTION"
      ],
      [
        "ĠMULTIPL",
        "YEXPRESSION"
      ],
      [
        "P",
        "l"
      ],
      [
        "pp",
        "er"
      ],
      [
        "et",
        "ad"
      ],
      [
        "ĠCo",
        "mp"
      ],
      [
        "co",
        "pe"
      ],
      [
        "Log",
        "ger"
      ],
      [
        "etad",
        "ata"
      ],
      [
        "1",
        "8"
      ],
      [
        "I",
        "ELD"
      ],
      [
        "ĠU",
        "se"
      ],
      [
        "ĠY",
        "IELD"
      ],
      [
        "As",
        "sembly"
      ],
      [
        "ĠHas",
        "hSet"
      ],
      [
        "ĠSha",
        "pedQueryExpression"
      ],
      [
        "ĠIsNull",
        "Or"
      ],
      [
        "D",
        "atabase"
      ],
      [
        "Ġ",
        "j"
      ],
      [
        "Ġ",
        "arg"
      ],
      [
        "Ġd",
        "ata"
      ],
      [
        "Ġu",
        "int"
      ],
      [
        "Ġpro",
        "duct"
      ],
      [
        "ĠNot",
        "Transl"
      ],
      [
        "Ġus",
        "ed"
      ],
      [
        "ĠAn",
        "y"
      ],
      [
        "rement",
        "Indent"
      ],
      [
        "ĠHasDefaultValue",
        "Sql"
      ],
      [
        "Ret",
        "urns"
      ],
      [
        "ĠNotTransl",
        "atedExpression"
      ],
      [
        "i",
        "ag"
      ],
      [
        "Re",
        "move"
      ],
      [
        "ĠM",
        "odel"
      ],
      [
        "Ġcon",
        "tains"
      ],
      [
        "On",
        "e"
      ],
      [
        "ĠSt",
        "art"
      ],
      [
        "ĠString",
        "Builder"
      ],
      [
        "ierarch",
        "y"
      ],
      [
        "iag",
        "no"
      ],
      [
        "D",
        "ate"
      ],
      [
        "l",
        "ass"
      ],
      [
        "s",
        "tic"
      ],
      [
        "Ġs",
        "et"
      ],
      [
        "as",
        "t"
      ],
      [
        "il",
        "l"
      ],
      [
        "um",
        "n"
      ],
      [
        "ha",
        "in"
      ],
      [
        "Tr",
        "ansaction"
      ],
      [
        "ie",
        "ld"
      ],
      [
        "iagno",
        "stic"
      ],
      [
        "V",
        "ariable"
      ],
      [
        "u",
        "f"
      ],
      [
        "Has",
        "hCode"
      ],
      [
        "red",
        "icate"
      ],
      [
        "ession",
        "Token"
      ],
      [
        "N",
        "ext"
      ],
      [
        "a",
        "red"
      ],
      [
        "on",
        "e"
      ],
      [
        "ang",
        "e"
      ],
      [
        "rig",
        "ger"
      ],
      [
        "ĠQuery",
        "SyntaxExample"
      ],
      [
        "In",
        "itialized"
      ],
      [
        "Re",
        "ference"
      ],
      [
        "ĠPro",
        "jection"
      ],
      [
        "Method",
        "Info"
      ],
      [
        "ition",
        "al"
      ],
      [
        "ĠTUPLE",
        "EXPRESSION"
      ],
      [
        "1",
        "9"
      ],
      [
        "2",
        "3"
      ],
      [
        "B",
        "atch"
      ],
      [
        "ĠO",
        "n"
      ],
      [
        "ĠTh",
        "is"
      ],
      [
        "iz",
        "e"
      ],
      [
        "ĠANONYMOUSO",
        "BJECTCREATIONEXPRESSION"
      ],
      [
        "que",
        "st"
      ],
      [
        "R",
        "O"
      ],
      [
        "y",
        "c"
      ],
      [
        "ĠC",
        "urrent"
      ],
      [
        "il",
        "ation"
      ],
      [
        "Con",
        "vention"
      ],
      [
        "ĠIs",
        "S"
      ],
      [
        "ĠIn",
        "dex"
      ],
      [
        "ĠentityType",
        "Builder"
      ],
      [
        "F",
        "i"
      ],
      [
        "O",
        "ut"
      ],
      [
        "c",
        "count"
      ],
      [
        "p",
        "ol"
      ],
      [
        "le",
        "d"
      ],
      [
        "Ġc",
        "all"
      ],
      [
        "Type",
        "s"
      ],
      [
        "ĠO",
        "bject"
      ],
      [
        "Ġen",
        "tries"
      ],
      [
        "ĠOr",
        "dinal"
      ],
      [
        "ck",
        "et"
      ],
      [
        "Sha",
        "perExpression"
      ],
      [
        "ance",
        "llationToken"
      ],
      [
        "caff",
        "old"
      ],
      [
        "C",
        "lient"
      ],
      [
        "G",
        "roup"
      ],
      [
        "g",
        "no"
      ],
      [
        "w",
        "rap"
      ],
      [
        "y",
        "te"
      ],
      [
        "UE",
        "STATEMENT"
      ],
      [
        "Ġin",
        "stance"
      ],
      [
        "Ġre",
        "turns"
      ],
      [
        "ĠCON",
        "TIN"
      ],
      [
        "ĠM",
        "ember"
      ],
      [
        "ull",
        "Text"
      ],
      [
        "Member",
        "Info"
      ],
      [
        "Projection",
        "Expression"
      ],
      [
        "ĠDEFAULT",
        "LITERALEXPRESSION"
      ],
      [
        "ĠCONTIN",
        "UESTATEMENT"
      ],
      [
        "D",
        "et"
      ],
      [
        "F",
        "unction"
      ],
      [
        "J",
        "son"
      ],
      [
        "u",
        "cket"
      ],
      [
        "Ġcon",
        "tainer"
      ],
      [
        "ĠOrder",
        "s"
      ],
      [
        "ĠAs",
        "sembly"
      ],
      [
        "econ",
        "ds"
      ],
      [
        "E",
        "vent"
      ],
      [
        "T",
        "Source"
      ],
      [
        "ĠI",
        "MPL"
      ],
      [
        "ĠT",
        "Param"
      ],
      [
        "ic",
        "al"
      ],
      [
        "IC",
        "IT"
      ],
      [
        "per",
        "and"
      ],
      [
        "ĠM",
        "od"
      ],
      [
        "Ma",
        "p"
      ],
      [
        "ĠOrder",
        "edDictionary"
[...]
